<pad>	0
<unk>	0
<sos>	0
<eos>	0
▁t	-0
he	-1
▁a	-2
▁the	-3
in	-4
▁w	-5
re	-6
nd	-7
▁o	-8
▁s	-9
er	-10
is	-11
ha	-12
ou	-13
▁b	-14
▁f	-15
ed	-16
or	-17
ll	-18
on	-19
en	-20
it	-21
es	-22
▁and	-23
▁c	-24
▁of	-25
▁d	-26
▁p	-27
▁in	-28
▁m	-29
at	-30
ar	-31
▁to	-32
ing	-33
an	-34
▁y	-35
▁A	-36
om	-37
▁you	-38
▁n	-39
▁be	-40
▁T	-41
ho	-42
▁is	-43
ve	-44
le	-45
as	-46
al	-47
hat	-48
▁I	-49
ay	-50
ic	-51
▁g	-52
▁ha	-53
▁e	-54
ot	-55
▁H	-56
ion	-57
▁re	-58
se	-59
st	-60
▁l	-61
ent	-62
▁S	-63
id	-64
▁for	-65
ver	-66
ut	-67
ow	-68
▁W	-69
▁h	-70
im	-71
▁The	-72
ur	-73
ir	-74
ill	-75
ly	-76
▁u	-77
▁that	-78
▁on	-79
▁he	-80
▁M	-81
ig	-82
▁they	-83
ce	-84
am	-85
od	-86
ith	-87
▁them	-88
▁it	-89
▁th	-90
ad	-91
▁not	-92
▁are	-93
il	-94
et	-95
ct	-96
ah	-97
▁B	-98
▁with	-99
▁who	-100
▁(	-101
▁will	-102
ro	-103
▁All	-104
rom	-105
ra	-106
▁we	-107
▁He	-108
▁G	-109
ld	-110
▁as	-111
▁an	-112
ie	-113
▁L	-114
if	-115
▁have	-116
▁st	-117
▁Allah	-118
ht	-119
her	-120
▁was	-121
▁from	-122
th	-123
▁And	-124
▁P	-125
ter	-126
▁C	-127
ul	-128
▁We	-129
ation	-130
▁k	-131
▁se	-132
▁de	-133
ess	-134
all	-135
ak	-136
▁their	-137
ain	-138
▁wh	-139
▁D	-140
ord	-141
op	-142
ac	-143
est	-144
▁com	-145
ers	-146
▁your	-147
ge	-148
nt	-149
▁su	-150
▁O	-151
iv	-152
▁do	-153
ight	-154
ore	-155
▁r	-156
hose	-157
▁1	-158
▁by	-159
▁or	-160
hen	-161
us	-162
and	-163
lie	-164
▁N	-165
ate	-166
ment	-167
un	-168
▁"	-169
▁those	-170
ive	-171
ong	-172
▁sa	-173
▁his	-174
▁R	-175
ch	-176
▁has	-177
▁F	-178
▁ex	-179
now	-180
▁con	-181
ol	-182
▁K	-183
em	-184
ant	-185
▁Lord	-186
▁go	-187
ri	-188
▁at	-189
▁what	-190
▁2	-191
▁him	-192
ich	-193
ard	-194
▁God	-195
red	-196
▁this	-197
pe	-198
art	-199
ould	-200
▁dis	-201
▁pe	-202
▁sha	-203
▁ne	-204
▁al	-205
▁all	-206
ople	-207
res	-208
▁me	-209
os	-210
ind	-211
▁there	-212
▁which	-213
han	-214
▁but	-215
um	-216
▁when	-217
ity	-218
▁were	-219
▁know	-220
▁le	-221
pt	-222
▁v	-223
pp	-224
▁tr	-225
ome	-226
▁people	-227
▁so	-228
▁pl	-229
our	-230
ab	-231
▁ab	-232
ast	-233
ost	-234
▁us	-235
▁Y	-236
so	-237
▁said	-238
▁wor	-239
▁pro	-240
av	-241
ust	-242
ud	-243
ies	-244
ated	-245
▁shall	-246
▁E	-247
ort	-248
qu	-249
▁It	-250
▁J	-251
▁up	-252
ist	-253
ous	-254
ame	-255
▁belie	-256
be	-257
▁In	-258
▁can	-259
▁Ind	-260
ok	-261
▁one	-262
hi	-263
ther	-264
▁20	-265
one	-266
vers	-267
ish	-268
ia	-269
rou	-270
▁U	-271
ake	-272
out	-273
ide	-274
ear	-275
ag	-276
▁man	-277
ik	-278
ure	-279
▁say	-280
▁ear	-281
▁then	-282
▁pr	-283
▁if	-284
ect	-285
▁-	-286
el	-287
▁Th	-288
▁am	-289
au	-290
▁They	-291
▁no	-292
▁had	-293
fter	-294
▁[	-295
▁j	-296
fore	-297
urn	-298
to	-299
▁ev	-300
ings	-301
ens	-302
ian	-303
▁ho	-304
▁19	-305
ign	-306
▁un	-307
▁been	-308
eed	-309
▁lo	-310
ever	-311
ise	-312
ire	-313
▁other	-314
ally	-315
▁my	-316
ance	-317
ber	-318
ci	-319
very	-320
▁So	-321
▁may	-322
▁His	-323
cc	-324
▁out	-325
ade	-326
ount	-327
▁V	-328
▁bec	-329
▁ag	-330
."	-331
ck	-332
▁comp	-333
▁any	-334
reat	-335
own	-336
ff	-337
▁gu	-338
ack	-339
sel	-340
▁fo	-341
▁also	-342
ful	-343
age	-344
▁over	-345
ue	-346
▁would	-347
eng	-348
▁Him	-349
gh	-350
▁ind	-351
▁unt	-352
▁day	-353
ions	-354
are	-355
ace	-356
▁co	-357
ike	-358
ily	-359
▁You	-360
▁ad	-361
ath	-362
▁sp	-363
we	-364
▁comm	-365
▁earth	-366
▁made	-367
▁ar	-368
▁te	-369
ans	-370
ine	-371
ice	-372
ght	-373
▁only	-374
▁before	-375
ru	-376
▁per	-377
▁good	-378
▁sh	-379
ward	-380
way	-381
ave	-382
cl	-383
▁But	-384
ime	-385
▁cl	-386
here	-387
▁about	-388
▁than	-389
▁see	-390
ham	-391
▁part	-392
▁'	-393
ause	-394
belie	-395
ves	-396
▁tw	-397
▁bet	-398
▁ye	-399
▁sc	-400
uth	-401
▁some	-402
per	-403
▁believe	-404
ary	-405
other	-406
▁right	-407
ach	-408
▁br	-409
ved	-410
hed	-411
▁This	-412
rit	-413
▁after	-414
ass	-415
wn	-416
ry	-417
nder	-418
cept	-419
ied	-420
▁res	-421
pl	-422
▁into	-423
▁again	-424
▁fir	-425
te	-426
00	-427
▁did	-428
ations	-429
▁like	-430
hip	-431
▁down	-432
tain	-433
▁thou	-434
ble	-435
▁fa	-436
iz	-437
▁cre	-438
ted	-439
ap	-440
▁upon	-441
ree	-442
▁most	-443
▁rec	-444
▁bl	-445
llow	-446
▁en	-447
ence	-448
▁rem	-449
ound	-450
▁call	-451
▁its	-452
ife	-453
▁spe	-454
▁sent	-455
erc	-456
),	-457
ren	-458
ang	-459
for	-460
ater	-461
▁come	-462
ult	-463
▁two	-464
▁201	-465
▁“	-466
).	-467
ep	-468
▁Day	-469
▁heav	-470
fe	-471
..	-472
▁im	-473
ild	-474
▁her	-475
▁nor	-476
vel	-477
▁among	-478
▁As	-479
ile	-480
▁On	-481
▁time	-482
▁des	-483
▁ra	-484
▁first	-485
ress	-486
▁every	-487
▁sho	-488
▁turn	-489
▁sign	-490
ook	-491
▁more	-492
ite	-493
▁fe	-494
▁make	-495
ks	-496
▁sure	-497
ric	-498
ness	-499
▁India	-500
▁ser	-501
ates	-502
esseng	-503
aj	-504
▁off	-505
ase	-506
▁play	-507
ction	-508
eth	-509
▁If	-510
oin	-511
▁our	-512
iven	-513
▁gr	-514
▁indeed	-515
▁where	-516
▁There	-517
ition	-518
▁way	-519
arn	-520
▁Then	-521
har	-522
▁pre	-523
▁whom	-524
ors	-525
▁against	-526
rong	-527
▁St	-528
▁unto	-529
▁follow	-530
▁disbelie	-531
ts	-532
▁Our	-533
▁should	-534
▁away	-535
▁fl	-536
nds	-537
▁back	-538
the	-539
able	-540
▁mo	-541
▁ro	-542
og	-543
▁year	-544
▁world	-545
▁truth	-546
▁ret	-547
ather	-548
▁Say	-549
ink	-550
selves	-551
▁hel	-552
▁pun	-553
ious	-554
▁cont	-555
ip	-556
ory	-557
ical	-558
▁how	-559
led	-560
ub	-561
ilm	-562
ween	-563
▁used	-564
▁sin	-565
▁under	-566
ond	-567
▁surely	-568
als	-569
▁acc	-570
ited	-571
▁fear	-572
▁life	-573
tern	-574
▁between	-575
of	-576
oth	-577
▁app	-578
▁Is	-579
iving	-580
▁many	-581
▁When	-582
ces	-583
port	-584
▁give	-585
▁punish	-586
ft	-587
▁For	-588
▁Un	-589
▁ch	-590
ower	-591
▁Ch	-592
▁these	-593
ple	-594
▁she	-595
ons	-596
▁rel	-597
form	-598
▁things	-599
▁act	-600
ertain	-601
▁get	-602
▁forg	-603
uring	-604
▁help	-605
orn	-606
▁created	-607
▁men	-608
▁guid	-609
▁No	-610
▁reg	-611
▁because	-612
rop	-613
ls	-614
▁state	-615
ced	-616
▁film	-617
▁great	-618
▁Who	-619
▁just	-620
ick	-621
▁Al	-622
hes	-623
▁such	-624
ives	-625
les	-626
▁except	-627
ark	-628
ven	-629
mer	-630
▁heavens	-631
▁3	-632
▁qu	-633
▁sub	-634
.”	-635
▁take	-636
cre	-637
▁wrong	-638
▁prov	-639
ull	-640
▁ask	-641
▁does	-642
ational	-643
▁200	-644
▁evil	-645
oy	-646
igh	-647
▁new	-648
ants	-649
ised	-650
▁incl	-651
▁That	-652
▁while	-653
▁inv	-654
▁punishment	-655
▁wors	-656
ased	-657
hy	-658
tle	-659
▁cle	-660
▁Messeng	-661
▁dist	-662
▁set	-663
iver	-664
lic	-665
▁cha	-666
▁sou	-667
▁given	-668
ject	-669
ars	-670
ial	-671
▁came	-672
▁Be	-673
▁best	-674
ents	-675
aw	-676
ember	-677
odu	-678
ose	-679
▁prom	-680
eds	-681
▁could	-682
rough	-683
ood	-684
▁well	-685
▁cons	-686
ty	-687
ew	-688
ey	-689
▁let	-690
▁heart	-691
erm	-692
▁work	-693
▁Do	-694
round	-695
▁ent	-696
▁Book	-697
▁ap	-698
any	-699
▁Mu	-700
▁My	-701
▁dif	-702
▁includ	-703
▁own	-704
self	-705
▁How	-706
▁An	-707
▁dr	-708
iss	-709
rib	-710
▁through	-711
ail	-712
▁den	-713
▁certain	-714
uch	-715
▁find	-716
▁wom	-717
▁return	-718
▁ca	-719
▁even	-720
ten	-721
▁end	-722
▁tra	-723
land	-724
hamm	-725
ving	-726
▁rep	-727
▁signs	-728
read	-729
▁Indian	-730
▁har	-731
▁Indeed	-732
▁What	-733
▁called	-734
str	-735
▁cent	-736
▁found	-737
ities	-738
▁ac	-739
oss	-740
ning	-741
▁sy	-742
pen	-743
thing	-744
▁De	-745
▁land	-746
▁fr	-747
ting	-748
▁Those	-749
br	-750
ular	-751
▁water	-752
▁until	-753
▁might	-754
oses	-755
▁pres	-756
▁each	-757
rent	-758
ins	-759
▁another	-760
get	-761
▁being	-762
▁never	-763
▁merc	-764
▁want	-765
▁here	-766
▁fam	-767
▁num	-768
▁ord	-769
▁themselves	-770
▁believers	-771
▁Q	-772
▁faith	-773
▁place	-774
▁worship	-775
ient	-776
▁sec	-777
▁–	-778
cted	-779
▁She	-780
▁hum	-781
▁att	-782
▁bu	-783
ished	-784
▁now	-785
▁form	-786
▁deeds	-787
ledge	-788
▁warn	-789
iful	-790
▁clear	-791
▁power	-792
up	-793
▁years	-794
▁mon	-795
▁thee	-796
▁bring	-797
▁Se	-798
▁bel	-799
cer	-800
its	-801
▁reve	-802
▁hat	-803
ides	-804
ating	-805
▁serv	-806
▁ver	-807
▁night	-808
▁reward	-809
▁Me	-810
▁count	-811
▁dest	-812
▁show	-813
hammad	-814
▁Pr	-815
▁child	-816
ures	-817
ually	-818
▁during	-819
▁ob	-820
▁Most	-821
ai	-822
▁city	-823
▁known	-824
ng	-825
ivers	-826
▁ref	-827
▁loc	-828
▁very	-829
ury	-830
▁mat	-831
ener	-832
▁both	-833
▁4	-834
...	-835
▁pers	-836
▁knowledge	-837
▁ins	-838
▁tak	-839
den	-840
▁pray	-841
▁produ	-842
▁Messenger	-843
▁po	-844
ived	-845
▁ke	-846
▁think	-847
▁chan	-848
▁sm	-849
ision	-850
ments	-851
▁start	-852
ix	-853
▁dec	-854
imes	-855
▁ce	-856
▁supp	-857
eous	-858
▁em	-859
oc	-860
gan	-861
ither	-862
gr	-863
▁equ	-864
▁inf	-865
ob	-866
▁reveal	-867
ract	-868
▁death	-869
▁aff	-870
▁sl	-871
▁father	-872
▁trans	-873
▁gave	-874
▁‘	-875
▁5	-876
ared	-877
▁look	-878
rought	-879
ank	-880
het	-881
▁diffe	-882
▁command	-883
vern	-884
ene	-885
▁team	-886
▁car	-887
▁Ver	-888
▁going	-889
do	-890
▁--	-891
▁lead	-892
ove	-893
▁min	-894
▁pat	-895
aught	-896
urely	-897
ual	-898
▁god	-899
▁fin	-900
oh	-901
▁sk	-902
▁pop	-903
ict	-904
▁rece	-905
▁hearts	-906
▁mercy	-907
▁better	-908
▁prot	-909
▁three	-910
hing	-911
ered	-912
act	-913
▁pass	-914
ames	-915
?"	-916
ute	-917
▁lit	-918
ative	-919
▁sw	-920
▁need	-921
ough	-922
▁ple	-923
▁became	-924
cial	-925
ific	-926
▁long	-927
less	-928
hal	-929
ism	-930
alk	-931
und	-932
▁del	-933
▁certainly	-934
▁women	-935
▁brought	-936
▁lar	-937
ided	-938
after	-939
▁put	-940
▁near	-941
▁ass	-942
▁gra	-943
ouse	-944
roup	-945
▁become	-946
▁gl	-947
ale	-948
▁Re	-949
▁verily	-950
▁tem	-951
▁Ar	-952
▁others	-953
ug	-954
ried	-955
▁cause	-956
▁righteous	-957
▁dev	-958
▁Verily	-959
soci	-960
▁don	-961
▁est	-962
▁mak	-963
yp	-964
wards	-965
▁hath	-966
itness	-967
▁ele	-968
▁use	-969
▁Or	-970
▁Merc	-971
▁mar	-972
▁add	-973
oun	-974
▁much	-975
na	-976
▁pur	-977
soever	-978
ists	-979
alth	-980
▁sur	-981
▁thy	-982
▁fore	-983
▁Mar	-984
▁knows	-985
▁Us	-986
▁ange	-987
pr	-988
day	-989
▁son	-990
▁forth	-991
▁Surely	-992
ib	-993
▁These	-994
We	-995
ident	-996
ged	-997
▁revealed	-998
▁ever	-999
▁around	-1000
air	-1001
▁therein	-1002
▁Hind	-1003
▁left	-1004
▁inst	-1005
▁conf	-1006
▁exp	-1007
▁name	-1008
▁199	-1009
me	-1010
▁Ab	-1011
▁word	-1012
stand	-1013
▁United	-1014
ized	-1015
▁without	-1016
▁pol	-1017
▁rest	-1018
bey	-1019
mon	-1020
▁Ma	-1021
ality	-1022
▁Com	-1023
▁relig	-1024
▁Moses	-1025
▁high	-1026
▁same	-1027
cess	-1028
▁kill	-1029
dom	-1030
▁person	-1031
ph	-1032
▁caus	-1033
▁group	-1034
ages	-1035
▁Mus	-1036
▁number	-1037
▁gener	-1038
▁6	-1039
mit	-1040
ics	-1041
▁dire	-1042
▁inter	-1043
▁witness	-1044
▁ey	-1045
az	-1046
cri	-1047
row	-1048
▁18	-1049
▁bo	-1050
man	-1051
▁One	-1052
esh	-1053
▁pay	-1054
ock	-1055
ros	-1056
▁won	-1057
▁town	-1058
ains	-1059
▁Go	-1060
▁four	-1061
▁Sh	-1062
▁med	-1063
▁last	-1064
ines	-1065
▁different	-1066
ible	-1067
▁commun	-1068
hara	-1069
▁family	-1070
ters	-1071
roy	-1072
▁Qur	-1073
▁main	-1074
▁Par	-1075
▁Le	-1076
ash	-1077
▁Tr	-1078
▁fav	-1079
ari	-1080
▁keep	-1081
▁hand	-1082
▁art	-1083
▁av	-1084
▁To	-1085
ined	-1086
▁writ	-1087
▁understand	-1088
▁som	-1089
▁Pe	-1090
▁Sha	-1091
▁associ	-1092
hold	-1093
▁tor	-1094
believers	-1095
aring	-1096
▁full	-1097
▁true	-1098
▁resp	-1099
▁children	-1100
rict	-1101
▁brother	-1102
cy	-1103
▁angels	-1104
abl	-1105
▁light	-1106
▁open	-1107
▁order	-1108
▁mus	-1109
ason	-1110
ms	-1111
▁kind	-1112
▁Here	-1113
gether	-1114
▁tell	-1115
▁7	-1116
▁govern	-1117
▁guidance	-1118
mp	-1119
pect	-1120
▁believed	-1121
▁protect	-1122
▁Muhammad	-1123
▁run	-1124
000	-1125
▁Fire	-1126
▁nothing	-1127
▁happ	-1128
▁belong	-1129
ala	-1130
▁cur	-1131
ention	-1132
.'	-1133
▁Ad	-1134
▁succ	-1135
rophet	-1136
▁destroy	-1137
▁list	-1138
▁died	-1139
▁jud	-1140
velop	-1141
pend	-1142
▁appoin	-1143
xt	-1144
▁home	-1145
ier	-1146
ution	-1147
▁rele	-1148
osed	-1149
ware	-1150
▁exam	-1151
▁Z	-1152
▁sim	-1153
▁poss	-1154
▁inte	-1155
▁small	-1156
▁Your	-1157
▁adv	-1158
▁seek	-1159
oney	-1160
▁States	-1161
▁bre	-1162
▁dou	-1163
▁send	-1164
rest	-1165
▁imp	-1166
ording	-1167
▁suff	-1168
ana	-1169
err	-1170
▁perform	-1171
ify	-1172
▁played	-1173
▁messeng	-1174
ke	-1175
ital	-1176
▁Wor	-1177
▁torment	-1178
ont	-1179
▁leave	-1180
▁disbelieve	-1181
▁old	-1182
▁fire	-1183
▁Merciful	-1184
ases	-1185
▁since	-1186
".	-1187
▁pain	-1188
▁done	-1189
▁took	-1190
▁8	-1191
ait	-1192
▁month	-1193
▁opp	-1194
▁met	-1195
hand	-1196
▁cour	-1197
▁Lo	-1198
▁later	-1199
ral	-1200
▁incre	-1201
ball	-1202
▁At	-1203
urre	-1204
▁establ	-1205
ara	-1206
▁astr	-1207
▁stand	-1208
▁together	-1209
▁Res	-1210
▁game	-1211
stem	-1212
▁deny	-1213
The	-1214
ajor	-1215
▁cho	-1216
▁term	-1217
▁thing	-1218
▁test	-1219
ured	-1220
ya	-1221
ird	-1222
gest	-1223
ody	-1224
▁Sat	-1225
▁str	-1226
▁path	-1227
▁account	-1228
▁However	-1229
mb	-1230
ned	-1231
▁ann	-1232
▁fight	-1233
by	-1234
▁bes	-1235
0,	-1236
ows	-1237
aces	-1238
▁frie	-1239
▁After	-1240
lim	-1241
giving	-1242
▁revel	-1243
ired	-1244
▁speak	-1245
▁little	-1246
ues	-1247
ival	-1248
just	-1249
▁Man	-1250
▁Ex	-1251
):	-1252
ched	-1253
▁head	-1254
▁disbelievers	-1255
ardens	-1256
ilt	-1257
▁whatever	-1258
▁success	-1259
not	-1260
▁astray	-1261
▁second	-1262
ief	-1263
▁whose	-1264
ner	-1265
▁money	-1266
doers	-1267
▁days	-1268
▁though	-1269
angu	-1270
▁Hell	-1271
ead	-1272
ize	-1273
▁appe	-1274
▁ones	-1275
▁trad	-1276
▁means	-1277
▁inc	-1278
owed	-1279
▁able	-1280
▁turned	-1281
▁love	-1282
▁comple	-1283
▁def	-1284
▁area	-1285
▁div	-1286
ened	-1287
▁Brit	-1288
▁Prophet	-1289
aim	-1290
ians	-1291
▁everything	-1292
▁World	-1293
▁import	-1294
▁reject	-1295
ode	-1296
▁Raj	-1297
▁hands	-1298
▁ext	-1299
▁still	-1300
ience	-1301
▁remember	-1302
ries	-1303
▁save	-1304
▁eas	-1305
],	-1306
▁occ	-1307
▁fall	-1308
▁Know	-1309
▁times	-1310
▁Te	-1311
hool	-1312
▁Gu	-1313
▁got	-1314
▁mount	-1315
ross	-1316
▁system	-1317
▁cond	-1318
ified	-1319
▁none	-1320
.’	-1321
▁accept	-1322
▁comes	-1323
iness	-1324
▁eff	-1325
▁too	-1326
▁inform	-1327
ublic	-1328
▁vers	-1329
▁major	-1330
▁det	-1331
▁prev	-1332
ices	-1333
▁yet	-1334
ield	-1335
ners	-1336
aid	-1337
af	-1338
ps	-1339
▁seen	-1340
ething	-1341
hind	-1342
▁king	-1343
haraoh	-1344
▁Hereafter	-1345
▁cr	-1346
▁along	-1347
▁bene	-1348
his	-1349
iod	-1350
ax	-1351
▁far	-1352
▁concer	-1353
▁meet	-1354
▁stud	-1355
▁often	-1356
ali	-1357
▁tre	-1358
▁present	-1359
▁202	-1360
▁198	-1361
▁doub	-1362
▁chast	-1363
▁towards	-1364
▁Have	-1365
vere	-1366
well	-1367
▁cor	-1368
▁whoever	-1369
▁unbelievers	-1370
wor	-1371
▁news	-1372
▁rul	-1373
bers	-1374
▁develop	-1375
▁sport	-1376
▁guided	-1377
icip	-1378
uc	-1379
▁New	-1380
▁above	-1381
▁sit	-1382
com	-1383
meric	-1384
▁fact	-1385
▁By	-1386
▁Nor	-1387
▁sing	-1388
▁soul	-1389
gress	-1390
lam	-1391
▁few	-1392
▁enj	-1393
ility	-1394
▁plan	-1395
mber	-1396
▁century	-1397
▁house	-1398
▁promise	-1399
outh	-1400
▁age	-1401
illion	-1402
ger	-1403
▁Some	-1404
▁behind	-1405
cha	-1406
cript	-1407
▁sever	-1408
▁vis	-1409
▁must	-1410
▁company	-1411
ighty	-1412
All	-1413
▁mis	-1414
▁disc	-1415
▁remain	-1416
igin	-1417
▁less	-1418
▁coll	-1419
▁religion	-1420
ma	-1421
▁char	-1422
▁equal	-1423
▁bless	-1424
▁obey	-1425
med	-1426
▁bus	-1427
ince	-1428
hol	-1429
▁col	-1430
▁enter	-1431
▁record	-1432
omin	-1433
▁requ	-1434
urrection	-1435
▁dead	-1436
▁Americ	-1437
▁197	-1438
kind	-1439
▁const	-1440
ges	-1441
▁war	-1442
▁beg	-1443
▁due	-1444
▁live	-1445
une	-1446
aves	-1447
▁neither	-1448
▁9	-1449
▁something	-1450
▁eat	-1451
▁went	-1452
▁tri	-1453
ission	-1454
▁taken	-1455
vie	-1456
▁saying	-1457
▁langu	-1458
my	-1459
▁appointed	-1460
▁guide	-1461
▁cannot	-1462
▁mod	-1463
ourn	-1464
▁eyes	-1465
▁mankind	-1466
▁guard	-1467
▁hear	-1468
ours	-1469
▁region	-1470
▁yourselves	-1471
▁human	-1472
uk	-1473
▁creat	-1474
▁People	-1475
hood	-1476
▁poin	-1477
▁told	-1478
▁period	-1479
lf	-1480
ounty	-1481
▁British	-1482
▁care	-1483
▁spend	-1484
▁several	-1485
aste	-1486
attle	-1487
min	-1488
▁disp	-1489
udd	-1490
ales	-1491
▁dra	-1492
ready	-1493
▁common	-1494
▁contro	-1495
▁hard	-1496
atch	-1497
ety	-1498
nto	-1499
▁Am	-1500
▁important	-1501
▁defe	-1502
▁include	-1503
▁wealth	-1504
uly	-1505
▁int	-1506
▁river	-1507
lebr	-1508
▁anything	-1509
▁district	-1510
▁recom	-1511
ams	-1512
ural	-1513
oe	-1514
▁large	-1515
olog	-1516
▁Eng	-1517
▁10	-1518
ring	-1519
▁prayer	-1520
▁food	-1521
▁music	-1522
ued	-1523
umb	-1524
▁Del	-1525
ones	-1526
ulation	-1527
!"	-1528
▁foot	-1529
▁heaven	-1530
▁chastise	-1531
ches	-1532
ored	-1533
▁Pharaoh	-1534
▁including	-1535
ani	-1536
error	-1537
▁es	-1538
▁feel	-1539
▁example	-1540
▁hist	-1541
▁celebr	-1542
▁May	-1543
▁law	-1544
ctor	-1545
iveness	-1546
▁15	-1547
alse	-1548
▁contin	-1549
▁government	-1550
▁treat	-1551
ne	-1552
▁Tam	-1553
▁dep	-1554
▁ter	-1555
ote	-1556
ling	-1557
▁himself	-1558
This	-1559
▁win	-1560
▁read	-1561
▁Let	-1562
▁origin	-1563
▁started	-1564
▁che	-1565
2.	-1566
men	-1567
▁vill	-1568
▁thought	-1569
▁Resurrection	-1570
ister	-1571
▁offic	-1572
▁cap	-1573
▁hon	-1574
▁already	-1575
idden	-1576
▁trust	-1577
▁17	-1578
amed	-1579
▁within	-1580
ange	-1581
raham	-1582
▁real	-1583
▁Sw	-1584
▁Thus	-1585
▁ill	-1586
▁red	-1587
Allah	-1588
ically	-1589
▁try	-1590
▁Muslim	-1591
adi	-1592
▁Fr	-1593
▁peace	-1594
▁popular	-1595
ung	-1596
▁Now	-1597
▁pos	-1598
0.	-1599
▁doing	-1600
▁die	-1601
▁revelations	-1602
▁join	-1603
▁works	-1604
▁mag	-1605
▁flow	-1606
▁cast	-1607
▁support	-1608
asure	-1609
▁repl	-1610
▁servants	-1611
▁caused	-1612
hamp	-1613
ways	-1614
▁early	-1615
▁unjust	-1616
▁destroyed	-1617
▁besides	-1618
▁really	-1619
ret	-1620
ider	-1621
▁port	-1622
▁par	-1623
oll	-1624
aced	-1625
▁million	-1626
raise	-1627
▁quest	-1628
▁school	-1629
uthor	-1630
ata	-1631
ope	-1632
▁mark	-1633
▁country	-1634
▁sun	-1635
▁stay	-1636
ature	-1637
▁dwell	-1638
▁li	-1639
▁hast	-1640
ternational	-1641
▁fest	-1642
itions	-1643
▁chastisement	-1644
1,	-1645
▁196	-1646
▁Will	-1647
▁grant	-1648
▁Can	-1649
inn	-1650
rist	-1651
▁result	-1652
▁whe	-1653
ats	-1654
▁held	-1655
▁therefore	-1656
amp	-1657
▁enem	-1658
▁mother	-1659
bs	-1660
▁ru	-1661
▁rivers	-1662
▁painful	-1663
▁ans	-1664
▁Hindu	-1665
▁Quran	-1666
▁avail	-1667
fic	-1668
▁side	-1669
erv	-1670
ets	-1671
▁why	-1672
▁proble	-1673
▁ed	-1674
▁ve	-1675
▁five	-1676
▁stra	-1677
li	-1678
▁spec	-1679
cient	-1680
▁vict	-1681
▁Tamil	-1682
▁hig	-1683
▁national	-1684
▁SA	-1685
ina	-1686
▁expl	-1687
▁wee	-1688
ected	-1689
ires	-1690
▁mem	-1691
▁hold	-1692
▁commit	-1693
▁National	-1694
▁six	-1695
▁vir	-1696
adise	-1697
ection	-1698
▁released	-1699
▁forgive	-1700
▁class	-1701
▁report	-1702
ada	-1703
▁prof	-1704
▁wife	-1705
con	-1706
▁et	-1707
▁gre	-1708
▁raised	-1709
uge	-1710
▁forb	-1711
▁alone	-1712
▁judge	-1713
▁saw	-1714
He	-1715
ples	-1716
▁false	-1717
▁move	-1718
ron	-1719
tend	-1720
cent	-1721
2,	-1722
▁lot	-1723
pping	-1724
adesh	-1725
▁host	-1726
▁received	-1727
▁drink	-1728
▁appro	-1729
▁typ	-1730
▁compet	-1731
▁born	-1732
▁asked	-1733
▁build	-1734
1.	-1735
▁bar	-1736
arent	-1737
▁forgiveness	-1738
uary	-1739
▁fru	-1740
▁doubt	-1741
▁store	-1742
▁usually	-1743
▁var	-1744
▁matter	-1745
use	-1746
pped	-1747
▁dise	-1748
▁Bl	-1749
▁16	-1750
ee	-1751
fer	-1752
▁el	-1753
▁Jan	-1754
pur	-1755
omes	-1756
▁prop	-1757
▁event	-1758
▁change	-1759
ached	-1760
▁patient	-1761
▁neg	-1762
▁organ	-1763
▁sea	-1764
with	-1765
▁having	-1766
▁creation	-1767
fall	-1768
▁book	-1769
▁lost	-1770
ta	-1771
▁id	-1772
▁etc	-1773
▁next	-1774
▁wait	-1775
▁tradition	-1776
ories	-1777
▁makes	-1778
▁Messengers	-1779
ude	-1780
▁Delhi	-1781
atha	-1782
▁sins	-1783
▁living	-1784
].	-1785
uck	-1786
▁deb	-1787
▁wills	-1788
▁author	-1789
▁making	-1790
▁harm	-1791
▁talk	-1792
▁wind	-1793
hest	-1794
utes	-1795
▁lie	-1796
▁exper	-1797
▁repent	-1798
▁belongs	-1799
ency	-1800
ately	-1801
▁wish	-1802
estern	-1803
▁seven	-1804
▁followed	-1805
hab	-1806
lled	-1807
▁lies	-1808
▁Jud	-1809
▁air	-1810
aster	-1811
ering	-1812
▁face	-1813
▁mult	-1814
▁Christ	-1815
▁Mo	-1816
▁Pro	-1817
▁fem	-1818
▁free	-1819
▁grow	-1820
tal	-1821
ination	-1822
▁established	-1823
▁exc	-1824
▁enjoy	-1825
,"	-1826
▁cal	-1827
ently	-1828
▁aver	-1829
My	-1830
▁sky	-1831
ifest	-1832
▁apost	-1833
▁hell	-1834
And	-1835
ills	-1836
▁Sing	-1837
uss	-1838
▁says	-1839
▁attack	-1840
▁promised	-1841
rael	-1842
7,	-1843
▁prep	-1844
▁soon	-1845
▁body	-1846
erve	-1847
▁transgress	-1848
▁Wh	-1849
▁big	-1850
▁arr	-1851
▁spread	-1852
▁bur	-1853
▁Abraham	-1854
▁bro	-1855
▁mil	-1856
pense	-1857
▁located	-1858
idence	-1859
▁public	-1860
▁possess	-1861
▁began	-1862
▁pen	-1863
3.	-1864
lect	-1865
gment	-1866
▁simil	-1867
▁language	-1868
ati	-1869
ulf	-1870
▁fail	-1871
▁level	-1872
anc	-1873
▁fort	-1874
▁compan	-1875
▁killed	-1876
ert	-1877
ama	-1878
▁led	-1879
ern	-1880
▁Why	-1881
ining	-1882
idered	-1883
▁temple	-1884
gu	-1885
ols	-1886
▁nation	-1887
uty	-1888
▁Beng	-1889
▁Br	-1890
▁built	-1891
▁x	-1892
amb	-1893
olk	-1894
▁tid	-1895
5,	-1896
ague	-1897
▁season	-1898
▁bra	-1899
▁Unto	-1900
▁considered	-1901
▁Mad	-1902
▁tou	-1903
▁King	-1904
▁item	-1905
8.	-1906
lu	-1907
▁Aust	-1908
▁Wise	-1909
que	-1910
pass	-1911
▁SAW	-1912
▁bas	-1913
▁line	-1914
aks	-1915
wer	-1916
arch	-1917
from	-1918
▁decl	-1919
▁mean	-1920
▁severe	-1921
?”	-1922
eb	-1923
▁anyone	-1924
▁invest	-1925
▁Their	-1926
▁benef	-1927
▁error	-1928
▁Israel	-1929
▁kn	-1930
▁Nay	-1931
iversity	-1932
▁morn	-1933
9.	-1934
▁bear	-1935
▁12	-1936
▁top	-1937
▁business	-1938
4.	-1939
ances	-1940
▁Satan	-1941
▁concerning	-1942
▁195	-1943
7.	-1944
▁cult	-1945
▁grie	-1946
▁short	-1947
▁Islam	-1948
ift	-1949
Mu	-1950
sp	-1951
▁rain	-1952
▁stru	-1953
▁today	-1954
mission	-1955
▁Thou	-1956
▁Acc	-1957
▁low	-1958
▁messengers	-1959
hile	-1960
▁denied	-1961
most	-1962
inder	-1963
▁With	-1964
▁create	-1965
crib	-1966
▁question	-1967
ili	-1968
ton	-1969
though	-1970
▁Mal	-1971
▁mid	-1972
hampions	-1973
▁mention	-1974
cret	-1975
ament	-1976
▁population	-1977
▁occur	-1978
▁thr	-1979
▁prostr	-1980
▁gardens	-1981
▁receive	-1982
▁leg	-1983
▁gives	-1984
9,	-1985
▁provided	-1986
▁countries	-1987
▁blood	-1988
▁tidings	-1989
▁mountains	-1990
▁ris	-1991
▁mess	-1992
What	-1993
▁Eur	-1994
▁conn	-1995
ense	-1996
▁effect	-1997
▁Well	-1998
▁disease	-1999
▁information	-2000
▁ball	-2001
cend	-2002
uted	-2003
▁South	-2004
vi	-2005
▁Ne	-2006
▁Con	-2007
▁Forgiving	-2008
6,	-2009
arden	-2010
▁named	-2011
▁verses	-2012
Muhammad	-2013
8,	-2014
ush	-2015
▁words	-2016
▁whether	-2017
▁Pl	-2018
gy	-2019
ained	-2020
▁stop	-2021
▁Paradise	-2022
rog	-2023
▁strong	-2024
▁obs	-2025
unicip	-2026
5.	-2027
You	-2028
▁learn	-2029
▁story	-2030
▁returned	-2031
line	-2032
▁manifest	-2033
rab	-2034
oid	-2035
ences	-2036
▁case	-2037
▁party	-2038
▁taste	-2039
6.	-2040
cle	-2041
▁morning	-2042
▁cut	-2043
▁greater	-2044
att	-2045
▁friends	-2046
3,	-2047
lymp	-2048
▁parts	-2049
▁parent	-2050
gn	-2051
▁blind	-2052
know	-2053
side	-2054
ully	-2055
illed	-2056
▁inde	-2057
▁point	-2058
▁Ye	-2059
ator	-2060
kar	-2061
hips	-2062
ites	-2063
▁based	-2064
▁regard	-2065
ka	-2066
alt	-2067
▁hyp	-2068
▁fathers	-2069
▁reach	-2070
▁total	-2071
▁wis	-2072
▁Olymp	-2073
▁interest	-2074
▁firm	-2075
▁sons	-2076
rap	-2077
▁Rem	-2078
▁dark	-2079
▁pract	-2080
omet	-2081
ildren	-2082
▁control	-2083
ption	-2084
▁Many	-2085
▁festival	-2086
der	-2087
reme	-2088
▁sight	-2089
▁village	-2090
4,	-2091
wa	-2092
ises	-2093
ented	-2094
▁young	-2095
▁proper	-2096
▁Su	-2097
ison	-2098
▁Truth	-2099
▁Sc	-2100
atic	-2101
▁exce	-2102
▁least	-2103
▁games	-2104
▁truthful	-2105
oms	-2106
ably	-2107
ogn	-2108
▁sil	-2109
istan	-2110
▁Pradesh	-2111
▁past	-2112
icient	-2113
▁share	-2114
▁desire	-2115
▁194	-2116
▁whosoever	-2117
▁ide	-2118
▁polit	-2119
▁comput	-2120
por	-2121
▁wr	-2122
adu	-2123
arer	-2124
▁iss	-2125
▁close	-2126
co	-2127
▁progr	-2128
ghal	-2129
ional	-2130
▁During	-2131
had	-2132
If	-2133
par	-2134
▁lim	-2135
▁song	-2136
▁single	-2137
▁complete	-2138
▁various	-2139
▁Fir	-2140
reng	-2141
▁bad	-2142
▁goal	-2143
ateful	-2144
Our	-2145
▁using	-2146
▁community	-2147
▁messenger	-2148
▁provision	-2149
▁according	-2150
▁daught	-2151
ov	-2152
▁North	-2153
▁following	-2154
▁Sp	-2155
▁cou	-2156
▁gods	-2157
▁service	-2158
It	-2159
yn	-2160
airs	-2161
ming	-2162
,-	-2163
▁areas	-2164
▁players	-2165
ober	-2166
▁mind	-2167
▁magic	-2168
ij	-2169
lish	-2170
▁Pun	-2171
▁fast	-2172
▁third	-2173
▁once	-2174
work	-2175
▁net	-2176
▁American	-2177
▁Europe	-2178
▁either	-2179
▁kingdom	-2180
.)	-2181
▁Af	-2182
▁hur	-2183
▁ign	-2184
rence	-2185
▁West	-2186
▁post	-2187
▁till	-2188
▁River	-2189
▁Yet	-2190
▁always	-2191
▁direct	-2192
▁January	-2193
▁z	-2194
▁Khan	-2195
▁walk	-2196
▁confir	-2197
oor	-2198
▁US	-2199
inal	-2200
▁states	-2201
▁oper	-2202
▁sor	-2203
▁anim	-2204
▁easy	-2205
▁north	-2206
▁streng	-2207
▁written	-2208
▁partners	-2209
▁heed	-2210
cially	-2211
▁Austral	-2212
used	-2213
▁According	-2214
igns	-2215
▁Children	-2216
wise	-2217
▁Gra	-2218
▁months	-2219
▁partic	-2220
▁sol	-2221
▁Bengal	-2222
▁recompense	-2223
▁Cl	-2224
▁instead	-2225
▁East	-2226
▁local	-2227
▁thus	-2228
▁March	-2229
gra	-2230
thy	-2231
▁worshi	-2232
oke	-2233
▁Jain	-2234
▁coming	-2235
ils	-2236
old	-2237
▁fur	-2238
fully	-2239
▁Are	-2240
▁similar	-2241
▁ph	-2242
▁Min	-2243
▁rev	-2244
▁recogn	-2245
chn	-2246
▁ut	-2247
▁refuge	-2248
▁provide	-2249
▁eng	-2250
▁desp	-2251
▁south	-2252
▁product	-2253
▁contain	-2254
▁friend	-2255
▁parents	-2256
▁praise	-2257
▁largest	-2258
▁rebe	-2259
▁coven	-2260
▁former	-2261
ying	-2262
▁elect	-2263
▁watch	-2264
▁warner	-2265
▁charact	-2266
▁thereof	-2267
▁role	-2268
ump	-2269
▁break	-2270
▁woman	-2271
▁disbelieved	-2272
--	-2273
▁TH	-2274
ging	-2275
mand	-2276
▁Singh	-2277
▁enemy	-2278
▁capital	-2279
itive	-2280
▁Pres	-2281
ply	-2282
▁respect	-2283
▁Ker	-2284
▁gone	-2285
▁Belie	-2286
▁vari	-2287
oud	-2288
▁pal	-2289
ery	-2290
▁road	-2291
alted	-2292
▁repres	-2293
▁wronged	-2294
▁sold	-2295
▁faces	-2296
▁married	-2297
▁sum	-2298
▁11	-2299
▁Ap	-2300
▁Kar	-2301
▁dam	-2302
▁los	-2303
ressed	-2304
▁passed	-2305
▁straight	-2306
ane	-2307
▁km	-2308
▁vi	-2309
▁fulf	-2310
▁Did	-2311
▁val	-2312
ouses	-2313
▁Such	-2314
▁rock	-2315
▁rejected	-2316
▁ty	-2317
conom	-2318
▁gold	-2319
de	-2320
ards	-2321
iding	-2322
▁claim	-2323
unicipality	-2324
▁En	-2325
▁fun	-2326
▁jinn	-2327
▁Every	-2328
▁movie	-2329
bo	-2330
tt	-2331
lands	-2332
▁loss	-2333
▁amount	-2334
▁consider	-2335
▁authority	-2336
Do	-2337
ann	-2338
apan	-2339
▁Where	-2340
▁course	-2341
▁addition	-2342
▁sug	-2343
▁knew	-2344
▁Ge	-2345
fort	-2346
▁poor	-2347
▁Script	-2348
▁members	-2349
ech	-2350
▁court	-2351
▁cover	-2352
▁Chand	-2353
▁field	-2354
▁bestowed	-2355
▁Nove	-2356
▁Budd	-2357
▁groups	-2358
▁Muslims	-2359
▁covenant	-2360
ys	-2361
▁ant	-2362
▁match	-2363
▁University	-2364
urity	-2365
▁cost	-2366
▁sust	-2367
▁lest	-2368
▁trib	-2369
▁hypoc	-2370
▁November	-2371
seen	-2372
▁stre	-2373
▁Hour	-2374
▁design	-2375
arh	-2376
▁June	-2377
▁weak	-2378
ket	-2379
▁reason	-2380
▁sound	-2381
▁ways	-2382
▁separ	-2383
▁afflic	-2384
▁desires	-2385
▁Dece	-2386
▁seem	-2387
▁secret	-2388
▁Germ	-2389
ptember	-2390
▁answer	-2391
▁special	-2392
▁evidence	-2393
▁heard	-2394
▁ancient	-2395
alty	-2396
▁half	-2397
▁Japan	-2398
▁wives	-2399
▁ten	-2400
▁sour	-2401
irth	-2402
▁associate	-2403
ca	-2404
aying	-2405
▁From	-2406
▁hope	-2407
▁listen	-2408
ising	-2409
▁feet	-2410
▁moon	-2411
▁reached	-2412
pril	-2413
▁invol	-2414
ots	-2415
▁14	-2416
,000	-2417
ively	-2418
▁Gardens	-2419
▁December	-2420
io	-2421
▁Pak	-2422
▁Kerala	-2423
▁female	-2424
itude	-2425
▁army	-2426
ctober	-2427
▁English	-2428
▁increase	-2429
▁September	-2430
▁decre	-2431
▁serve	-2432
ruction	-2433
▁across	-2434
▁current	-2435
▁minutes	-2436
▁gir	-2437
▁please	-2438
▁activ	-2439
▁highest	-2440
jab	-2441
ram	-2442
▁Had	-2443
▁stri	-2444
▁cases	-2445
alley	-2446
▁measure	-2447
uff	-2448
▁inj	-2449
lythe	-2450
▁Other	-2451
▁particular	-2452
rew	-2453
iers	-2454
icked	-2455
▁Her	-2456
ugust	-2457
▁club	-2458
▁situ	-2459
▁offer	-2460
aun	-2461
▁Cha	-2462
▁Per	-2463
▁Knowing	-2464
▁football	-2465
els	-2466
▁Mon	-2467
▁April	-2468
▁eight	-2469
▁announ	-2470
▁earned	-2471
eder	-2472
ER	-2473
ium	-2474
cribed	-2475
▁October	-2476
ids	-2477
▁capt	-2478
unt	-2479
▁ang	-2480
▁fre	-2481
▁stars	-2482
▁swear	-2483
▁cust	-2484
▁wide	-2485
▁conce	-2486
▁history	-2487
▁High	-2488
▁Mary	-2489
▁folk	-2490
▁enough	-2491
orm	-2492
acher	-2493
▁films	-2494
▁aware	-2495
▁Mighty	-2496
▁appear	-2497
▁13	-2498
irit	-2499
▁Jew	-2500
▁Ram	-2501
▁Even	-2502
▁else	-2503
▁benefit	-2504
▁prin	-2505
▁final	-2506
▁August	-2507
▁Punjab	-2508
▁forever	-2509
▁victory	-2510
▁prepared	-2511
ousand	-2512
▁takes	-2513
▁cities	-2514
▁wanted	-2515
rie	-2516
cious	-2517
▁Comp	-2518
▁process	-2519
rodu	-2520
▁Don	-2521
▁Best	-2522
▁seized	-2523
ott	-2524
sed	-2525
semb	-2526
▁blessings	-2527
▁enc	-2528
antly	-2529
oseph	-2530
▁Adam	-2531
▁glad	-2532
▁Bh	-2533
▁priv	-2534
▁viol	-2535
▁souls	-2536
▁Kum	-2537
▁tit	-2538
▁subject	-2539
▁Ay	-2540
▁ir	-2541
▁admon	-2542
▁corru	-2543
▁bow	-2544
ially	-2545
▁nort	-2546
▁plus	-2547
▁visit	-2548
▁submit	-2549
▁Scripture	-2550
ought	-2551
▁insp	-2552
▁player	-2553
▁yourself	-2554
ior	-2555
▁duty	-2556
▁remem	-2557
▁behold	-2558
sen	-2559
▁Gl	-2560
sequ	-2561
▁deg	-2562
▁Mughal	-2563
▁indust	-2564
▁ban	-2565
▁crit	-2566
▁County	-2567
war	-2568
ilty	-2569
▁Cal	-2570
▁Swed	-2571
▁looking	-2572
ploy	-2573
▁Not	-2574
▁San	-2575
▁sac	-2576
▁squ	-2577
▁influ	-2578
▁saved	-2579
▁produced	-2580
▁abs	-2581
▁tax	-2582
▁quick	-2583
chie	-2584
▁Cent	-2585
▁travel	-2586
cing	-2587
▁sty	-2588
enance	-2589
▁truly	-2590
▁establish	-2591
▁ur	-2592
▁fair	-2593
▁hypocrit	-2594
▁commanded	-2595
aut	-2596
arat	-2597
come	-2598
istr	-2599
▁aut	-2600
▁actually	-2601
hern	-2602
ixed	-2603
▁granted	-2604
ony	-2605
▁II	-2606
▁Noah	-2607
▁dust	-2608
▁late	-2609
▁techn	-2610
IN	-2611
▁Air	-2612
▁clim	-2613
▁vide	-2614
▁proof	-2615
▁favour	-2616
);	-2617
▁pie	-2618
▁educ	-2619
▁guilty	-2620
itary	-2621
▁Shah	-2622
▁begin	-2623
▁turns	-2624
ateg	-2625
▁police	-2626
kay	-2627
▁bank	-2628
▁bird	-2629
Ind	-2630
▁cry	-2631
▁helped	-2632
▁working	-2633
▁Therefore	-2634
▁July	-2635
▁cell	-2636
▁tree	-2637
▁delive	-2638
pecially	-2639
oured	-2640
rible	-2641
▁abide	-2642
▁member	-2643
▁further	-2644
▁someone	-2645
▁draw	-2646
▁thousand	-2647
head	-2648
▁War	-2649
▁imm	-2650
ening	-2651
▁plain	-2652
▁placed	-2653
▁descend	-2654
▁associated	-2655
ays	-2656
▁af	-2657
aged	-2658
aters	-2659
▁chief	-2660
▁grace	-2661
ped	-2662
▁cir	-2663
right	-2664
▁Film	-2665
▁Last	-2666
▁abode	-2667
▁liter	-2668
cut	-2669
pper	-2670
stit	-2671
▁program	-2672
aur	-2673
band	-2674
▁deal	-2675
▁exist	-2676
ribution	-2677
▁wherein	-2678
bit	-2679
▁goes	-2680
▁birth	-2681
▁Rep	-2682
▁econom	-2683
▁entire	-2684
▁accepted	-2685
ckon	-2686
▁100	-2687
▁band	-2688
rem	-2689
▁homes	-2690
▁series	-2691
▁falsehood	-2692
ebru	-2693
▁bit	-2694
▁boy	-2695
claim	-2696
▁apart	-2697
ebruary	-2698
▁forest	-2699
ege	-2700
view	-2701
ynast	-2702
atives	-2703
la	-2704
brance	-2705
▁Great	-2706
▁causes	-2707
▁places	-2708
▁forbidden	-2709
rees	-2710
thern	-2711
▁Govern	-2712
▁events	-2713
▁gather	-2714
▁independ	-2715
edic	-2716
▁Dev	-2717
▁Just	-2718
▁Shiv	-2719
▁expe	-2720
▁domin	-2721
▁guides	-2722
ran	-2723
cause	-2724
▁redu	-2725
athe	-2726
▁journ	-2727
▁delivered	-2728
▁sat	-2729
▁almost	-2730
ishn	-2731
▁date	-2732
▁carry	-2733
▁whole	-2734
▁health	-2735
▁territ	-2736
aya	-2737
asht	-2738
ests	-2739
▁February	-2740
▁international	-2741
▁30	-2742
abad	-2743
nded	-2744
▁scored	-2745
)!	-2746
▁arrog	-2747
▁bound	-2748
▁reported	-2749
God	-2750
igr	-2751
erved	-2752
▁kept	-2753
▁di	-2754
▁While	-2755
▁losers	-2756
▁speech	-2757
▁although	-2758
dle	-2759
▁Nag	-2760
▁earn	-2761
▁rules	-2762
▁cy	-2763
esus	-2764
▁mock	-2765
▁purp	-2766
▁rule	-2767
▁dance	-2768
▁fruits	-2769
ev	-2770
haps	-2771
uous	-2772
▁Sik	-2773
▁emp	-2774
▁sle	-2775
▁cattle	-2776
▁profess	-2777
ban	-2778
has	-2779
mighty	-2780
▁hours	-2781
▁League	-2782
▁purcha	-2783
ga	-2784
ork	-2785
raid	-2786
▁See	-2787
▁tour	-2788
▁week	-2789
atures	-2790
▁Whoever	-2791
▁problem	-2792
▁International	-2793
lt	-2794
asts	-2795
▁eye	-2796
▁fig	-2797
cribe	-2798
▁bounty	-2799
mpt	-2800
▁Of	-2801
empt	-2802
▁gen	-2803
lier	-2804
undred	-2805
raw	-2806
▁sell	-2807
▁Hindi	-2808
▁items	-2809
▁brings	-2810
▁running	-2811
▁negative	-2812
▁successful	-2813
ipur	-2814
▁admin	-2815
▁admit	-2816
▁oppos	-2817
▁thanks	-2818
▁Judgment	-2819
▁faithful	-2820
▁problems	-2821
▁non	-2822
▁coun	-2823
▁teams	-2824
▁taking	-2825
▁getting	-2826
▁suggest	-2827
era	-2828
let	-2829
▁lab	-2830
▁Knower	-2831
▁Fo	-2832
▁names	-2833
vir	-2834
▁pot	-2835
▁comb	-2836
▁finan	-2837
▁message	-2838
lytheists	-2839
▁communic	-2840
▁%	-2841
cul	-2842
▁Nadu	-2843
▁burn	-2844
▁however	-2845
ji	-2846
▁Emp	-2847
▁Arab	-2848
▁emer	-2849
oice	-2850
asing	-2851
ficult	-2852
▁market	-2853
ivid	-2854
like	-2855
▁scri	-2856
▁stead	-2857
▁produce	-2858
app	-2859
awn	-2860
ceed	-2861
osis	-2862
▁type	-2863
▁House	-2864
▁Des	-2865
▁Sen	-2866
▁didn	-2867
▁position	-2868
▁available	-2869
▁believing	-2870
iling	-2871
▁Signs	-2872
▁price	-2873
gg	-2874
▁Yes	-2875
▁bond	-2876
▁mighty	-2877
▁difficult	-2878
hys	-2879
▁throw	-2880
▁computer	-2881
▁President	-2882
▁prostrate	-2883
▁Tw	-2884
ught	-2885
▁ran	-2886
▁Sweden	-2887
▁afraid	-2888
▁determ	-2889
▁Musa	-2890
▁custom	-2891
▁script	-2892
hel	-2893
▁job	-2894
uries	-2895
▁init	-2896
▁houses	-2897
▁England	-2898
▁Buddh	-2899
▁threat	-2900
▁Champions	-2901
▁especially	-2902
isha	-2903
▁State	-2904
ization	-2905
▁depart	-2906
▁histor	-2907
▁wisdom	-2908
▁station	-2909
arr	-2910
▁achie	-2911
ze	-2912
▁risk	-2913
▁sustenance	-2914
ja	-2915
ell	-2916
rove	-2917
▁Pol	-2918
▁Sam	-2919
atter	-2920
vered	-2921
▁Tham	-2922
▁virt	-2923
▁backs	-2924
▁hundred	-2925
cu	-2926
▁1,	-2927
▁favor	-2928
▁respons	-2929
aka	-2930
ima	-2931
oura	-2932
▁193	-2933
▁fab	-2934
▁taught	-2935
▁possible	-2936
▁signific	-2937
▁Believers	-2938
OU	-2939
oted	-2940
ology	-2941
▁idea	-2942
▁scre	-2943
▁befall	-2944
▁meeting	-2945
▁project	-2946
▁Fl	-2947
▁moved	-2948
▁formed	-2949
▁toward	-2950
▁patience	-2951
sh	-2952
▁hit	-2953
▁oath	-2954
ionate	-2955
ynasty	-2956
▁drive	-2957
▁lived	-2958
▁Joseph	-2959
▁hidden	-2960
▁hypocrites	-2961
▁Ah	-2962
iday	-2963
▁soft	-2964
▁Games	-2965
▁famous	-2966
▁front	-2967
▁lower	-2968
▁playing	-2969
aving	-2970
▁round	-2971
▁grieve	-2972
▁rather	-2973
▁general	-2974
▁disbelief	-2975
▁whatsoever	-2976
ava	-2977
▁Ra	-2978
▁Car	-2979
owned	-2980
▁sends	-2981
▁Empire	-2982
▁expect	-2983
▁ground	-2984
▁worked	-2985
▁wrongdoers	-2986
)?	-2987
▁battle	-2988
▁chosen	-2989
▁decided	-2990
▁understanding	-2991
reg	-2992
aries	-2993
▁miss	-2994
▁apostle	-2995
▁political	-2996
▁celebrated	-2997
iew	-2998
▁aw	-2999
ivil	-3000
▁pure	-3001
▁sense	-3002
▁teach	-3003
aff	-3004
▁hot	-3005
▁social	-3006
ayed	-3007
▁box	-3008
uture	-3009
▁prim	-3010
▁star	-3011
▁lives	-3012
compass	-3013
▁introdu	-3014
▁Cong	-3015
omever	-3016
▁black	-3017
▁founded	-3018
Be	-3019
ruct	-3020
▁Tem	-3021
▁rate	-3022
▁Kumar	-3023
▁employ	-3024
▁joined	-3025
▁dispute	-3026
▁character	-3027
▁treatment	-3028
▁Utt	-3029
▁score	-3030
▁super	-3031
▁giving	-3032
▁modern	-3033
▁suffer	-3034
▁darkness	-3035
",	-3036
?'	-3037
ials	-3038
inent	-3039
earing	-3040
▁shown	-3041
▁Pakistan	-3042
▁directed	-3043
▁terrible	-3044
iy	-3045
▁Guj	-3046
▁clean	-3047
▁touch	-3048
▁Western	-3049
▁financial	-3050
▁increased	-3051
elt	-3052
▁Ev	-3053
▁hor	-3054
under	-3055
▁heavy	-3056
▁towns	-3057
▁religious	-3058
ex	-3059
▁arch	-3060
▁hour	-3061
▁abund	-3062
▁leaders	-3063
▁generations	-3064
onna	-3065
▁Oft	-3066
▁key	-3067
▁wall	-3068
Indeed	-3069
▁press	-3070
▁individ	-3071
▁traditional	-3072
aly	-3073
aper	-3074
obey	-3075
then	-3076
▁camp	-3077
▁birds	-3078
▁shows	-3079
▁multip	-3080
rug	-3081
▁CE	-3082
▁tourn	-3083
athered	-3084
▁warning	-3085
▁fac	-3086
▁mot	-3087
▁Gand	-3088
▁secure	-3089
▁release	-3090
▁presence	-3091
▁Australia	-3092
cip	-3093
▁Bar	-3094
▁Tell	-3095
▁tele	-3096
▁forms	-3097
▁sides	-3098
▁forget	-3099
▁reckon	-3100
ohn	-3101
▁Sub	-3102
Moses	-3103
▁stat	-3104
▁utter	-3105
▁forward	-3106
▁strength	-3107
▁192	-3108
▁feed	-3109
▁ignor	-3110
▁forgot	-3111
ino	-3112
oon	-3113
▁Cup	-3114
▁pri	-3115
▁sympt	-3116
▁video	-3117
ahim	-3118
order	-3119
▁Part	-3120
▁inside	-3121
▁office	-3122
▁conceal	-3123
ager	-3124
▁repe	-3125
▁room	-3126
▁excell	-3127
▁sports	-3128
▁Hy	-3129
▁Kr	-3130
ensive	-3131
▁check	-3132
▁white	-3133
▁blessed	-3134
▁military	-3135
ensus	-3136
▁Right	-3137
▁ident	-3138
▁raise	-3139
hod	-3140
mir	-3141
ayan	-3142
ators	-3143
▁Jesus	-3144
▁fruit	-3145
▁write	-3146
▁willed	-3147
mar	-3148
▁kil	-3149
▁Each	-3150
▁somet	-3151
▁respite	-3152
▁throughout	-3153
▁Ag	-3154
▁Ja	-3155
uses	-3156
▁Har	-3157
ceive	-3158
ultan	-3159
▁accom	-3160
▁valley	-3161
vey	-3162
▁plot	-3163
▁safe	-3164
brahim	-3165
uredly	-3166
▁inher	-3167
▁detail	-3168
▁served	-3169
body	-3170
▁hus	-3171
erous	-3172
▁avoid	-3173
▁average	-3174
▁regular	-3175
▁gathered	-3176
eg	-3177
amin	-3178
▁Look	-3179
▁Pand	-3180
▁Path	-3181
▁ears	-3182
▁Afric	-3183
▁gonna	-3184
▁disobey	-3185
▁portion	-3186
▁apostles	-3187
▁brothers	-3188
acy	-3189
bar	-3190
ken	-3191
▁Ed	-3192
▁Lad	-3193
▁site	-3194
▁liars	-3195
▁assist	-3196
▁future	-3197
▁reminder	-3198
▁relations	-3199
▁remembrance	-3200
lo	-3201
cape	-3202
roud	-3203
▁der	-3204
▁City	-3205
asting	-3206
▁tried	-3207
▁developed	-3208
hant	-3209
▁Bha	-3210
aches	-3211
▁Mess	-3212
▁hide	-3213
▁Uttar	-3214
▁pleased	-3215
▁Minister	-3216
▁whomever	-3217
▁creatures	-3218
▁whomsoever	-3219
omb	-3220
▁25	-3221
time	-3222
▁ste	-3223
▁self	-3224
▁Apost	-3225
▁Noble	-3226
▁temples	-3227
ification	-3228
▁Sab	-3229
▁dia	-3230
▁force	-3231
▁theirs	-3232
▁fabric	-3233
▁naught	-3234
▁pred	-3235
▁prob	-3236
▁Since	-3237
▁likely	-3238
▁online	-3239
▁prayers	-3240
▁recited	-3241
▁defeated	-3242
AT	-3243
ashtra	-3244
▁condu	-3245
▁access	-3246
▁unless	-3247
▁earlier	-3248
▁replied	-3249
▁condition	-3250
acc	-3251
▁east	-3252
ential	-3253
▁Mahar	-3254
ler	-3255
▁Sho	-3256
▁view	-3257
▁wants	-3258
▁covered	-3259
▁permission	-3260
rag	-3261
fast	-3262
▁John	-3263
▁card	-3264
▁glor	-3265
▁numbers	-3266
▁performance	-3267
off	-3268
ighb	-3269
where	-3270
iously	-3271
ricket	-3272
▁extra	-3273
▁Ibrahim	-3274
▁security	-3275
▁opened	-3276
▁happened	-3277
▁Ak	-3278
dden	-3279
▁Tel	-3280
▁rese	-3281
▁China	-3282
▁sudden	-3283
▁prevent	-3284
▁particip	-3285
▁specific	-3286
▁announced	-3287
▁mentioned	-3288
cil	-3289
rain	-3290
inese	-3291
▁Fort	-3292
▁shoot	-3293
▁wicked	-3294
▁Because	-3295
▁development	-3296
mi	-3297
▁Ass	-3298
▁Mic	-3299
iance	-3300
▁Asia	-3301
▁Word	-3302
▁pros	-3303
▁Islamic	-3304
▁kilomet	-3305
▁private	-3306
ume	-3307
0,000	-3308
eness	-3309
▁rebell	-3310
▁Apostle	-3311
▁remained	-3312
go	-3313
xic	-3314
▁(1	-3315
▁Sa	-3316
othe	-3317
aware	-3318
ondon	-3319
▁hosp	-3320
▁Mercy	-3321
▁award	-3322
▁disgra	-3323
▁included	-3324
uz	-3325
pes	-3326
ras	-3327
▁Bo	-3328
iting	-3329
▁Bang	-3330
▁Jews	-3331
▁allow	-3332
▁weight	-3333
Is	-3334
▁Only	-3335
▁belief	-3336
▁divided	-3337
▁outside	-3338
▁repentance	-3339
uf	-3340
iles	-3341
▁cop	-3342
▁lik	-3343
▁tar	-3344
▁Than	-3345
iverse	-3346
▁justice	-3347
▁teacher	-3348
▁daughter	-3349
▁education	-3350
ald	-3351
▁data	-3352
▁rich	-3353
▁proud	-3354
▁neighb	-3355
▁grateful	-3356
▁sometimes	-3357
Who	-3358
medi	-3359
▁Pat	-3360
▁remo	-3361
▁London	-3362
▁higher	-3363
▁changed	-3364
▁building	-3365
▁administr	-3366
lig	-3367
akes	-3368
▁Its	-3369
▁Pal	-3370
▁idol	-3371
enefic	-3372
▁property	-3373
▁performed	-3374
▁Congress	-3375
ita	-3376
rer	-3377
▁ep	-3378
▁Cor	-3379
▁minus	-3380
▁mouth	-3381
▁Chinese	-3382
▁dynasty	-3383
▁hearing	-3384
▁journey	-3385
cks	-3386
▁La	-3387
aith	-3388
▁Dav	-3389
▁fle	-3390
▁shot	-3391
▁idols	-3392
▁trial	-3393
▁attain	-3394
▁Certain	-3395
▁phys	-3396
▁career	-3397
▁husband	-3398
▁appeared	-3399
▁Christians	-3400
▁revelation	-3401
udi	-3402
▁pub	-3403
▁sex	-3404
atory	-3405
▁2000	-3406
vision	-3407
▁Garden	-3408
▁worlds	-3409
▁animals	-3410
)."	-3411
▁cred	-3412
▁cloud	-3413
▁trade	-3414
itation	-3415
eneficent	-3416
mn	-3417
che	-3418
▁Co	-3419
hange	-3420
their	-3421
usion	-3422
▁York	-3423
▁Which	-3424
▁purpose	-3425
▁species	-3426
hu	-3427
▁Ac	-3428
▁Nar	-3429
▁Come	-3430
▁hasten	-3431
▁afflict	-3432
Why	-3433
iqu	-3434
▁wo	-3435
▁Bal	-3436
▁conv	-3437
▁network	-3438
▁whereas	-3439
▁official	-3440
▁faithless	-3441
hya	-3442
that	-3443
▁Except	-3444
mal	-3445
hets	-3446
▁pil	-3447
tered	-3448
▁Russ	-3449
▁webs	-3450
▁effort	-3451
▁deliver	-3452
▁waiting	-3453
▁everyone	-3454
▁drug	-3455
▁enjoin	-3456
▁southern	-3457
▁excellent	-3458
Pe	-3459
rant	-3460
▁cere	-3461
▁fish	-3462
▁Kingdom	-3463
▁positive	-3464
▁symptoms	-3465
▁50	-3466
idge	-3467
yond	-3468
rench	-3469
▁Olympic	-3470
irt	-3471
lit	-3472
ustr	-3473
▁Rom	-3474
▁thank	-3475
▁types	-3476
▁burden	-3477
▁escape	-3478
▁Gujarat	-3479
▁Maratha	-3480
▁entered	-3481
rier	-3482
▁Col	-3483
▁Net	-3484
put	-3485
▁Od	-3486
grim	-3487
▁Bel	-3488
▁san	-3489
pring	-3490
▁services	-3491
▁represent	-3492
aji	-3493
ese	-3494
hess	-3495
▁gain	-3496
▁charge	-3497
▁forces	-3498
▁recite	-3499
▁standing	-3500
va	-3501
ika	-3502
ini	-3503
ruly	-3504
▁Sur	-3505
ingly	-3506
riage	-3507
▁doom	-3508
atural	-3509
▁Award	-3510
▁humili	-3511
▁source	-3512
▁becomes	-3513
su	-3514
▁emb	-3515
▁lay	-3516
▁swe	-3517
▁Dist	-3518
▁rank	-3519
▁seal	-3520
▁sett	-3521
▁categ	-3522
▁doesn	-3523
▁Temple	-3524
▁.	-3525
▁BC	-3526
▁Im	-3527
▁hy	-3528
cher	-3529
oring	-3530
▁imag	-3531
▁male	-3532
▁rout	-3533
▁prefer	-3534
▁America	-3535
▁Germany	-3536
▁fighting	-3537
▁includes	-3538
▁maintain	-3539
▁Kal	-3540
▁mom	-3541
▁haply	-3542
▁central	-3543
▁Lot	-3544
erred	-3545
sembly	-3546
▁range	-3547
▁unseen	-3548
▁warned	-3549
▁charity	-3550
▁companies	-3551
akh	-3552
set	-3553
▁Sy	-3554
▁Pen	-3555
othing	-3556
▁goals	-3557
▁value	-3558
▁follows	-3559
▁sn	-3560
▁Sal	-3561
▁inherit	-3562
forgiving	-3563
pro	-3564
van	-3565
▁arm	-3566
▁buy	-3567
▁Brah	-3568
lected	-3569
▁block	-3570
▁title	-3571
▁longer	-3572
eps	-3573
hop	-3574
ream	-3575
▁Thr	-3576
▁Park	-3577
▁hurt	-3578
▁green	-3579
▁spirit	-3580
▁director	-3581
▁northern	-3582
No	-3583
ami	-3584
▁Up	-3585
enty	-3586
itan	-3587
▁Act	-3588
▁Tor	-3589
edient	-3590
▁Thamud	-3591
▁leaves	-3592
▁beneath	-3593
▁Oh	-3594
▁Before	-3595
▁attend	-3596
▁attempt	-3597
wood	-3598
▁Pur	-3599
enced	-3600
enses	-3601
hammed	-3602
isions	-3603
▁object	-3604
▁admonition	-3605
bl	-3606
For	-3607
oga	-3608
▁Bra	-3609
ardon	-3610
▁Gandhi	-3611
▁depend	-3612
▁percent	-3613
▁greatest	-3614
owa	-3615
urg	-3616
▁Yeah	-3617
▁nine	-3618
▁kinds	-3619
▁allowed	-3620
▁continued	-3621
RE	-3622
▁deep	-3623
▁displ	-3624
▁plant	-3625
▁choose	-3626
▁helper	-3627
20	-3628
ask	-3629
▁24	-3630
▁Pa	-3631
▁Ro	-3632
▁gar	-3633
▁wood	-3634
▁cross	-3635
▁style	-3636
fearing	-3637
ression	-3638
▁probably	-3639
▁shopping	-3640
▁steadfast	-3641
▁worshipped	-3642
iri	-3643
▁Ho	-3644
ique	-3645
▁skin	-3646
▁temper	-3647
▁Exalted	-3648
hil	-3649
▁Way	-3650
aking	-3651
heast	-3652
▁needs	-3653
▁income	-3654
▁evening	-3655
▁separate	-3656
▁Maharashtra	-3657
apt	-3658
hall	-3659
▁dom	-3660
estic	-3661
▁Gang	-3662
▁girl	-3663
▁withd	-3664
▁cancer	-3665
ological	-3666
▁schools	-3667
fect	-3668
▁suc	-3669
▁lake	-3670
▁text	-3671
▁Aware	-3672
▁civil	-3673
▁flood	-3674
▁west	-3675
▁Certainly	-3676
▁witnesses	-3677
▁experience	-3678
ti	-3679
za	-3680
itch	-3681
▁hosts	-3682
ference	-3683
▁beyond	-3684
▁myself	-3685
▁arrogant	-3686
oma	-3687
ura	-3688
▁drop	-3689
▁fell	-3690
▁offs	-3691
▁inhab	-3692
ability	-3693
▁trying	-3694
▁Remember	-3695
▁approach	-3696
▁decision	-3697
▁municipality	-3698
end	-3699
▁rej	-3700
▁commer	-3701
▁remind	-3702
▁appoint	-3703
▁enemies	-3704
▁sinners	-3705
▁western	-3706
▁powerful	-3707
▁intercess	-3708
uru	-3709
phan	-3710
▁Ear	-3711
▁THE	-3712
▁sal	-3713
▁leng	-3714
▁mostly	-3715
umbai	-3716
▁2010	-3717
▁Inst	-3718
▁acqu	-3719
▁clay	-3720
▁rail	-3721
knowing	-3722
▁belied	-3723
▁seeing	-3724
▁yellow	-3725
▁version	-3726
▁inspired	-3727
▁fulfilled	-3728
▁Rec	-3729
▁exact	-3730
▁assign	-3731
▁garden	-3732
▁itself	-3733
▁mountain	-3734
▁fif	-3735
▁stro	-3736
▁mater	-3737
▁French	-3738
▁immedi	-3739
▁prison	-3740
▁champions	-3741
po	-3742
avas	-3743
▁Chol	-3744
▁Like	-3745
▁gets	-3746
▁estim	-3747
▁demand	-3748
▁search	-3749
▁thereby	-3750
▁reckoning	-3751
hana	-3752
imin	-3753
▁Sol	-3754
▁pra	-3755
▁woe	-3756
lying	-3757
▁curse	-3758
▁pious	-3759
▁recorded	-3760
LL	-3761
▁Ple	-3762
▁dry	-3763
▁mir	-3764
doing	-3765
lling	-3766
▁Coll	-3767
▁quar	-3768
▁phone	-3769
▁leading	-3770
▁Ka	-3771
resh	-3772
wered	-3773
▁Bhar	-3774
▁beha	-3775
▁runs	-3776
▁medic	-3777
▁songs	-3778
▁changes	-3779
▁contact	-3780
▁culture	-3781
▁prophet	-3782
▁succeed	-3783
val	-3784
▁Che	-3785
▁foc	-3786
▁Ever	-3787
▁Asian	-3788
▁aught	-3789
▁happy	-3790
known	-3791
▁paid	-3792
▁points	-3793
▁slaves	-3794
▁affairs	-3795
▁composed	-3796
▁generally	-3797
ley	-3798
▁Mr	-3799
iment	-3800
ricts	-3801
▁Iowa	-3802
▁deaf	-3803
▁ready	-3804
50	-3805
da	-3806
▁i	-3807
ding	-3808
upon	-3809
year	-3810
▁Div	-3811
▁cra	-3812
▁inn	-3813
ricult	-3814
▁overt	-3815
▁Canada	-3816
▁struct	-3817
cription	-3818
▁perhaps	-3819
▁removed	-3820
▁corruption	-3821
sy	-3822
▁Ali	-3823
▁Get	-3824
erciful	-3825
▁ceremon	-3826
▁reflect	-3827
▁practice	-3828
▁household	-3829
AN	-3830
ES	-3831
ela	-3832
int	-3833
aron	-3834
iled	-3835
▁Good	-3836
▁aged	-3837
▁tong	-3838
▁falls	-3839
▁sleep	-3840
▁surre	-3841
▁yours	-3842
ilities	-3843
▁stores	-3844
▁Himself	-3845
▁partner	-3846
▁surround	-3847
▁languages	-3848
ades	-3849
ishna	-3850
istic	-3851
▁Port	-3852
▁stage	-3853
▁trees	-3854
olution	-3855
▁Mumbai	-3856
▁drowned	-3857
▁original	-3858
▁typically	-3859
ila	-3860
icle	-3861
over	-3862
▁mass	-3863
▁frequ	-3864
▁France	-3865
▁disgrace	-3866
gen	-3867
▁cro	-3868
▁bestow	-3869
▁couple	-3870
▁mainly	-3871
▁Olympics	-3872
▁personal	-3873
▁sufficient	-3874
agar	-3875
back	-3876
Peace	-3877
▁ahead	-3878
▁failed	-3879
▁review	-3880
▁consequ	-3881
▁extreme	-3882
▁penalty	-3883
▁stories	-3884
▁Republic	-3885
▁products	-3886
▁daughters	-3887
▁judgement	-3888
▁territory	-3889
▁Kor	-3890
▁Sim	-3891
▁ago	-3892
field	-3893
▁Said	-3894
▁coast	-3895
▁loves	-3896
▁weeks	-3897
▁compos	-3898
▁nations	-3899
▁enjoyment	-3900
▁introduced	-3901
▁tournament	-3902
▁lose	-3903
▁sees	-3904
▁spok	-3905
▁Mount	-3906
▁below	-3907
▁Beneficent	-3908
chan	-3909
▁Pad	-3910
itect	-3911
▁felt	-3912
▁mart	-3913
▁distin	-3914
▁flight	-3915
▁elected	-3916
▁destination	-3917
uh	-3918
lear	-3919
▁App	-3920
ables	-3921
▁race	-3922
▁beaut	-3923
▁wrote	-3924
▁census	-3925
▁humans	-3926
▁connect	-3927
▁significant	-3928
▁particularly	-3929
vous	-3930
aland	-3931
udget	-3932
▁Kash	-3933
▁Pers	-3934
▁mort	-3935
▁sick	-3936
▁ungr	-3937
worthy	-3938
▁perse	-3939
▁twice	-3940
▁arrest	-3941
▁pleases	-3942
▁regions	-3943
▁seeking	-3944
▁European	-3945
▁guardian	-3946
▁television	-3947
▁polytheists	-3948
oo	-3949
▁Ke	-3950
Know	-3951
atan	-3952
uals	-3953
▁Gree	-3954
▁agree	-3955
▁orphan	-3956
▁amongst	-3957
▁province	-3958
asion	-3959
urance	-3960
▁added	-3961
▁media	-3962
▁manner	-3963
▁natural	-3964
▁affected	-3965
▁industry	-3966
▁completely	-3967
▁righteousness	-3968
▁Woe	-3969
▁YOU	-3970
astern	-3971
ternet	-3972
▁Hyder	-3973
▁silver	-3974
▁Government	-3975
inks	-3976
oday	-3977
oked	-3978
▁Dep	-3979
▁aud	-3980
▁bal	-3981
▁hair	-3982
▁track	-3983
▁virus	-3984
▁Sultan	-3985
▁center	-3986
▁forbid	-3987
▁proclaim	-3988
▁crop	-3989
▁lack	-3990
▁wear	-3991
▁cried	-3992
▁action	-3993
▁clearly	-3994
▁prosper	-3995
▁continue	-3996
▁marriage	-3997
▁assuredly	-3998
▁offspring	-3999
▁2,	-4000
anch	-4001
onse	-4002
▁Karn	-4003
▁blame	-4004
▁fully	-4005
▁terms	-4006
▁winds	-4007
▁extend	-4008
▁carried	-4009
▁decreed	-4010
▁eastern	-4011
▁Mohammed	-4012
nel	-4013
They	-4014
alam	-4015
▁Sri	-4016
▁park	-4017
▁radi	-4018
▁calls	-4019
-1	-4020
ula	-4021
enth	-4022
ords	-4023
▁pho	-4024
again	-4025
▁corn	-4026
▁dear	-4027
▁bones	-4028
▁fixed	-4029
▁staff	-4030
▁knoweth	-4031
▁worldly	-4032
▁declared	-4033
▁opposite	-4034
▁regarding	-4035
▁ungrateful	-4036
ule	-4037
vert	-4038
▁Two	-4039
▁exe	-4040
▁David	-4041
▁alive	-4042
ibility	-4043
▁necess	-4044
▁District	-4045
?’	-4046
ING	-4047
▁...	-4048
▁mos	-4049
▁Another	-4050
▁degrees	-4051
▁respond	-4052
▁sincere	-4053
▁finished	-4054
▁president	-4055
lend	-4056
▁spr	-4057
otion	-4058
asthan	-4059
father	-4060
overed	-4061
▁disob	-4062
ropical	-4063
▁Associ	-4064
▁Behold	-4065
▁happen	-4066
▁moving	-4067
▁Kashmir	-4068
▁training	-4069
▁competition	-4070
AS	-4071
yal	-4072
▁fu	-4073
▁laun	-4074
▁medal	-4075
▁wrath	-4076
merciful	-4077
▁Rajasthan	-4078
hib	-4079
key	-4080
cont	-4081
▁und	-4082
orrow	-4083
ports	-4084
▁docu	-4085
▁fill	-4086
▁study	-4087
▁Throne	-4088
▁pilgrim	-4089
▁features	-4090
▁locality	-4091
▁response	-4092
▁TO	-4093
acob	-4094
▁Med	-4095
▁Was	-4096
▁multi	-4097
▁space	-4098
otheism	-4099
▁beside	-4100
▁attention	-4101
▁infection	-4102
▁professional	-4103
nes	-4104
▁40	-4105
wide	-4106
▁flu	-4107
asures	-4108
▁worth	-4109
▁settle	-4110
▁explain	-4111
▁inhabit	-4112
▁movement	-4113
▁followers	-4114
▁thereafter	-4115
ses	-4116
anda	-4117
face	-4118
▁Red	-4119
▁Tur	-4120
uddin	-4121
▁okay	-4122
▁budget	-4123
▁length	-4124
▁Manipur	-4125
▁answered	-4126
▁exchange	-4127
▁architect	-4128
!”	-4129
icy	-4130
▁191	-4131
▁Hey	-4132
▁Hum	-4133
▁clos	-4134
▁trou	-4135
▁vacc	-4136
▁broad	-4137
▁quickly	-4138
▁related	-4139
▁students	-4140
▁Municipality	-4141
ancy	-4142
vest	-4143
▁sus	-4144
ilies	-4145
▁arts	-4146
▁Truly	-4147
▁plays	-4148
▁showed	-4149
▁vision	-4150
▁committed	-4151
▁pi	-4152
▁Ste	-4153
▁arg	-4154
arily	-4155
▁Later	-4156
▁breat	-4157
imately	-4158
▁Central	-4159
▁ascribe	-4160
▁questioned	-4161
▁retribution	-4162
ON	-4163
pta	-4164
▁Mid	-4165
▁mur	-4166
▁brain	-4167
▁indic	-4168
▁table	-4169
▁affect	-4170
▁expand	-4171
▁fourth	-4172
▁smaller	-4173
▁software	-4174
ki	-4175
omon	-4176
ander	-4177
▁Give	-4178
▁fine	-4179
▁offe	-4180
▁publ	-4181
▁symb	-4182
▁encompass	-4183
amm	-4184
ida	-4185
ille	-4186
ients	-4187
▁Wind	-4188
▁surv	-4189
▁empire	-4190
▁fought	-4191
▁rights	-4192
▁meaning	-4193
Ad	-4194
▁0	-4195
▁Mag	-4196
▁Sun	-4197
▁mer	-4198
▁Chen	-4199
▁Faith	-4200
▁grand	-4201
lasting	-4202
▁figure	-4203
▁achieve	-4204
anj	-4205
oli	-4206
olly	-4207
▁hol	-4208
▁vol	-4209
asons	-4210
izing	-4211
▁Coun	-4212
▁clot	-4213
▁gift	-4214
▁Aaron	-4215
▁split	-4216
▁comfort	-4217
▁research	-4218
▁responsible	-4219
cked	-4220
itis	-4221
▁Dut	-4222
▁Vij	-4223
▁Over	-4224
▁Judge	-4225
▁constit	-4226
▁whenever	-4227
▁Monotheism	-4228
▁protection	-4229
ops	-4230
iders	-4231
▁code	-4232
▁wage	-4233
orship	-4234
▁remove	-4235
▁sought	-4236
▁bondmen	-4237
▁favours	-4238
▁website	-4239
pel	-4240
omen	-4241
▁Kap	-4242
▁bab	-4243
▁actor	-4244
▁model	-4245
▁ships	-4246
▁stock	-4247
▁veget	-4248
▁attrib	-4249
▁differ	-4250
▁Although	-4251
▁distance	-4252
▁completed	-4253
▁production	-4254
▁transgressors	-4255
▁debt	-4256
▁subs	-4257
▁dedic	-4258
▁method	-4259
▁Krishna	-4260
▁helpers	-4261
▁protector	-4262
”;	-4263
ero	-4264
aint	-4265
▁Tri	-4266
rences	-4267
saying	-4268
▁Among	-4269
▁sched	-4270
edience	-4271
▁asking	-4272
▁manage	-4273
aman	-4274
▁affair	-4275
▁spring	-4276
▁wishes	-4277
▁consist	-4278
ira	-4279
▁op	-4280
gypt	-4281
urch	-4282
▁Party	-4283
▁books	-4284
▁reign	-4285
▁matters	-4286
▁servant	-4287
▁turning	-4288
▁believes	-4289
▁beginning	-4290
▁21	-4291
▁Ill	-4292
▁Tha	-4293
chief	-4294
▁wilt	-4295
▁issue	-4296
▁leads	-4297
▁lines	-4298
▁Praise	-4299
▁collect	-4300
▁refused	-4301
▁required	-4302
▁suddenly	-4303
▁beautiful	-4304
▁1.	-4305
▁Em	-4306
room	-4307
▁Bas	-4308
▁Dis	-4309
▁Sar	-4310
isher	-4311
▁adop	-4312
▁hill	-4313
▁quite	-4314
▁voice	-4315
▁invoke	-4316
ux	-4317
When	-4318
aded	-4319
▁Spe	-4320
▁lege	-4321
aments	-4322
▁Africa	-4323
▁stroke	-4324
▁unable	-4325
▁unaware	-4326
▁communities	-4327
Did	-4328
ris	-4329
▁bid	-4330
peror	-4331
▁Madhya	-4332
▁frustr	-4333
▁exalted	-4334
▁remains	-4335
▁results	-4336
▁families	-4337
▁companions	-4338
who	-4339
west	-4340
▁fat	-4341
▁lau	-4342
▁cave	-4343
▁Would	-4344
▁cells	-4345
▁stone	-4346
▁engine	-4347
▁pardon	-4348
▁destruction	-4349
iet	-4350
▁2.	-4351
▁Ba	-4352
ayer	-4353
▁tro	-4354
▁exerc	-4355
▁ruled	-4356
▁spent	-4357
igation	-4358
▁middle	-4359
▁calling	-4360
▁expected	-4361
▁judgment	-4362
▁communications	-4363
akk	-4364
hra	-4365
▁Aur	-4366
▁saf	-4367
▁ment	-4368
itable	-4369
▁broke	-4370
▁dwelling	-4371
▁situation	-4372
rd	-4373
bre	-4374
hru	-4375
ship	-4376
▁Geor	-4377
onment	-4378
▁appre	-4379
▁Please	-4380
▁convey	-4381
▁moment	-4382
▁cricket	-4383
▁females	-4384
▁matches	-4385
▁settled	-4386
▁variety	-4387
▁agricult	-4388
▁hospital	-4389
▁Association	-4390
aze	-4391
athi	-4392
garh	-4393
iforn	-4394
▁ship	-4395
▁uses	-4396
ternal	-4397
▁board	-4398
▁needed	-4399
▁pieces	-4400
▁sacred	-4401
▁stones	-4402
▁Hearing	-4403
▁Californ	-4404
▁election	-4405
▁observed	-4406
▁Christian	-4407
▁ourselves	-4408
▁inhabitants	-4409
kes	-4410
▁vit	-4411
▁wat	-4412
▁argu	-4413
▁pack	-4414
▁Feder	-4415
▁Peace	-4416
▁altern	-4417
▁instru	-4418
▁intell	-4419
▁pleasure	-4420
▁California	-4421
▁First	-4422
▁campa	-4423
▁looks	-4424
idences	-4425
▁decree	-4426
▁involved	-4427
▁connection	-4428
In	-4429
cts	-4430
bing	-4431
etic	-4432
king	-4433
▁dig	-4434
▁tal	-4435
odies	-4436
▁sort	-4437
retched	-4438
▁nature	-4439
▁reform	-4440
▁medical	-4441
▁transport	-4442
▁Bi	-4443
▁mut	-4444
▁van	-4445
▁Also	-4446
▁base	-4447
▁bell	-4448
▁qual	-4449
▁size	-4450
▁soci	-4451
▁trave	-4452
stitute	-4453
▁defend	-4454
▁injust	-4455
▁deities	-4456
▁direction	-4457
!’	-4458
ba	-4459
–1	-4460
uls	-4461
▁22	-4462
ergy	-4463
reed	-4464
your	-4465
▁Any	-4466
▁Sum	-4467
▁dawn	-4468
▁ease	-4469
▁Egypt	-4470
▁diagn	-4471
▁fresh	-4472
▁waste	-4473
▁advice	-4474
▁lawful	-4475
▁function	-4476
▁soldiers	-4477
▁activities	-4478
'.	-4479
ney	-4480
rav	-4481
▁Ha	-4482
▁ice	-4483
adium	-4484
▁pict	-4485
▁worst	-4486
▁throne	-4487
▁records	-4488
▁Buddhist	-4489
▁provides	-4490
▁subjected	-4491
▁Championship	-4492
rect	-4493
▁Ant	-4494
▁dri	-4495
alled	-4496
▁Asho	-4497
▁Cour	-4498
▁sacr	-4499
▁aside	-4500
▁School	-4501
▁filled	-4502
▁levels	-4503
▁plants	-4504
▁summer	-4505
▁breasts	-4506
▁numerous	-4507
gin	-4508
una	-4509
zer	-4510
▁23	-4511
this	-4512
▁lif	-4513
▁mad	-4514
▁angle	-4515
▁subst	-4516
▁damage	-4517
▁strive	-4518
▁districts	-4519
▁strengthen	-4520
AR	-4521
ED	-4522
▁Fin	-4523
▁Mos	-4524
▁ess	-4525
▁kid	-4526
aming	-4527
icles	-4528
unity	-4529
▁file	-4530
▁poet	-4531
▁shop	-4532
▁annual	-4533
▁winter	-4534
▁purchase	-4535
▁celebrate	-4536
As	-4537
ID	-4538
ror	-4539
▁ge	-4540
raph	-4541
▁Isa	-4542
▁ren	-4543
▁2014	-4544
▁Power	-4545
▁Today	-4546
▁Vishn	-4547
▁fever	-4548
▁kings	-4549
▁begins	-4550
▁proofs	-4551
▁wonder	-4552
▁address	-4553
▁leaving	-4554
▁currently	-4555
ET	-4556
ena	-4557
▁Ko	-4558
ckey	-4559
▁Pre	-4560
ishes	-4561
▁resc	-4562
▁fears	-4563
▁urban	-4564
liament	-4565
▁Arabic	-4566
▁preced	-4567
▁strugg	-4568
▁glorify	-4569
▁injustice	-4570
▁Mc	-4571
pers	-4572
▁Maj	-4573
There	-4574
▁2020	-4575
▁mist	-4576
utions	-4577
▁Gener	-4578
▁oppon	-4579
▁double	-4580
▁letter	-4581
▁confirmed	-4582
irs	-4583
lex	-4584
▁Qu	-4585
▁bi	-4586
ghan	-4587
▁Has	-4588
▁Make	-4589
▁door	-4590
▁weap	-4591
▁wild	-4592
iction	-4593
▁aband	-4594
▁divor	-4595
▁hills	-4596
▁safety	-4597
▁systems	-4598
▁independence	-4599
IS	-4600
bum	-4601
anas	-4602
long	-4603
▁Ask	-4604
▁cow	-4605
azing	-4606
ensed	-4607
ushed	-4608
▁Union	-4609
▁growth	-4610
▁honour	-4611
▁infide	-4612
▁issues	-4613
▁content	-4614
▁ordered	-4615
▁touched	-4616
▁Vir	-4617
▁rise	-4618
▁debut	-4619
▁fault	-4620
▁legal	-4621
▁occup	-4622
▁obtain	-4623
▁majority	-4624
▁classical	-4625
isf	-4626
ffic	-4627
hatt	-4628
ouch	-4629
▁cru	-4630
▁narr	-4631
▁shel	-4632
▁Akbar	-4633
▁sinful	-4634
▁sister	-4635
▁stayed	-4636
▁electric	-4637
▁centuries	-4638
hik	-4639
unk	-4640
▁60	-4641
light	-4642
idents	-4643
▁Jacob	-4644
▁honor	-4645
▁sales	-4646
▁spoken	-4647
▁Council	-4648
▁foreign	-4649
▁grievous	-4650
▁warnings	-4651
▁relatives	-4652
)]	-4653
12	-4654
rat	-4655
▁WE	-4656
Lord	-4657
▁Bay	-4658
▁Pri	-4659
▁Ser	-4660
▁fou	-4661
▁Both	-4662
▁Char	-4663
▁Does	-4664
▁acts	-4665
▁wise	-4666
▁Anand	-4667
▁marry	-4668
▁minor	-4669
▁oaths	-4670
▁chance	-4671
▁feeling	-4672
▁parties	-4673
▁writing	-4674
▁situated	-4675
ny	-4676
iff	-4677
osa	-4678
yas	-4679
▁Whom	-4680
▁fund	-4681
▁page	-4682
▁pick	-4683
▁ended	-4684
isation	-4685
▁Odisha	-4686
▁closed	-4687
▁simply	-4688
▁terror	-4689
▁conduct	-4690
▁forgiving	-4691
law	-4692
ugu	-4693
zil	-4694
▁Sm	-4695
ingu	-4696
▁Ber	-4697
▁ens	-4698
gency	-4699
▁2011	-4700
▁Once	-4701
▁Sund	-4702
▁Shall	-4703
▁angel	-4704
▁chose	-4705
▁sanct	-4706
▁Afghan	-4707
▁Follow	-4708
▁injury	-4709
vironment	-4710
▁ignorant	-4711
▁mischief	-4712
▁described	-4713
▁evidences	-4714
ema	-4715
cast	-4716
ping	-4717
▁Amb	-4718
▁opt	-4719
▁conqu	-4720
▁decide	-4721
▁experi	-4722
▁looked	-4723
▁college	-4724
apur	-4725
cies	-4726
cond	-4727
▁Sir	-4728
▁Thy	-4729
▁rit	-4730
▁rare	-4731
▁bount	-4732
▁Brazil	-4733
▁leader	-4734
▁offered	-4735
▁persist	-4736
▁recomme	-4737
▁expenses	-4738
▁idolaters	-4739
▁conditions	-4740
ads	-4741
Then	-4742
teen	-4743
▁lad	-4744
ivals	-4745
oming	-4746
▁gate	-4747
▁Enter	-4748
▁adorn	-4749
▁chall	-4750
▁active	-4751
▁fellow	-4752
▁unbelie	-4753
passionate	-4754
ni	-4755
ildo	-4756
ster	-4757
▁Mir	-4758
▁Ray	-4759
place	-4760
▁Able	-4761
▁deed	-4762
▁excl	-4763
▁sche	-4764
▁Chola	-4765
▁deity	-4766
▁plans	-4767
▁storm	-4768
▁hockey	-4769
▁nearly	-4770
▁stated	-4771
▁Message	-4772
▁replace	-4773
▁replaced	-4774
▁published	-4775
▁Av	-4776
hore	-4777
ller	-4778
▁Stra	-4779
▁link	-4780
▁shad	-4781
▁ranks	-4782
▁centre	-4783
▁evildo	-4784
▁improve	-4785
▁thinking	-4786
▁supported	-4787
urs	-4788
gent	-4789
oned	-4790
▁Wik	-4791
iring	-4792
▁Sikh	-4793
▁Turn	-4794
▁cold	-4795
▁liar	-4796
▁mirac	-4797
aughter	-4798
▁acting	-4799
▁simple	-4800
▁accounts	-4801
▁multiple	-4802
▁additional	-4803
▁determined	-4804
▁righteously	-4805
',	-4806
▁Va	-4807
adem	-4808
hang	-4809
▁eld	-4810
inity	-4811
▁Test	-4812
▁sand	-4813
▁vain	-4814
▁Bangl	-4815
▁Guard	-4816
▁Prime	-4817
▁album	-4818
▁relie	-4819
▁tells	-4820
▁train	-4821
▁invent	-4822
▁profit	-4823
ollywood	-4824
▁contrib	-4825
▁finally	-4826
▁invented	-4827
▁wherever	-4828
▁Australian	-4829
lah	-4830
▁Kh	-4831
▁Kan	-4832
▁mob	-4833
board	-4834
▁Take	-4835
▁circ	-4836
▁basic	-4837
▁crops	-4838
▁dread	-4839
▁piece	-4840
▁credit	-4841
▁struck	-4842
▁complex	-4843
▁creates	-4844
▁knowing	-4845
▁section	-4846
▁economic	-4847
▁ordained	-4848
▁individual	-4849
▁dog	-4850
▁pled	-4851
▁Shiva	-4852
▁contr	-4853
▁energy	-4854
▁Solomon	-4855
▁discuss	-4856
▁talking	-4857
▁commonly	-4858
▁distress	-4859
▁dedicated	-4860
▁descendants	-4861
chi	-4862
ray	-4863
son	-4864
▁Cat	-4865
▁Lake	-4866
▁doth	-4867
▁loan	-4868
ctions	-4869
▁nomin	-4870
▁advant	-4871
▁orders	-4872
▁purify	-4873
▁require	-4874
▁stopped	-4875
▁compared	-4876
how	-4877
imum	-4878
▁Que	-4879
▁gun	-4880
▁Army	-4881
▁Kore	-4882
ouring	-4883
▁jinns	-4884
▁schol	-4885
▁excess	-4886
▁occurs	-4887
▁payment	-4888
ufficient	-4889
▁referred	-4890
osp	-4891
rel	-4892
tra	-4893
ograp	-4894
owing	-4895
▁Forg	-4896
▁More	-4897
▁laid	-4898
▁Himal	-4899
▁oblig	-4900
▁shame	-4901
▁stick	-4902
▁twain	-4903
▁consum	-4904
▁ability	-4905
▁awarded	-4906
▁happens	-4907
▁perfect	-4908
▁primary	-4909
▁benefits	-4910
▁location	-4911
▁perceive	-4912
▁suffered	-4913
▁Judgement	-4914
▁patiently	-4915
▁suffering	-4916
di	-4917
nai	-4918
▁26	-4919
acha	-4920
aker	-4921
▁Dem	-4922
▁bed	-4923
ifies	-4924
▁Serv	-4925
▁cool	-4926
▁deli	-4927
▁Thank	-4928
▁color	-4929
▁reven	-4930
▁Worlds	-4931
▁forced	-4932
▁larger	-4933
▁resour	-4934
▁observe	-4935
isl	-4936
itt	-4937
▁Dr	-4938
▁IT	-4939
▁Sr	-4940
rian	-4941
▁Gre	-4942
▁Nav	-4943
▁migr	-4944
ounded	-4945
▁Court	-4946
▁Vishnu	-4947
▁cursed	-4948
▁appears	-4949
▁quality	-4950
▁sending	-4951
▁setting	-4952
▁examples	-4953
▁virtuous	-4954
▁literature	-4955
!'	-4956
▁er	-4957
iger	-4958
they	-4959
will	-4960
▁oil	-4961
ataka	-4962
▁Holy	-4963
▁dece	-4964
▁devil	-4965
▁heads	-4966
▁threw	-4967
▁Awards	-4968
▁Hindus	-4969
▁Almighty	-4970
▁governor	-4971
▁WH	-4972
aram	-4973
more	-4974
▁Tom	-4975
▁sup	-4976
inois	-4977
▁Prot	-4978
▁huge	-4979
▁rice	-4980
orious	-4981
▁chess	-4982
▁greet	-4983
▁impro	-4984
▁German	-4985
▁border	-4986
▁instit	-4987
▁railway	-4988
▁springs	-4989
▁division	-4990
▁dominion	-4991
▁merciful	-4992
▁physical	-4993
▁immediately	-4994
Al	-4995
ica	-4996
eeds	-4997
fare	-4998
acter	-4999
liest	-5000
olute	-5001
▁2013	-5002
▁Gold	-5003
▁Kann	-5004
▁Prov	-5005
▁sets	-5006
▁noble	-5007
▁Telugu	-5008
▁advance	-5009
▁holiday	-5010
▁Illinois	-5011
▁distinct	-5012
▁previous	-5013
▁investment	-5014
▁kilometres	-5015
ees	-5016
▁mi	-5017
▁cam	-5018
▁isn	-5019
▁rid	-5020
ville	-5021
▁dang	-5022
▁heat	-5023
cience	-5024
ension	-5025
▁colon	-5026
▁speed	-5027
▁exceed	-5028
▁height	-5029
▁limited	-5030
▁consists	-5031
▁villages	-5032
▁watching	-5033
▁wherewith	-5034
US	-5035
oys	-5036
aria	-5037
iced	-5038
icks	-5039
vies	-5040
inary	-5041
▁humb	-5042
▁slow	-5043
▁Creat	-5044
▁Isaac	-5045
▁interp	-5046
▁reduce	-5047
▁College	-5048
▁balance	-5049
▁effects	-5050
▁martial	-5051
▁designed	-5052
▁withdraw	-5053
mers	-5054
▁Met	-5055
▁Vik	-5056
▁yes	-5057
ading	-5058
holog	-5059
orter	-5060
riend	-5061
verse	-5062
▁crow	-5063
▁pull	-5064
▁rent	-5065
▁yoga	-5066
▁acted	-5067
▁caves	-5068
▁lying	-5069
▁ruler	-5070
▁Aurang	-5071
▁island	-5072
▁screen	-5073
▁independent	-5074
ofs	-5075
▁Ze	-5076
enge	-5077
▁Bab	-5078
▁Kho	-5079
▁Unt	-5080
anced	-5081
ppers	-5082
▁sorry	-5083
ishment	-5084
▁applic	-5085
▁burning	-5086
▁sources	-5087
Forgiving	-5088
▁contract	-5089
▁hardship	-5090
▁minister	-5091
▁companion	-5092
▁potential	-5093
▁dem	-5094
▁guy	-5095
▁Miss	-5096
pected	-5097
▁Roman	-5098
▁adult	-5099
▁upper	-5100
▁widely	-5101
▁learned	-5102
▁testify	-5103
▁ceremony	-5104
▁worldwide	-5105
▁eventually	-5106
yan	-5107
▁Bet	-5108
phant	-5109
▁Sang	-5110
▁About	-5111
▁goods	-5112
▁pregn	-5113
▁slave	-5114
▁worse	-5115
ication	-5116
▁bought	-5117
▁chiefs	-5118
▁expend	-5119
▁favors	-5120
▁rulers	-5121
▁strike	-5122
▁despair	-5123
▁forests	-5124
▁treated	-5125
St	-5126
ek	-5127
bed	-5128
ora	-5129
ria	-5130
▁Da	-5131
krit	-5132
rome	-5133
▁Miz	-5134
▁Rel	-5135
▁grew	-5136
▁mere	-5137
orders	-5138
Prophet	-5139
iminals	-5140
ourable	-5141
▁bearer	-5142
▁tribes	-5143
▁insurance	-5144
En	-5145
unto	-5146
vings	-5147
▁purs	-5148
▁vary	-5149
▁compl	-5150
▁habit	-5151
▁needy	-5152
▁newsp	-5153
▁tribe	-5154
▁Windows	-5155
▁upright	-5156
▁occurred	-5157
▁characters	-5158
OR	-5159
Are	-5160
ici	-5161
lin	-5162
cest	-5163
▁190	-5164
▁Hel	-5165
▁Men	-5166
▁amb	-5167
▁Call	-5168
▁Cons	-5169
▁Evil	-5170
▁critic	-5171
▁driven	-5172
▁normal	-5173
▁starts	-5174
▁Company	-5175
▁boiling	-5176
▁Whatever	-5177
▁thankful	-5178
▁recognize	-5179
een	-5180
dess	-5181
iant	-5182
▁joy	-5183
▁mel	-5184
Shall	-5185
▁Nort	-5186
▁Shar	-5187
▁palm	-5188
action	-5189
▁Grand	-5190
▁Somet	-5191
▁monso	-5192
▁bright	-5193
▁clouds	-5194
▁firmly	-5195
▁target	-5196
▁troops	-5197
▁realize	-5198
▁contains	-5199
▁traditions	-5200
▁GO	-5201
anes	-5202
uded	-5203
▁thir	-5204
ructed	-5205
▁demon	-5206
▁paper	-5207
▁photo	-5208
▁swall	-5209
against	-5210
fathers	-5211
▁league	-5212
▁opport	-5213
▁status	-5214
▁airport	-5215
▁attract	-5216
▁manager	-5217
▁serious	-5218
▁studies	-5219
▁Straight	-5220
▁dwellers	-5221
▁officials	-5222
▁commercial	-5223
▁generation	-5224
abor	-5225
▁Shu	-5226
ulate	-5227
▁Okay	-5228
▁snow	-5229
ground	-5230
▁Mexic	-5231
▁sites	-5232
▁wrest	-5233
▁master	-5234
▁satisf	-5235
▁Airport	-5236
▁actions	-5237
▁convers	-5238
▁musical	-5239
▁connected	-5240
▁preferred	-5241
▁increasing	-5242
VE	-5243
His	-5244
▁27	-5245
▁3,	-5246
esty	-5247
pted	-5248
pura	-5249
▁Bad	-5250
▁unf	-5251
arian	-5252
ested	-5253
▁beat	-5254
▁bott	-5255
▁ends	-5256
ograph	-5257
▁focus	-5258
▁youth	-5259
▁equals	-5260
▁infect	-5261
▁Chennai	-5262
▁lessons	-5263
▁cultural	-5264
▁spending	-5265
▁Karnataka	-5266
awa	-5267
pan	-5268
aked	-5269
what	-5270
▁esc	-5271
▁pan	-5272
▁Alex	-5273
▁Maha	-5274
▁synd	-5275
mitted	-5276
▁Sever	-5277
▁Kapoor	-5278
▁degree	-5279
▁oldest	-5280
▁unique	-5281
▁visited	-5282
▁Assembly	-5283
▁starting	-5284
▁possessed	-5285
▁surrender	-5286
▁Bangladesh	-5287
▁Federation	-5288
▁environment	-5289
▁forefathers	-5290
tee	-5291
xts	-5292
obal	-5293
▁Pra	-5294
▁Rao	-5295
▁Sup	-5296
▁Iran	-5297
▁Sans	-5298
▁step	-5299
ishing	-5300
▁2017,	-5301
▁seize	-5302
▁Unseen	-5303
▁Command	-5304
▁concern	-5305
▁distrib	-5306
▁Japanese	-5307
▁standard	-5308
▁withhold	-5309
▁evildoers	-5310
Ab	-5311
▁da	-5312
aken	-5313
iate	-5314
▁1980	-5315
▁doll	-5316
▁sequ	-5317
▁Until	-5318
▁assum	-5319
▁disci	-5320
▁flows	-5321
▁Ladakh	-5322
▁arrived	-5323
▁claimed	-5324
▁whereon	-5325
▁pressure	-5326
▁relationship	-5327
▁Compassionate	-5328
tr	-5329
igg	-5330
lon	-5331
▁Je	-5332
inter	-5333
while	-5334
▁Sikk	-5335
▁anci	-5336
▁calf	-5337
▁iron	-5338
▁wont	-5339
ounter	-5340
▁Inter	-5341
▁alike	-5342
▁glory	-5343
▁Friday	-5344
▁bodies	-5345
▁calcul	-5346
▁harvest	-5347
▁ancients	-5348
▁directly	-5349
▁elections	-5350
▁questions	-5351
▁difference	-5352
asc	-5353
▁Ok	-5354
cean	-5355
evil	-5356
izes	-5357
uled	-5358
▁Reg	-5359
▁Whe	-5360
▁mach	-5361
▁scat	-5362
▁seed	-5363
▁task	-5364
ashion	-5365
cutive	-5366
▁Super	-5367
▁coach	-5368
▁piety	-5369
▁Ashoka	-5370
▁beings	-5371
▁defeat	-5372
▁owners	-5373
▁biggest	-5374
▁flowing	-5375
▁studied	-5376
▁Gracious	-5377
▁estimated	-5378
▁department	-5379
pet	-5380
came	-5381
edia	-5382
uber	-5383
▁Tex	-5384
▁Var	-5385
▁cup	-5386
▁sed	-5387
olved	-5388
thlet	-5389
▁Group	-5390
▁girls	-5391
▁grain	-5392
▁grief	-5393
▁Spirit	-5394
▁opening	-5395
▁category	-5396
▁computers	-5397
▁influence	-5398
▁architecture	-5399
AY	-5400
So	-5401
tty	-5402
▁OK	-5403
▁awa	-5404
▁sen	-5405
antic	-5406
▁alco	-5407
▁fing	-5408
▁holy	-5409
ulated	-5410
▁Greek	-5411
▁decor	-5412
▁floor	-5413
▁pairs	-5414
▁patron	-5415
▁signed	-5416
▁transl	-5417
▁rightly	-5418
▁construction	-5419
aps	-5420
avi	-5421
olf	-5422
zeb	-5423
▁El	-5424
▁ly	-5425
anta	-5426
cles	-5427
▁BCE	-5428
▁Son	-5429
▁Hall	-5430
▁ward	-5431
▁Malay	-5432
▁calam	-5433
▁helps	-5434
▁laugh	-5435
▁vouch	-5436
▁deaths	-5437
ximately	-5438
▁Oneness	-5439
▁actress	-5440
▁supreme	-5441
▁drinking	-5442
▁launched	-5443
▁programs	-5444
▁abundance	-5445
▁historical	-5446
mat	-5447
▁Nep	-5448
▁bag	-5449
▁err	-5450
▁fra	-5451
▁rob	-5452
asted	-5453
▁baby	-5454
▁cash	-5455
▁rang	-5456
people	-5457
▁Women	-5458
▁holds	-5459
▁limit	-5460
▁lesson	-5461
▁resurre	-5462
▁heedless	-5463
▁shooting	-5464
▁dwellings	-5465
▁thousands	-5466
▁discovered	-5467
▁administration	-5468
add	-5469
asi	-5470
▁4,	-5471
also	-5472
cery	-5473
▁Ark	-5474
ching	-5475
imate	-5476
▁2018	-5477
▁Comm	-5478
▁laws	-5479
▁stor	-5480
▁Black	-5481
▁gates	-5482
▁minute	-5483
▁resist	-5484
▁encoura	-5485
▁customer	-5486
▁violence	-5487
uv	-5488
▁Ph	-5489
▁TV	-5490
itor	-5491
▁ult	-5492
ourse	-5493
state	-5494
▁Chal	-5495
▁Fest	-5496
▁Mand	-5497
▁Soon	-5498
▁ruin	-5499
▁Micro	-5500
▁roads	-5501
▁uncle	-5502
▁animal	-5503
▁choice	-5504
▁headqu	-5505
▁recall	-5506
▁scient	-5507
▁causing	-5508
▁delight	-5509
▁efforts	-5510
▁multipl	-5511
▁Reminder	-5512
▁blessing	-5513
▁campaign	-5514
▁infidels	-5515
▁Aurangzeb	-5516
dis	-5517
ims	-5518
inc	-5519
miss	-5520
▁Ang	-5521
▁cin	-5522
ulted	-5523
▁List	-5524
▁Were	-5525
▁fate	-5526
▁2013.	-5527
▁mixed	-5528
▁Portug	-5529
▁awaits	-5530
▁bacter	-5531
▁square	-5532
▁Creator	-5533
▁despite	-5534
▁islands	-5535
▁killing	-5536
▁unknown	-5537
▁syndrome	-5538
▁Sometimes	-5539
▁advantage	-5540
▁effective	-5541
▁hereafter	-5542
▁increases	-5543
▁protected	-5544
▁therewith	-5545
Go	-5546
▁Aj	-5547
▁era	-5548
mates	-5549
▁Paul	-5550
▁hang	-5551
▁Hills	-5552
▁insol	-5553
Pharaoh	-5554
▁nearby	-5555
▁barrier	-5556
▁reduced	-5557
▁sitting	-5558
▁winning	-5559
▁messages	-5560
▁Whosoever	-5561
IA	-5562
fl	-5563
wan	-5564
▁28	-5565
Have	-5566
born	-5567
eter	-5568
▁Bre	-5569
▁Bur	-5570
▁Dam	-5571
▁ble	-5572
▁pag	-5573
▁2008	-5574
▁Life	-5575
▁hire	-5576
▁kick	-5577
ankind	-5578
ricane	-5579
▁advis	-5580
▁blown	-5581
▁gross	-5582
▁lands	-5583
▁pride	-5584
▁roles	-5585
▁sweet	-5586
▁ancest	-5587
▁movies	-5588
▁nights	-5589
▁recomp	-5590
▁symbol	-5591
outheast	-5592
▁learning	-5593
▁punished	-5594
▁associates	-5595
zy	-5596
Yes	-5597
bon	-5598
god	-5599
▁31	-5600
Will	-5601
umph	-5602
▁Law	-5603
▁aid	-5604
aksha	-5605
based	-5606
umpet	-5607
usted	-5608
▁flag	-5609
▁spot	-5610
▁Moosa	-5611
▁Sikkim	-5612
▁Summer	-5613
▁latter	-5614
▁marked	-5615
▁prayed	-5616
▁rising	-5617
▁managed	-5618
▁persons	-5619
▁entertain	-5620
▁presented	-5621
nty	-5622
ault	-5623
odes	-5624
soft	-5625
Bring	-5626
aging	-5627
holic	-5628
▁Band	-5629
▁Sign	-5630
▁2014.	-5631
▁Indus	-5632
▁crowd	-5633
▁texts	-5634
rophets	-5635
▁limits	-5636
▁regret	-5637
▁vouchs	-5638
▁Several	-5639
▁streams	-5640
▁surface	-5641
▁telling	-5642
▁trouble	-5643
▁arrested	-5644
lict	-5645
rial	-5646
road	-5647
uzha	-5648
▁Cont	-5649
▁Mark	-5650
▁flee	-5651
▁mine	-5652
porary	-5653
▁2020,	-5654
▁Koran	-5655
▁mosqu	-5656
▁cometh	-5657
▁economy	-5658
▁triumph	-5659
▁activity	-5660
▁relative	-5661
▁wretched	-5662
iya	-5663
▁Er	-5664
▁Kam	-5665
▁Pan	-5666
▁veh	-5667
ignty	-5668
▁Thee	-5669
▁Wait	-5670
▁mill	-5671
▁rans	-5672
▁cance	-5673
▁finds	-5674
▁males	-5675
▁Police	-5676
▁recent	-5677
▁sorrow	-5678
▁Internet	-5679
NA	-5680
asa	-5681
but	-5682
ips	-5683
ota	-5684
them	-5685
utra	-5686
igarh	-5687
lines	-5688
orses	-5689
▁Rail	-5690
▁refe	-5691
▁slay	-5692
icious	-5693
▁Texas	-5694
▁Under	-5695
▁afore	-5696
▁crime	-5697
▁dream	-5698
▁supply	-5699
▁tribut	-5700
▁driving	-5701
▁vitamin	-5702
▁whereof	-5703
vereignty	-5704
▁Governor	-5705
▁teachers	-5706
▁rebellion	-5707
▁rebellious	-5708
▁constructed	-5709
▁intercession	-5710
ky	-5711
edy	-5712
▁3.	-5713
▁Tar	-5714
▁fit	-5715
aling	-5716
▁Name	-5717
▁Play	-5718
▁cand	-5719
verted	-5720
▁Bihar	-5721
▁Clear	-5722
▁argue	-5723
▁desist	-5724
▁feared	-5725
▁images	-5726
▁tongue	-5727
▁compass	-5728
▁savings	-5729
▁Sanskrit	-5730
▁incident	-5731
▁emergency	-5732
▁encounter	-5733
▁scattered	-5734
▁confirming	-5735
▁wrongdoing	-5736
ipp	-5737
mas	-5738
ole	-5739
oub	-5740
▁pig	-5741
icket	-5742
▁1970	-5743
▁Ayat	-5744
▁bull	-5745
▁sens	-5746
▁Brahm	-5747
▁label	-5748
▁doctor	-5749
▁paying	-5750
▁Guardian	-5751
▁bounties	-5752
▁Microsoft	-5753
▁recompensed	-5754
IT	-5755
OM	-5756
▁Gr	-5757
ford	-5758
life	-5759
▁sev	-5760
▁wed	-5761
oples	-5762
▁2019	-5763
▁None	-5764
▁hero	-5765
▁concl	-5766
▁allows	-5767
▁nearer	-5768
▁worthy	-5769
poration	-5770
▁Russian	-5771
▁Shaitan	-5772
▁commands	-5773
▁criminals	-5774
▁disobedient	-5775
FA	-5776
ye	-5777
But	-5778
pal	-5779
▁pow	-5780
▁boat	-5781
▁exec	-5782
arters	-5783
ifying	-5784
▁2012.	-5785
▁Assam	-5786
▁costs	-5787
bearing	-5788
▁barren	-5789
▁goodly	-5790
▁prince	-5791
▁wished	-5792
▁befalls	-5793
▁billion	-5794
▁planned	-5795
▁prophets	-5796
▁forgotten	-5797
▁therefrom	-5798
fire	-5799
imal	-5800
imun	-5801
rapy	-5802
ston	-5803
▁Far	-5804
▁danc	-5805
▁Three	-5806
▁fifth	-5807
▁maybe	-5808
artment	-5809
▁averse	-5810
▁calend	-5811
▁highly	-5812
▁confirm	-5813
▁rejoice	-5814
▁Festival	-5815
▁document	-5816
▁forgives	-5817
▁progress	-5818
▁prominent	-5819
▁resources	-5820
▁structure	-5821
▁consequence	-5822
▁championship	-5823
ND	-5824
xy	-5825
uri	-5826
emor	-5827
mble	-5828
▁Sea	-5829
ivity	-5830
▁Keep	-5831
▁banks	-5832
▁doers	-5833
▁shirt	-5834
▁disapp	-5835
▁gained	-5836
▁General	-5837
▁mothers	-5838
continent	-5839
▁clothing	-5840
▁wherefore	-5841
je	-5842
▁Ir	-5843
burg	-5844
▁Han	-5845
▁Out	-5846
▁Roy	-5847
acred	-5848
inate	-5849
ronic	-5850
▁2012	-5851
▁Prag	-5852
▁entr	-5853
▁neck	-5854
▁ride	-5855
▁Earth	-5856
▁Nehru	-5857
▁Torah	-5858
▁brand	-5859
▁royal	-5860
▁tests	-5861
▁easily	-5862
▁listed	-5863
▁clothes	-5864
criptions	-5865
▁recently	-5866
▁afflicted	-5867
▁necessary	-5868
▁technology	-5869
▁individuals	-5870
you	-5871
▁IS	-5872
ails	-5873
itiz	-5874
▁Ben	-5875
▁bef	-5876
oking	-5877
ufact	-5878
▁2017	-5879
▁Lank	-5880
▁bill	-5881
▁elev	-5882
▁hate	-5883
▁sole	-5884
ainted	-5885
▁2019,	-5886
▁Never	-5887
▁dates	-5888
▁marks	-5889
▁swift	-5890
▁fields	-5891
▁treaty	-5892
▁express	-5893
▁fashion	-5894
▁abundant	-5895
▁covering	-5896
▁elephant	-5897
▁scholars	-5898
▁inscription	-5899
30	-5900
IC	-5901
▁Os	-5902
gery	-5903
pter	-5904
▁tom	-5905
These	-5906
deeds	-5907
henna	-5908
▁Upon	-5909
▁silk	-5910
ession	-5911
▁2016,	-5912
▁coins	-5913
▁seems	-5914
▁theat	-5915
▁Rather	-5916
▁behavi	-5917
▁Britain	-5918
▁Chandra	-5919
▁Supreme	-5920
▁charged	-5921
▁earliest	-5922
▁goodness	-5923
▁supposed	-5924
▁extremely	-5925
hma	-5926
▁Di	-5927
▁mix	-5928
▁Belg	-5929
▁guys	-5930
▁kids	-5931
lement	-5932
▁defin	-5933
▁noted	-5934
▁secre	-5935
ception	-5936
istered	-5937
▁humble	-5938
▁palace	-5939
▁exposed	-5940
▁monsoon	-5941
▁walking	-5942
▁domestic	-5943
▁selected	-5944
▁transfer	-5945
▁worshipping	-5946
To	-5947
sey	-5948
▁NO	-5949
lies	-5950
took	-5951
▁Pul	-5952
▁Put	-5953
▁gas	-5954
▁pet	-5955
▁rap	-5956
erves	-5957
icing	-5958
▁1990	-5959
▁2001	-5960
▁phil	-5961
▁sake	-5962
ndered	-5963
▁Democ	-5964
▁Might	-5965
▁Vijay	-5966
▁brief	-5967
▁drawn	-5968
iration	-5969
▁bounds	-5970
▁driver	-5971
▁legend	-5972
▁meters	-5973
▁sexual	-5974
▁twenty	-5975
▁Persian	-5976
▁climate	-5977
▁failure	-5978
▁lasting	-5979
▁officer	-5980
▁society	-5981
▁absolute	-5982
▁attacked	-5983
▁becoming	-5984
▁honoured	-5985
▁reminded	-5986
▁tropical	-5987
▁disobeyed	-5988
▁interpret	-5989
▁previously	-5990
By	-5991
500	-5992
How	-5993
iny	-5994
ola	-5995
omy	-5996
afed	-5997
ares	-5998
etan	-5999
ifts	-6000
▁Ala	-6001
▁Ash	-6002
▁Mun	-6003
▁irr	-6004
▁orn	-6005
▁sir	-6006
oting	-6007
▁magn	-6008
orters	-6009
▁Times	-6010
▁scale	-6011
▁stret	-6012
▁endure	-6013
▁Gehenna	-6014
▁appreci	-6015
▁correct	-6016
▁feature	-6017
▁missing	-6018
▁pattern	-6019
▁calendar	-6020
▁captured	-6021
▁constant	-6022
▁distingu	-6023
▁exercise	-6024
▁occasion	-6025
▁Bollywood	-6026
▁affliction	-6027
Mus	-6028
That	-6029
appe	-6030
aval	-6031
bles	-6032
ogle	-6033
▁185	-6034
▁Lit	-6035
▁Mah	-6036
▁Sch	-6037
▁Vis	-6038
cipal	-6039
▁Hast	-6040
▁Laks	-6041
▁zero	-6042
▁Bhima	-6043
▁cards	-6044
▁exalt	-6045
hampion	-6046
▁Rajput	-6047
▁broken	-6048
▁colour	-6049
▁covers	-6050
▁deceive	-6051
▁believer	-6052
▁overcome	-6053
▁positions	-6054
▁represented	-6055
▁approximately	-6056
eer	-6057
▁Li	-6058
blis	-6059
ibly	-6060
look	-6061
▁Art	-6062
▁Muk	-6063
▁Mur	-6064
▁via	-6065
arest	-6066
ifice	-6067
lcome	-6068
night	-6069
there	-6070
▁Ghat	-6071
▁Bless	-6072
▁anger	-6073
▁drugs	-6074
▁grown	-6075
▁image	-6076
▁rates	-6077
▁Though	-6078
▁armies	-6079
▁mouths	-6080
ulations	-6081
▁reaches	-6082
▁reading	-6083
▁reports	-6084
▁Prophets	-6085
▁accident	-6086
▁manufact	-6087
▁differences	-6088
▁performances	-6089
200	-6090
▁FI	-6091
▁IN	-6092
avan	-6093
onds	-6094
pite	-6095
usuf	-6096
▁fee	-6097
acity	-6098
▁blue	-6099
▁feat	-6100
▁torn	-6101
▁vast	-6102
Surely	-6103
inated	-6104
▁2008.	-6105
▁discl	-6106
Abraham	-6107
ghalaya	-6108
▁Prague	-6109
▁aspect	-6110
▁eating	-6111
▁diverse	-6112
▁exactly	-6113
▁quarter	-6114
▁intellig	-6115
▁originated	-6116
▁Cur	-6117
▁Lat	-6118
▁Sin	-6119
▁web	-6120
▁Cher	-6121
▁diss	-6122
▁Chief	-6123
▁Glory	-6124
▁miles	-6125
▁prior	-6126
▁spoke	-6127
▁surpr	-6128
▁Andhra	-6129
▁horses	-6130
▁issued	-6131
▁retain	-6132
▁thrown	-6133
▁bellies	-6134
▁peoples	-6135
▁striving	-6136
▁Meghalaya	-6137
▁existence	-6138
▁receiving	-6139
▁Afghanistan	-6140
▁Unbelievers	-6141
10	-6142
gha	-6143
nic	-6144
▁Na	-6145
auty	-6146
chae	-6147
hend	-6148
iyar	-6149
▁Add	-6150
▁Ara	-6151
▁Ter	-6152
steps	-6153
▁Ange	-6154
▁Mart	-6155
▁Prem	-6156
▁tend	-6157
otball	-6158
▁2011,	-6159
▁2019.	-6160
▁catch	-6161
▁meant	-6162
▁midst	-6163
▁rural	-6164
▁Island	-6165
▁Russia	-6166
▁graves	-6167
remember	-6168
▁Eastern	-6169
▁attacks	-6170
▁complic	-6171
▁extended	-6172
▁rainfall	-6173
▁rewarded	-6174
▁customers	-6175
▁Department	-6176
▁pilgrimage	-6177
mic	-6178
umn	-6179
asan	-6180
ccan	-6181
▁Hon	-6182
▁cat	-6183
ctors	-6184
▁Bank	-6185
▁Hary	-6186
▁Pall	-6187
▁wine	-6188
ipment	-6189
▁bride	-6190
▁delta	-6191
▁ideas	-6192
▁illeg	-6193
▁accord	-6194
▁buying	-6195
▁caught	-6196
▁desert	-6197
▁integr	-6198
▁careful	-6199
▁orphans	-6200
▁restaur	-6201
▁Buddhism	-6202
▁obedient	-6203
▁regarded	-6204
▁buildings	-6205
▁organized	-6206
▁management	-6207
▁humiliating	-6208
▁headquarters	-6209
60	-6210
see	-6211
▁sad	-6212
▁shr	-6213
ounds	-6214
▁Jack	-6215
▁drag	-6216
▁subd	-6217
isters	-6218
itched	-6219
▁notes	-6220
▁owned	-6221
▁breast	-6222
▁singer	-6223
▁useful	-6224
▁aggress	-6225
▁visible	-6226
▁younger	-6227
▁describe	-6228
▁officers	-6229
▁tomorrow	-6230
▁unjustly	-6231
▁submitted	-6232
▁vouchsafed	-6233
EN	-6234
▁:	-6235
aja	-6236
enn	-6237
lly	-6238
met	-6239
▁ec	-6240
▁Dur	-6241
▁Lut	-6242
▁Set	-6243
▁unc	-6244
iques	-6245
▁Carn	-6246
▁Dhar	-6247
▁Indo	-6248
▁nigh	-6249
▁shut	-6250
encies	-6251
proofs	-6252
▁2012,	-6253
▁older	-6254
▁whoso	-6255
▁Google	-6256
▁Mexico	-6257
▁exclus	-6258
▁fallen	-6259
▁guests	-6260
▁option	-6261
▁retreat	-6262
▁agreement	-6263
▁statement	-6264
wh	-6265
box	-6266
elf	-6267
hia	-6268
oram	-6269
ties	-6270
▁Inc	-6271
▁Sid	-6272
▁Tal	-6273
▁env	-6274
igned	-6275
water	-6276
▁Hand	-6277
▁lord	-6278
▁obst	-6279
▁skins	-6280
hearing	-6281
▁Mosque	-6282
▁ascend	-6283
▁devote	-6284
▁global	-6285
▁styles	-6286
▁testim	-6287
▁Washing	-6288
▁counsel	-6289
▁imagine	-6290
▁scoring	-6291
▁shelter	-6292
▁workers	-6293
▁audience	-6294
▁injuries	-6295
▁Hyderabad	-6296
▁equipment	-6297
▁festivals	-6298
▁suggested	-6299
polytheists	-6300
▁temperature	-6301
Th	-6302
oper	-6303
▁Mod	-6304
acing	-6305
anish	-6306
▁2016	-6307
▁Ital	-6308
▁alms	-6309
▁chem	-6310
▁kins	-6311
▁milk	-6312
lahoma	-6313
▁Dutch	-6314
▁stood	-6315
ography	-6316
▁Deccan	-6317
▁Valley	-6318
▁bottom	-6319
▁exists	-6320
▁openly	-6321
▁retire	-6322
▁Whether	-6323
▁declare	-6324
▁growing	-6325
▁Filmfare	-6326
▁Oklahoma	-6327
▁kindness	-6328
▁material	-6329
▁subcontinent	-6330
▁Championships	-6331
ago	-6332
hor	-6333
▁Ya	-6334
Wise	-6335
berg	-6336
itya	-6337
ansas	-6338
▁Dire	-6339
▁Holi	-6340
▁polo	-6341
others	-6342
▁Church	-6343
▁Compan	-6344
▁agreed	-6345
▁utterly	-6346
▁weapons	-6347
▁Football	-6348
▁argument	-6349
Ver	-6350
hav	-6351
▁Po	-6352
▁Tu	-6353
hire	-6354
▁Dec	-6355
▁Nuh	-6356
▁eth	-6357
▁tur	-6358
ademy	-6359
earch	-6360
▁2007	-6361
▁Sanj	-6362
▁lung	-6363
▁seat	-6364
Verily	-6365
▁initi	-6366
▁worry	-6367
▁yield	-6368
▁Prince	-6369
▁waters	-6370
▁supplic	-6371
▁weather	-6372
▁Alauddin	-6373
▁planning	-6374
▁Malayalam	-6375
bu	-6376
pa	-6377
eri	-6378
erk	-6379
▁0.	-6380
▁80	-6381
Your	-6382
lets	-6383
aired	-6384
ector	-6385
iller	-6386
ockey	-6387
▁1960	-6388
▁bind	-6389
▁deem	-6390
▁fors	-6391
▁grad	-6392
▁autom	-6393
▁freed	-6394
▁union	-6395
▁Sacred	-6396
▁arrang	-6397
▁impact	-6398
▁ransom	-6399
▁summon	-6400
▁deniers	-6401
▁keeping	-6402
▁magician	-6403
▁footsteps	-6404
▁guardians	-6405
▁Washington	-6406
▁recognized	-6407
▁possessions	-6408
lls	-6409
mod	-6410
rid	-6411
▁du	-6412
inda	-6413
rate	-6414
▁Cho	-6415
▁Cre	-6416
▁Off	-6417
Satan	-6418
▁Bomb	-6419
▁Road	-6420
▁bath	-6421
▁unit	-6422
▁Bring	-6423
▁daily	-6424
▁weeke	-6425
Knowing	-6426
iciency	-6427
▁device	-6428
▁pretty	-6429
▁resort	-6430
▁tested	-6431
▁Bengali	-6432
▁Zealand	-6433
▁devoted	-6434
▁inmates	-6435
▁monthly	-6436
▁Northern	-6437
▁calamity	-6438
▁climbing	-6439
▁stronger	-6440
olt	-6441
▁AD	-6442
lead	-6443
mark	-6444
oint	-6445
rics	-6446
▁Lam	-6447
▁Mot	-6448
▁Ric	-6449
▁bat	-6450
▁gro	-6451
▁hom	-6452
▁wid	-6453
▁Bill	-6454
▁Shan	-6455
▁prec	-6456
▁Paris	-6457
▁await	-6458
▁bliss	-6459
▁drama	-6460
▁Hockey	-6461
▁compre	-6462
▁memory	-6463
▁Tripura	-6464
▁accompl	-6465
▁asunder	-6466
▁creating	-6467
▁regional	-6468
▁witnessed	-6469
▁Parliament	-6470
▁submission	-6471
▁territories	-6472
ERE	-6473
▁29	-6474
▁70	-6475
ears	-6476
eper	-6477
rers	-6478
▁189	-6479
▁Gar	-6480
▁Mor	-6481
asant	-6482
break	-6483
neath	-6484
ropri	-6485
▁citiz	-6486
▁flesh	-6487
▁guess	-6488
▁shape	-6489
▁advers	-6490
▁allies	-6491
▁mortal	-6492
▁praises	-6493
▁Division	-6494
▁garments	-6495
rs	-6496
phe	-6497
▁35	-6498
hard	-6499
ocal	-6500
osop	-6501
▁Wis	-6502
▁mal	-6503
otten	-6504
rosse	-6505
▁Open	-6506
▁cycl	-6507
▁fold	-6508
▁furn	-6509
angana	-6510
▁2018,	-6511
▁Maury	-6512
▁diver	-6513
▁reply	-6514
fortune	-6515
▁beauty	-6516
▁excuse	-6517
▁metres	-6518
▁Haryana	-6519
▁alcohol	-6520
▁corrupt	-6521
▁prevail	-6522
▁science	-6523
▁student	-6524
▁subsequ	-6525
▁univers	-6526
▁admitted	-6527
▁champion	-6528
▁devotion	-6529
▁offering	-6530
▁depending	-6531
▁prevented	-6532
▁sacrifice	-6533
▁celebration	-6534
ito	-6535
onn	-6536
vis	-6537
down	-6538
▁Dar	-6539
▁Tra	-6540
▁bew	-6541
▁mic	-6542
▁nar	-6543
▁psy	-6544
▁ric	-6545
athak	-6546
itzer	-6547
▁2015	-6548
▁Jamm	-6549
▁Prof	-6550
▁Willi	-6551
▁closer	-6552
▁devils	-6553
▁persec	-6554
▁policy	-6555
▁proved	-6556
▁Despite	-6557
▁counter	-6558
▁display	-6559
▁secrets	-6560
▁Carnatic	-6561
▁advanced	-6562
▁gracious	-6563
▁informed	-6564
▁opponent	-6565
▁promises	-6566
▁unbelief	-6567
▁controvers	-6568
,'	-6569
BC	-6570
▁BE	-6571
elve	-6572
ucky	-6573
▁Ham	-6574
▁Mel	-6575
bered	-6576
verty	-6577
▁Vict	-6578
▁clin	-6579
▁rely	-6580
ushing	-6581
▁2020.	-6582
▁accur	-6583
▁hotel	-6584
▁pages	-6585
▁rapid	-6586
▁shade	-6587
▁slain	-6588
▁users	-6589
otional	-6590
▁athlet	-6591
▁judges	-6592
▁obeyed	-6593
▁Kannada	-6594
▁artists	-6595
▁pursued	-6596
▁putting	-6597
▁equation	-6598
▁investig	-6599
▁patients	-6600
▁Wherefore	-6601
▁Chandigarh	-6602
▁organization	-6603
▁temperatures	-6604
AM	-6605
cra	-6606
orr	-6607
ervo	-6608
hens	-6609
roid	-6610
▁Fear	-6611
▁asks	-6612
▁fool	-6613
▁soil	-6614
▁subt	-6615
▁2014,	-6616
▁basin	-6617
▁prove	-6618
▁steps	-6619
▁Battle	-6620
▁county	-6621
▁finish	-6622
▁mobile	-6623
▁perish	-6624
▁passing	-6625
▁reasons	-6626
▁violent	-6627
▁delivery	-6628
▁instruct	-6629
▁secretly	-6630
▁alongside	-6631
;-	-6632
sts	-6633
lves	-6634
uity	-6635
▁Lou	-6636
▁Ret	-6637
▁log	-6638
▁max	-6639
▁Find	-6640
▁Flor	-6641
▁bomb	-6642
▁dumb	-6643
▁loft	-6644
▁neur	-6645
umbent	-6646
▁2013,	-6647
▁2015,	-6648
▁bandy	-6649
▁hears	-6650
▁Sports	-6651
▁extent	-6652
▁refers	-6653
▁mission	-6654
▁Whenever	-6655
▁assembly	-6656
▁kilometers	-6657
cr	-6658
bor	-6659
bur	-6660
alls	-6661
book	-6662
emic	-6663
▁300	-6664
▁Mil	-6665
▁Naz	-6666
▁Nic	-6667
▁kne	-6668
▁lag	-6669
entle	-6670
heart	-6671
▁Stop	-6672
▁Warn	-6673
▁prem	-6674
▁Jammu	-6675
▁emigr	-6676
▁files	-6677
portion	-6678
version	-6679
▁convin	-6680
▁prices	-6681
▁Neither	-6682
▁concent	-6683
▁illness	-6684
▁thunder	-6685
▁combined	-6686
▁demonstr	-6687
▁disorder	-6688
▁hundreds	-6689
▁treasures	-6690
▁frequently	-6691
▁popularity	-6692
▁underneath	-6693
▁resurrected	-6694
80	-6695
SA	-6696
ein	-6697
hum	-6698
lar	-6699
pat	-6700
sore	-6701
▁aim	-6702
Taste	-6703
eding	-6704
ushan	-6705
uting	-6706
▁2006	-6707
▁2009	-6708
▁note	-6709
▁sale	-6710
▁wasn	-6711
▁whis	-6712
▁Canad	-6713
▁Italy	-6714
▁Yusuf	-6715
▁angry	-6716
▁react	-6717
▁ridic	-6718
▁route	-6719
▁taxes	-6720
▁walls	-6721
▁Argent	-6722
▁Bombay	-6723
▁fulfil	-6724
▁handle	-6725
▁plains	-6726
▁Penalty	-6727
▁concept	-6728
▁options	-6729
▁poverty	-6730
▁rewards	-6731
▁carrying	-6732
sufficient	-6733
▁operating	-6734
hr	-6735
aws	-6736
iot	-6737
jun	-6738
▁Az	-6739
▁Hud	-6740
▁Jay	-6741
▁ham	-6742
astic	-6743
camel	-6744
▁Guru	-6745
▁fuck	-6746
▁monu	-6747
▁pair	-6748
▁seas	-6749
atform	-6750
▁Grace	-6751
▁Green	-6752
▁Produ	-6753
▁gradu	-6754
▁motor	-6755
▁seats	-6756
ketball	-6757
▁Commit	-6758
▁Sunday	-6759
▁Switzer	-6760
▁colours	-6761
▁factors	-6762
▁initial	-6763
▁oppress	-6764
▁Universe	-6765
▁challeng	-6766
▁magicians	-6767
▁remaining	-6768
▁Switzerland	-6769
▁association	-6770
▁respectively	-6771
rol	-6772
utt	-6773
mend	-6774
thren	-6775
▁Alif	-6776
▁Four	-6777
▁copy	-6778
▁maid	-6779
prison	-6780
▁2017.	-6781
▁indec	-6782
▁plane	-6783
▁radio	-6784
▁recon	-6785
▁Second	-6786
▁circum	-6787
▁preach	-6788
▁Believe	-6789
▁decline	-6790
▁reviews	-6791
stitution	-6792
▁Hinduism	-6793
▁disputed	-6794
▁involves	-6795
▁preceded	-6796
▁teaching	-6797
▁movements	-6798
▁otherwise	-6799
▁Everlasting	-6800
▁resurrection	-6801
70	-6802
mo	-6803
Com	-6804
lied	-6805
whel	-6806
▁Aut	-6807
▁Goa	-6808
▁Los	-6809
▁Sil	-6810
▁ves	-6811
itter	-6812
▁2021	-6813
▁bore	-6814
▁fuel	-6815
▁hunt	-6816
Knower	-6817
▁2018.	-6818
▁abuse	-6819
▁antib	-6820
▁feder	-6821
▁fluid	-6822
century	-6823
clining	-6824
▁Chaluk	-6825
▁cinema	-6826
▁Shivaji	-6827
▁adopted	-6828
▁desired	-6829
▁details	-6830
▁passeng	-6831
▁assigned	-6832
▁Institute	-6833
▁happiness	-6834
▁initially	-6835
▁appearance	-6836
▁developing	-6837
▁godfearing	-6838
▁misfortune	-6839
▁competitions	-6840
uce	-6841
▁Dh	-6842
oral	-6843
▁hun	-6844
▁mud	-6845
▁Raja	-6846
▁Srin	-6847
▁boys	-6848
▁legs	-6849
▁sail	-6850
lihood	-6851
resent	-6852
▁Ahmed	-6853
▁races	-6854
▁Common	-6855
▁Middle	-6856
▁condem	-6857
▁native	-6858
▁pagans	-6859
unicipal	-6860
▁Academy	-6861
▁Italian	-6862
▁goddess	-6863
▁capacity	-6864
▁politics	-6865
▁primarily	-6866
▁residents	-6867
▁agriculture	-6868
40	-6869
AD	-6870
haw	-6871
anna	-6872
ores	-6873
▁500	-6874
▁Gur	-6875
▁Inf	-6876
▁Jer	-6877
▁Zal	-6878
▁dre	-6879
▁hem	-6880
▁lun	-6881
areth	-6882
pread	-6883
▁Rock	-6884
▁pear	-6885
▁suic	-6886
erving	-6887
▁Leave	-6888
▁Mahab	-6889
▁Vedic	-6890
▁keeps	-6891
acrosse	-6892
▁mocked	-6893
▁virtue	-6894
▁Uttarak	-6895
▁article	-6896
▁evident	-6897
▁injured	-6898
▁Committee	-6899
▁fabricated	-6900
▁recommended	-6901
uj	-6902
aib	-6903
car	-6904
▁Fe	-6905
▁ST	-6906
rage	-6907
▁Bag	-6908
▁Ira	-6909
▁Jal	-6910
rophy	-6911
▁Conf	-6912
▁Devi	-6913
▁susp	-6914
ipedia	-6915
▁Sabha	-6916
▁lofty	-6917
▁necks	-6918
▁shalt	-6919
▁couldn	-6920
▁engage	-6921
▁forged	-6922
▁narrow	-6923
Laughter	-6924
▁Highway	-6925
▁consult	-6926
▁seconds	-6927
▁enjoined	-6928
▁infected	-6929
▁weakness	-6930
▁explained	-6931
▁frustrate	-6932
▁influenced	-6933
▁opportunity	-6934
▁disbelieving	-6935
,”	-6936
.).	-6937
ube	-6938
▁wa	-6939
wara	-6940
▁180	-6941
▁fet	-6942
▁fly	-6943
▁lat	-6944
allel	-6945
ateau	-6946
▁Mean	-6947
▁Tend	-6948
▁cars	-6949
▁dish	-6950
▁tall	-6951
ointed	-6952
person	-6953
▁Iblis	-6954
▁conse	-6955
▁pitch	-6956
uration	-6957
▁button	-6958
▁stands	-6959
▁Florida	-6960
▁Zalimun	-6961
▁emperor	-6962
▁enjoyed	-6963
▁organiz	-6964
▁parable	-6965
▁reality	-6966
▁announce	-6967
▁elements	-6968
▁aforetime	-6969
▁ignorance	-6970
▁collection	-6971
▁livelihood	-6972
▁techniques	-6973
▁victorious	-6974
▁Uttarakhand	-6975
TM	-6976
UT	-6977
mes	-6978
akat	-6979
alih	-6980
ario	-6981
chen	-6982
ilar	-6983
resp	-6984
uese	-6985
▁Sou	-6986
▁USA	-6987
▁dro	-6988
▁nin	-6989
▁wax	-6990
ghals	-6991
press	-6992
▁Prom	-6993
▁cong	-6994
▁crew	-6995
▁nice	-6996
▁sorce	-6997
▁Vaishn	-6998
▁Virgin	-6999
▁comedy	-7000
▁provin	-7001
▁ritual	-7002
▁sealed	-7003
▁Mughals	-7004
▁disappe	-7005
▁illegal	-7006
▁nearest	-7007
▁sorcery	-7008
▁therapy	-7009
▁achieved	-7010
▁brethren	-7011
▁likeness	-7012
▁Telangana	-7013
▁formation	-7014
▁obedience	-7015
▁principal	-7016
▁originally	-7017
yle	-7018
▁'%	-7019
▁90	-7020
▁186	-7021
▁Fur	-7022
▁Hur	-7023
▁Rag	-7024
▁awe	-7025
▁rhy	-7026
angal	-7027
ulkar	-7028
▁Fore	-7029
▁Vers	-7030
▁caut	-7031
▁tiss	-7032
▁Chess	-7033
▁Jahan	-7034
▁Korea	-7035
▁Trans	-7036
▁annoy	-7037
▁forty	-7038
▁sugar	-7039
▁Prayer	-7040
▁cultiv	-7041
▁domain	-7042
▁pledge	-7043
▁racing	-7044
▁saving	-7045
▁African	-7046
▁Stadium	-7047
▁commune	-7048
▁denying	-7049
▁mislead	-7050
▁tongues	-7051
▁expanded	-7052
▁resulted	-7053
▁identified	-7054
▁leadership	-7055
▁originates	-7056
%.	-7057
Ex	-7058
OC	-7059
yl	-7060
ado	-7061
tic	-7062
▁Ga	-7063
▁Id	-7064
▁ON	-7065
▁je	-7066
arsh	-7067
ilis	-7068
sing	-7069
▁Ann	-7070
▁Atl	-7071
▁shi	-7072
apers	-7073
gupta	-7074
hmael	-7075
▁2005	-7076
▁Sand	-7077
▁amid	-7078
▁bron	-7079
▁coff	-7080
▁elim	-7081
▁empt	-7082
abaddi	-7083
▁blast	-7084
▁cease	-7085
▁depos	-7086
▁expos	-7087
▁gifts	-7088
▁tempt	-7089
anguage	-7090
▁Hearer	-7091
▁branch	-7092
▁compar	-7093
▁legisl	-7094
▁prohib	-7095
▁Blessed	-7096
▁Instead	-7097
▁Ishmael	-7098
▁couches	-7099
▁strayed	-7100
▁traffic	-7101
▁differed	-7102
▁disaster	-7103
▁intended	-7104
▁stations	-7105
▁attribute	-7106
▁substance	-7107
▁similitude	-7108
▁intelligence	-7109
.),	-7110
Woe	-7111
alu	-7112
▁Lu	-7113
aled	-7114
iest	-7115
mits	-7116
udes	-7117
ulpt	-7118
▁Lok	-7119
Enter	-7120
tense	-7121
▁Chat	-7122
▁fled	-7123
▁opin	-7124
▁rejo	-7125
▁sung	-7126
▁Books	-7127
▁delay	-7128
▁horse	-7129
▁prime	-7130
▁unlaw	-7131
▁Chhatt	-7132
▁Cricket	-7133
▁Emperor	-7134
▁Witness	-7135
▁describ	-7136
▁falling	-7137
▁machine	-7138
▁bringing	-7139
▁cautious	-7140
▁multiply	-7141
▁philosop	-7142
▁Wikipedia	-7143
▁spiritual	-7144
▁Portuguese	-7145
▁surrounded	-7146
LE	-7147
cho	-7148
gar	-7149
yer	-7150
▁Sl	-7151
▁Ta	-7152
daho	-7153
held	-7154
▁Tib	-7155
chers	-7156
ratic	-7157
▁Chan	-7158
▁Free	-7159
▁flat	-7160
▁jump	-7161
▁mail	-7162
▁warm	-7163
▁Apple	-7164
▁Idaho	-7165
▁Lanka	-7166
▁Night	-7167
▁scene	-7168
▁Easter	-7169
▁awards	-7170
▁candid	-7171
▁intend	-7172
▁invite	-7173
▁sector	-7174
▁skills	-7175
▁slight	-7176
ropriate	-7177
together	-7178
▁Mizoram	-7179
▁intense	-7180
▁neglect	-7181
▁picture	-7182
▁surgery	-7183
▁swallow	-7184
▁willing	-7185
▁Catholic	-7186
▁Chhattis	-7187
▁changing	-7188
▁Tendulkar	-7189
▁determine	-7190
▁permitted	-7191
▁returning	-7192
▁succeeded	-7193
chaeological	-7194
▁inscriptions	-7195
▁interpretation	-7196
rya	-7197
▁Cy	-7198
▁UN	-7199
noon	-7200
roat	-7201
tery	-7202
wary	-7203
▁10,	-7204
▁Abu	-7205
▁Kab	-7206
▁Try	-7207
cknow	-7208
mally	-7209
▁Iraq	-7210
▁Phil	-7211
▁Thir	-7212
mented	-7213
stream	-7214
terday	-7215
▁2011.	-7216
▁James	-7217
▁imple	-7218
▁owner	-7219
▁Ganges	-7220
▁Kathak	-7221
▁Malays	-7222
▁divide	-7223
▁mechan	-7224
▁notice	-7225
▁twelve	-7226
▁Perhaps	-7227
▁channel	-7228
▁earthqu	-7229
▁mockery	-7230
▁notable	-7231
▁Marathas	-7232
▁creature	-7233
▁sentence	-7234
▁employees	-7235
▁northeast	-7236
▁scheduled	-7237
▁controlled	-7238
GH	-7239
▁Es	-7240
alys	-7241
olve	-7242
wers	-7243
▁Ban	-7244
▁Jag	-7245
▁cas	-7246
▁egg	-7247
▁rag	-7248
istry	-7249
ounce	-7250
power	-7251
▁Kumb	-7252
▁bare	-7253
▁wave	-7254
▁2006,	-7255
▁2021,	-7256
▁Board	-7257
▁Fight	-7258
▁Salih	-7259
▁entry	-7260
▁polic	-7261
▁Little	-7262
▁contem	-7263
▁vessel	-7264
▁Islands	-7265
▁accepts	-7266
▁digital	-7267
▁finding	-7268
▁restore	-7269
▁acquired	-7270
▁parallel	-7271
▁Meanwhile	-7272
▁afterwards	-7273
▁continuous	-7274
▁importance	-7275
▁worshipers	-7276
ius	-7277
nce	-7278
uts	-7279
▁ft	-7280
Come	-7281
icit	-7282
igen	-7283
oria	-7284
▁400	-7285
▁Nik	-7286
▁Ran	-7287
▁fil	-7288
▁nay	-7289
Where	-7290
agues	-7291
those	-7292
works	-7293
▁Nepal	-7294
▁funds	-7295
▁rhyth	-7296
▁buried	-7297
▁shared	-7298
▁stages	-7299
▁Nothing	-7300
▁charges	-7301
▁holding	-7302
▁incline	-7303
▁resting	-7304
▁singing	-7305
▁misdeeds	-7306
▁deficiency	-7307
▁honourable	-7308
▁Corporation	-7309
▁disbelieves	-7310
▁Praiseworthy	-7311
yo	-7312
gia	-7313
illa	-7314
omer	-7315
riel	-7316
stra	-7317
ules	-7318
wali	-7319
writ	-7320
▁Bat	-7321
▁Bes	-7322
▁Ken	-7323
▁Pit	-7324
▁Tir	-7325
▁lic	-7326
▁mas	-7327
▁sam	-7328
ashed	-7329
abriel	-7330
▁Frank	-7331
▁Maybe	-7332
▁chair	-7333
▁moves	-7334
lection	-7335
▁Seeing	-7336
▁acknow	-7337
▁denies	-7338
▁easier	-7339
▁senior	-7340
▁Hindust	-7341
▁emerged	-7342
▁invited	-7343
▁retired	-7344
▁seasons	-7345
▁strange	-7346
▁tourist	-7347
idespread	-7348
▁accompan	-7349
▁diseases	-7350
▁platform	-7351
▁speaking	-7352
▁struggle	-7353
▁ancestors	-7354
▁expensive	-7355
▁wrestling	-7356
▁Commission	-7357
▁background	-7358
▁categories	-7359
▁commission	-7360
▁experiment	-7361
▁supporters	-7362
▁authorities	-7363
▁encompasses	-7364
▁transgression	-7365
25	-7366
him	-7367
iah	-7368
▁Cr	-7369
dens	-7370
zing	-7371
▁jun	-7372
chest	-7373
epend	-7374
▁Cave	-7375
▁Face	-7376
▁Save	-7377
▁Supp	-7378
▁scen	-7379
▁2015.	-7380
▁attra	-7381
▁colle	-7382
▁cycle	-7383
▁etern	-7384
▁faced	-7385
▁innoc	-7386
▁loose	-7387
▁miser	-7388
▁Nether	-7389
▁Origin	-7390
▁Should	-7391
▁batter	-7392
▁breaks	-7393
▁facing	-7394
▁horror	-7395
▁strait	-7396
▁street	-7397
▁abiding	-7398
▁absence	-7399
▁conject	-7400
▁derived	-7401
▁request	-7402
▁returns	-7403
▁vaccine	-7404
▁discount	-7405
▁projects	-7406
▁happening	-7407
▁separated	-7408
▁testimony	-7409
▁Thereafter	-7410
▁officially	-7411
▁retirement	-7412
▁successors	-7413
▁surrounding	-7414
▁successfully	-7415
KE	-7416
Had	-7417
wal	-7418
▁7,	-7419
▁ta	-7420
atel	-7421
cket	-7422
▁(19	-7423
▁Dal	-7424
▁Jun	-7425
▁Lim	-7426
▁lod	-7427
akers	-7428
eties	-7429
onday	-7430
urday	-7431
▁1950	-7432
▁Club	-7433
▁Samb	-7434
▁Turk	-7435
▁aren	-7436
▁fert	-7437
▁rect	-7438
▁rein	-7439
▁arrow	-7440
▁chain	-7441
▁escap	-7442
▁spect	-7443
▁stray	-7444
▁Secret	-7445
▁aright	-7446
▁bridge	-7447
▁dreams	-7448
▁perman	-7449
▁sculpt	-7450
entially	-7451
▁Indones	-7452
▁praised	-7453
▁showing	-7454
▁Canadian	-7455
▁aversion	-7456
▁entirely	-7457
▁purified	-7458
▁restored	-7459
▁schedule	-7460
▁versions	-7461
▁collected	-7462
▁continues	-7463
▁newspaper	-7464
▁religions	-7465
▁prescribed	-7466
▁proportion	-7467
▁threatened	-7468
▁Netherlands	-7469
▁inspiration	-7470
▁administrative	-7471
II	-7472
ker	-7473
nam	-7474
oti	-7475
▁36	-7476
▁OF	-7477
▁ul	-7478
ayas	-7479
bell	-7480
izam	-7481
oman	-7482
only	-7483
part	-7484
usts	-7485
▁Bah	-7486
▁fix	-7487
icted	-7488
ieval	-7489
▁Home	-7490
▁poll	-7491
coming	-7492
▁2007,	-7493
▁2008,	-7494
▁2010.	-7495
▁Satava	-7496
▁circle	-7497
▁losing	-7498
▁lyrics	-7499
▁muscle	-7500
▁mutual	-7501
▁overse	-7502
▁perpet	-7503
▁revive	-7504
▁critics	-7505
▁flowers	-7506
▁serving	-7507
▁chemical	-7508
▁realized	-7509
▁providing	-7510
▁industrial	-7511
▁irrigation	-7512
▁widespread	-7513
▁sovereignty	-7514
compassionate	-7515
hs	-7516
even	-7517
rick	-7518
rits	-7519
▁Det	-7520
▁Due	-7521
▁Eat	-7522
▁Ved	-7523
▁nuc	-7524
▁obv	-7525
▁Chic	-7526
▁Suff	-7527
▁True	-7528
▁scar	-7529
aining	-7530
wealth	-7531
▁2010,	-7532
▁2021.	-7533
▁Louis	-7534
▁Major	-7535
▁glass	-7536
▁incor	-7537
▁recip	-7538
▁refer	-7539
▁shout	-7540
▁units	-7541
aration	-7542
ubercul	-7543
▁Center	-7544
▁Monday	-7545
▁Mother	-7546
▁carbon	-7547
▁column	-7548
▁guards	-7549
▁hosted	-7550
▁offers	-7551
▁picked	-7552
▁solemn	-7553
▁Marathi	-7554
▁fulfill	-7555
▁reservo	-7556
▁starred	-7557
▁Saturday	-7558
▁abandoned	-7559
▁harmdoers	-7560
▁organised	-7561
▁succession	-7562
▁vegetation	-7563
▁appointment	-7564
▁Chhattisgarh	-7565
CO	-7566
OS	-7567
oz	-7568
iva	-7569
ori	-7570
tes	-7571
ocks	-7572
ooth	-7573
▁Leg	-7574
▁Mat	-7575
force	-7576
▁Shri	-7577
▁disd	-7578
▁drew	-7579
▁meat	-7580
asions	-7581
perial	-7582
rained	-7583
▁2009.	-7584
▁Gupta	-7585
▁clubs	-7586
▁minds	-7587
▁penit	-7588
▁Mysore	-7589
▁Winter	-7590
▁assemb	-7591
▁select	-7592
▁theory	-7593
▁volunt	-7594
▁founder	-7595
▁outcome	-7596
▁overall	-7597
▁proceed	-7598
▁prolong	-7599
▁trading	-7600
▁typical	-7601
▁bacteria	-7602
▁humility	-7603
▁internet	-7604
▁overwhel	-7605
▁payments	-7606
▁concerned	-7607
▁ornaments	-7608
▁waterfall	-7609
▁facilities	-7610
▁opposition	-7611
15	-7612
OW	-7613
fo	-7614
asy	-7615
bal	-7616
uja	-7617
▁5,	-7618
▁Bu	-7619
▁Jo	-7620
▁ma	-7621
anga	-7622
cers	-7623
gana	-7624
play	-7625
▁Bus	-7626
▁Rad	-7627
▁Rev	-7628
▁nav	-7629
ospel	-7630
▁2004	-7631
▁Cost	-7632
▁Meet	-7633
▁Rome	-7634
▁Sher	-7635
▁cert	-7636
regard	-7637
▁2016.	-7638
▁Light	-7639
▁Patel	-7640
▁drown	-7641
▁grass	-7642
avaskar	-7643
ossible	-7644
utation	-7645
▁Buddha	-7646
▁George	-7647
▁hatred	-7648
▁shares	-7649
▁Develop	-7650
▁Punjabi	-7651
▁burdens	-7652
▁greatly	-7653
▁periods	-7654
▁prepare	-7655
▁stadium	-7656
▁dreadful	-7657
▁generous	-7658
▁imprison	-7659
▁miracles	-7660
▁requited	-7661
▁Following	-7662
▁conducted	-7663
▁everlasting	-7664
▁agricultural	-7665
CA	-7666
gl	-7667
▁UK	-7668
▁gy	-7669
good	-7670
omas	-7671
▁ere	-7672
▁glo	-7673
▁hyd	-7674
▁ton	-7675
akesh	-7676
itors	-7677
▁Hill	-7678
▁Show	-7679
▁clar	-7680
▁depr	-7681
▁diet	-7682
▁jobs	-7683
▁load	-7684
▁pron	-7685
▁wand	-7686
▁2007.	-7687
▁Being	-7688
▁Could	-7689
▁Music	-7690
▁Royal	-7691
▁Spain	-7692
▁bears	-7693
▁consp	-7694
▁dealt	-7695
▁dress	-7696
▁expel	-7697
▁nerve	-7698
▁sword	-7699
▁tries	-7700
mankind	-7701
▁relief	-7702
▁rescue	-7703
▁ruined	-7704
▁window	-7705
▁Further	-7706
▁Godwary	-7707
▁Narayan	-7708
▁Worship	-7709
▁borders	-7710
▁dischar	-7711
▁freedom	-7712
▁guideth	-7713
▁victims	-7714
▁instance	-7715
▁overtook	-7716
▁repeated	-7717
▁unlawful	-7718
▁dangerous	-7719
▁interview	-7720
▁materials	-7721
▁experienced	-7722
▁consequences	-7723
▁distribution	-7724
▁participated	-7725
lamm	-7726
load	-7727
▁188	-7728
▁Cam	-7729
▁Kis	-7730
▁Mac	-7731
▁Nat	-7732
▁Ten	-7733
▁Tim	-7734
▁dut	-7735
craft	-7736
osing	-7737
which	-7738
▁Kent	-7739
▁asse	-7740
▁loud	-7741
▁wary	-7742
Mighty	-7743
▁Ghats	-7744
▁avert	-7745
▁Pandya	-7746
▁beware	-7747
▁lowest	-7748
▁motion	-7749
inations	-7750
standing	-7751
▁Spanish	-7752
▁bearing	-7753
▁dollars	-7754
▁involve	-7755
▁maximum	-7756
▁wearing	-7757
▁weekend	-7758
▁Gavaskar	-7759
▁proposed	-7760
▁hurricane	-7761
▁travelled	-7762
▁operations	-7763
▁supporting	-7764
▁responsibility	-7765
ef	-7766
Now	-7767
kha	-7768
▁DS	-7769
Hell	-7770
eral	-7771
▁Kas	-7772
▁Mas	-7773
acart	-7774
erate	-7775
isted	-7776
using	-7777
▁batt	-7778
▁coin	-7779
▁nose	-7780
▁root	-7781
enture	-7782
▁compr	-7783
▁graph	-7784
▁weigh	-7785
▁actual	-7786
▁bigger	-7787
▁mental	-7788
▁refuse	-7789
▁Periyar	-7790
▁Profess	-7791
▁annuity	-7792
▁captain	-7793
▁mindful	-7794
▁politic	-7795
▁underst	-7796
▁Everyone	-7797
▁expelled	-7798
▁predomin	-7799
▁requires	-7800
▁documents	-7801
▁Republican	-7802
▁classified	-7803
▁industries	-7804
▁settlement	-7805
90	-7806
▁]	-7807
can	-7808
hai	-7809
opy	-7810
pad	-7811
▁4.	-7812
▁HA	-7813
ache	-7814
athy	-7815
bath	-7816
haji	-7817
otes	-7818
reth	-7819
▁CIA	-7820
▁Nam	-7821
▁Own	-7822
▁Tak	-7823
▁Tok	-7824
▁pha	-7825
agers	-7826
ahman	-7827
akkah	-7828
arman	-7829
dened	-7830
ierce	-7831
itely	-7832
tedly	-7833
▁Bhag	-7834
▁user	-7835
▁basis	-7836
▁elder	-7837
▁fewer	-7838
▁grave	-7839
▁meets	-7840
▁monks	-7841
▁scoff	-7842
▁afford	-7843
▁devour	-7844
▁poster	-7845
oubtedly	-7846
▁divorce	-7847
▁fearful	-7848
▁heavily	-7849
▁largely	-7850
▁warners	-7851
▁conflict	-7852
▁producer	-7853
▁neglected	-7854
▁earthquake	-7855
▁entertainment	-7856
:0	-7857
ua	-7858
jin	-7859
pre	-7860
▁Py	-7861
ayun	-7862
uing	-7863
▁Kad	-7864
▁adj	-7865
▁anx	-7866
▁bin	-7867
▁wet	-7868
angle	-7869
khand	-7870
▁Hist	-7871
▁Mass	-7872
▁Sant	-7873
▁ingr	-7874
▁meas	-7875
▁mode	-7876
▁synt	-7877
▁trip	-7878
▁White	-7879
▁rocks	-7880
▁satan	-7881
▁swine	-7882
▁thick	-7883
ificial	-7884
osphere	-7885
▁Turner	-7886
▁Yaksha	-7887
▁assume	-7888
▁hospit	-7889
▁selves	-7890
heastern	-7891
▁Angeles	-7892
▁blazing	-7893
▁contend	-7894
▁devices	-7895
▁humbled	-7896
▁testing	-7897
▁arranged	-7898
▁kingdoms	-7899
▁pregnant	-7900
▁superior	-7901
▁Instacart	-7902
▁conquered	-7903
▁nominated	-7904
▁spreading	-7905
uberculosis	-7906
▁protectors	-7907
▁tournaments	-7908
uda	-7909
▁Sk	-7910
alks	-7911
hael	-7912
half	-7913
some	-7914
suit	-7915
▁Rat	-7916
▁rom	-7917
▁wra	-7918
▁Self	-7919
▁Time	-7920
▁cruc	-7921
▁onto	-7922
idance	-7923
▁Prith	-7924
▁Water	-7925
▁eager	-7926
▁novel	-7927
▁seeks	-7928
▁sland	-7929
▁wombs	-7930
ivalent	-7931
ounding	-7932
▁Firaun	-7933
▁actors	-7934
▁angles	-7935
▁colors	-7936
▁explan	-7937
▁murder	-7938
▁powers	-7939
▁scheme	-7940
▁stream	-7941
▁writer	-7942
language	-7943
▁Chicago	-7944
▁Therein	-7945
▁abandon	-7946
▁adorned	-7947
▁spouses	-7948
▁wedding	-7949
▁Virginia	-7950
▁articles	-7951
▁disclose	-7952
▁suffices	-7953
▁adversity	-7954
▁literally	-7955
▁Companions	-7956
▁altogether	-7957
▁infections	-7958
▁application	-7959
▁interesting	-7960
▁disobedience	-7961
no	-7962
equ	-7963
ipu	-7964
joy	-7965
hank	-7966
umps	-7967
▁Aye	-7968
▁Cap	-7969
▁Tul	-7970
ivest	-7971
▁abst	-7972
▁acid	-7973
▁atom	-7974
▁coal	-7975
▁pill	-7976
▁rope	-7977
▁salt	-7978
▁semi	-7979
fortun	-7980
▁2006.	-7981
▁Ambed	-7982
▁Caves	-7983
▁Franc	-7984
▁Sanct	-7985
▁empty	-7986
verning	-7987
western	-7988
▁Haasan	-7989
▁Senate	-7990
▁Verses	-7991
▁adding	-7992
▁corner	-7993
▁giveth	-7994
▁headed	-7995
▁justly	-7996
▁ranges	-7997
▁Indians	-7998
▁arrives	-7999
▁coastal	-8000
▁compens	-8001
▁council	-8002
▁revenge	-8003
▁suicide	-8004
▁detailed	-8005
▁featured	-8006
▁normally	-8007
▁overtake	-8008
▁shameful	-8009
▁Americans	-8010
▁Himalayas	-8011
▁discourse	-8012
▁indecency	-8013
▁relatively	-8014
sc	-8015
eem	-8016
hus	-8017
mia	-8018
▁Wi	-8019
anam	-8020
attu	-8021
hort	-8022
▁Naw	-8023
▁Sul	-8024
▁flo	-8025
▁kit	-8026
apore	-8027
itage	-8028
▁Help	-8029
▁peak	-8030
▁rose	-8031
alysis	-8032
itting	-8033
▁Cause	-8034
▁adopt	-8035
▁flour	-8036
▁haven	-8037
▁hopes	-8038
▁hyper	-8039
▁iniqu	-8040
▁sixth	-8041
▁solid	-8042
respond	-8043
▁Master	-8044
▁bitter	-8045
▁bronze	-8046
▁collap	-8047
▁divine	-8048
▁hunger	-8049
▁passes	-8050
▁remote	-8051
▁winner	-8052
▁wouldn	-8053
▁Railway	-8054
▁arrange	-8055
▁contest	-8056
▁damaged	-8057
▁journal	-8058
▁attached	-8059
▁attained	-8060
▁concentr	-8061
▁confused	-8062
▁medicine	-8063
▁promoted	-8064
▁thoughts	-8065
▁treasure	-8066
▁disregard	-8067
▁resulting	-8068
▁prostrating	-8069
▁strengthened	-8070
)?"	-8071
ths	-8072
too	-8073
win	-8074
▁vo	-8075
▁AND	-8076
▁Bor	-8077
▁GET	-8078
▁Sah	-8079
▁Use	-8080
▁fro	-8081
▁Alam	-8082
▁Prat	-8083
▁lots	-8084
▁murd	-8085
▁orig	-8086
▁ring	-8087
▁wins	-8088
▁Again	-8089
▁Chitt	-8090
▁Nizam	-8091
▁Queen	-8092
▁apply	-8093
▁stuff	-8094
adition	-8095
▁Bounty	-8096
▁adults	-8097
▁combat	-8098
▁factor	-8099
▁missed	-8100
▁visual	-8101
▁Service	-8102
▁defined	-8103
▁sendeth	-8104
▁strikes	-8105
▁Ambedkar	-8106
▁competed	-8107
▁innocent	-8108
▁gradually	-8109
▁businesses	-8110
▁restaurant	-8111
▁transgressed	-8112
,’	-8113
ias	-8114
imb	-8115
urt	-8116
▁2:	-8117
wing	-8118
▁Gan	-8119
▁row	-8120
▁spo	-8121
▁tim	-8122
▁ven	-8123
ooker	-8124
▁Bach	-8125
▁Main	-8126
▁Mont	-8127
▁Move	-8128
▁Rama	-8129
▁Sank	-8130
▁Stud	-8131
▁blow	-8132
▁devi	-8133
▁dies	-8134
▁swim	-8135
istani	-8136
omatic	-8137
▁camel	-8138
▁fount	-8139
▁gains	-8140
▁joint	-8141
▁liber	-8142
▁plead	-8143
▁rains	-8144
▁saith	-8145
akeshin	-8146
igenous	-8147
▁Vikram	-8148
▁beasts	-8149
▁enters	-8150
▁grants	-8151
▁infant	-8152
▁linked	-8153
▁merely	-8154
▁scales	-8155
▁scared	-8156
▁united	-8157
▁Belgian	-8158
▁Michael	-8159
▁decides	-8160
▁excuses	-8161
▁streets	-8162
▁welcome	-8163
▁Majestic	-8164
▁Southern	-8165
▁citizens	-8166
▁medieval	-8167
▁receives	-8168
▁suggests	-8169
▁tourists	-8170
▁essential	-8171
▁operation	-8172
▁Yakshagana	-8173
▁difficulty	-8174
▁scriptures	-8175
▁distributed	-8176
▁electricity	-8177
erg	-8178
rik	-8179
ador	-8180
itra	-8181
jeel	-8182
pent	-8183
roll	-8184
tock	-8185
▁Bav	-8186
▁Das	-8187
▁Vid	-8188
5,000	-8189
agiri	-8190
otent	-8191
pless	-8192
▁2002	-8193
▁2003	-8194
▁Chop	-8195
▁isol	-8196
▁mans	-8197
▁nigg	-8198
▁syph	-8199
before	-8200
▁2009,	-8201
▁Think	-8202
▁goalk	-8203
▁harsh	-8204
▁loved	-8205
▁rebel	-8206
▁simpl	-8207
▁tight	-8208
▁camera	-8209
▁client	-8210
▁coffee	-8211
▁pearls	-8212
▁retail	-8213
▁riches	-8214
quainted	-8215
▁Humayun	-8216
▁dislike	-8217
▁engaged	-8218
▁figures	-8219
▁methods	-8220
▁opinion	-8221
▁watches	-8222
▁Nagaland	-8223
▁Singapore	-8224
▁Thereupon	-8225
▁immediate	-8226
▁yesterday	-8227
▁Pulakeshin	-8228
▁approached	-8229
▁foundation	-8230
▁combination	-8231
▁instruments	-8232
▁Chandragupta	-8233
FL	-8234
Le	-8235
▁CO	-8236
▁HI	-8237
▁Hu	-8238
aras	-8239
otic	-8240
udra	-8241
▁150	-8242
▁Boe	-8243
eeper	-8244
eless	-8245
▁Pune	-8246
▁Star	-8247
▁rehe	-8248
▁weep	-8249
anches	-8250
uesday	-8251
▁Tokyo	-8252
▁rival	-8253
▁stern	-8254
▁tools	-8255
▁charit	-8256
▁divers	-8257
▁flying	-8258
▁averted	-8259
▁crooked	-8260
▁earning	-8261
▁endowed	-8262
▁existed	-8263
▁mistake	-8264
▁protest	-8265
▁selling	-8266
▁Heritage	-8267
▁Province	-8268
▁anywhere	-8269
▁greeting	-8270
▁identify	-8271
▁pictures	-8272
▁Represent	-8273
▁convinced	-8274
▁knowingly	-8275
▁southeast	-8276
▁possession	-8277
▁proclaimed	-8278
▁provisions	-8279
▁represents	-8280
▁constitution	-8281
▁communication	-8282
▁traditionally	-8283
13	-8284
km	-8285
och	-8286
▁45	-8287
iffe	-8288
igan	-8289
rast	-8290
stri	-8291
▁Bed	-8292
▁Ire	-8293
▁Jon	-8294
▁Kir	-8295
▁Ros	-8296
Would	-8297
azine	-8298
cends	-8299
▁Bell	-8300
▁Kolk	-8301
▁News	-8302
▁Sovi	-8303
▁THAT	-8304
▁mild	-8305
▁perf	-8306
iminal	-8307
oughly	-8308
unning	-8309
▁Arabs	-8310
▁Bandy	-8311
▁Padma	-8312
▁chest	-8313
▁paint	-8314
▁paths	-8315
▁waves	-8316
▁arrive	-8317
▁gentle	-8318
▁medals	-8319
▁seemed	-8320
▁thinks	-8321
▁Ireland	-8322
▁Tuesday	-8323
▁distant	-8324
▁farmers	-8325
▁fearing	-8326
▁herself	-8327
▁install	-8328
▁niggard	-8329
▁stretch	-8330
▁Independ	-8331
▁breaking	-8332
▁colonial	-8333
▁historic	-8334
▁township	-8335
▁oppressed	-8336
▁purchased	-8337
▁residence	-8338
▁resistance	-8339
▁understood	-8340
▁conversation	-8341
]?	-8342
▁32	-8343
▁FC	-8344
ilst	-8345
wari	-8346
▁Ele	-8347
▁rub	-8348
▁vic	-8349
iland	-8350
▁anti	-8351
▁arms	-8352
▁gang	-8353
▁slew	-8354
▁zone	-8355
▁Class	-8356
▁Whoso	-8357
▁skill	-8358
▁thine	-8359
mendous	-8360
▁claims	-8361
▁ensure	-8362
▁hinder	-8363
▁serves	-8364
▁smooth	-8365
▁tissue	-8366
▁fortune	-8367
▁highway	-8368
▁miracle	-8369
▁tarried	-8370
▁Research	-8371
▁commemor	-8372
▁invasion	-8373
▁measures	-8374
▁overseas	-8375
▁solution	-8376
▁Assuredly	-8377
▁Himalayan	-8378
▁lightened	-8379
▁basketball	-8380
▁substitute	-8381
▁tremendous	-8382
▁achievement	-8383
▁instructions	-8384
AC	-8385
On	-8386
nis	-8387
oni	-8388
ulp	-8389
ums	-8390
▁NH	-8391
▁Ty	-8392
▁ri	-8393
Noah	-8394
abar	-8395
anth	-8396
lock	-8397
umin	-8398
▁Kol	-8399
▁Nas	-8400
▁Old	-8401
▁Ris	-8402
▁Rob	-8403
▁upd	-8404
avour	-8405
overy	-8406
track	-8407
▁Tipu	-8408
▁heir	-8409
▁liqu	-8410
▁tool	-8411
Joseph	-8412
aputra	-8413
▁Ocean	-8414
▁Owner	-8415
▁Tommy	-8416
▁advoc	-8417
▁awful	-8418
▁embra	-8419
▁repro	-8420
▁sects	-8421
▁spons	-8422
▁truck	-8423
atitude	-8424
related	-8425
ructure	-8426
vention	-8427
▁blocks	-8428
▁ethnic	-8429
▁faster	-8430
▁speaks	-8431
atically	-8432
▁Kolkata	-8433
▁amounts	-8434
▁classes	-8435
▁decades	-8436
▁envelop	-8437
▁guarded	-8438
▁opposed	-8439
▁Malaysia	-8440
▁apparent	-8441
▁birthday	-8442
▁interced	-8443
▁occupied	-8444
▁produces	-8445
▁syphilis	-8446
▁Sanctuary	-8447
▁conscious	-8448
▁elephants	-8449
▁installed	-8450
▁lightning	-8451
▁assistance	-8452
▁celebrations	-8453
PN	-8454
mm	-8455
cca	-8456
mun	-8457
ona	-8458
oty	-8459
spe	-8460
▁8,	-8461
▁CA	-8462
▁Ek	-8463
akar	-8464
atab	-8465
ndan	-8466
ront	-8467
vant	-8468
▁12,	-8469
▁Sad	-8470
▁Squ	-8471
▁ast	-8472
▁pit	-8473
achal	-8474
ategy	-8475
ayana	-8476
erson	-8477
▁Cham	-8478
▁FIFA	-8479
▁barg	-8480
▁cows	-8481
▁dial	-8482
▁jail	-8483
▁kite	-8484
▁lamp	-8485
▁veil	-8486
▁worn	-8487
Muslim	-8488
▁2022,	-8489
▁Remem	-8490
▁alleg	-8491
▁alter	-8492
▁conte	-8493
▁doors	-8494
▁frame	-8495
▁labor	-8496
▁sheep	-8497
▁sperm	-8498
▁upset	-8499
▁Around	-8500
▁consol	-8501
▁crimes	-8502
▁loveth	-8503
▁disdain	-8504
▁federal	-8505
▁rescued	-8506
▁revenue	-8507
▁watched	-8508
▁Director	-8509
▁branches	-8510
▁certainty	-8511
▁describes	-8512
▁municipal	-8513
▁southwest	-8514
▁university	-8515
▁appropriate	-8516
▁surrendered	-8517
Let	-8518
aved	-8519
hans	-8520
lers	-8521
▁Att	-8522
▁Sud	-8523
▁Suk	-8524
ccess	-8525
▁Eden	-8526
▁Scot	-8527
▁fees	-8528
▁impl	-8529
▁lets	-8530
formed	-8531
itudes	-8532
▁Check	-8533
▁Falls	-8534
▁Rober	-8535
▁click	-8536
▁laden	-8537
▁metal	-8538
▁palms	-8539
▁tread	-8540
▁Chopra	-8541
▁Golden	-8542
▁Health	-8543
▁Maryam	-8544
▁Record	-8545
▁carved	-8546
▁devout	-8547
▁emphas	-8548
▁fright	-8549
▁relate	-8550
▁Between	-8551
▁letters	-8552
▁objects	-8553
▁Prithvir	-8554
▁annually	-8555
▁deceived	-8556
▁insolent	-8557
▁purposes	-8558
▁strategy	-8559
▁Sultanate	-8560
▁Tradition	-8561
▁adornment	-8562
▁decisions	-8563
▁diagnosis	-8564
▁governing	-8565
▁opponents	-8566
▁practices	-8567
▁willingly	-8568
▁committing	-8569
▁constantly	-8570
▁containing	-8571
▁correspond	-8572
▁interested	-8573
▁Remembrance	-8574
▁trustworthy	-8575
.,	-8576
5%	-8577
99	-8578
:)	-8579
Par	-8580
afi	-8581
hag	-8582
▁Ca	-8583
Take	-8584
asse	-8585
lete	-8586
outs	-8587
rupt	-8588
uten	-8589
▁Mem	-8590
▁cab	-8591
agger	-8592
aints	-8593
▁Five	-8594
▁Hold	-8595
▁Mela	-8596
▁alle	-8597
urning	-8598
▁2000.	-8599
▁Alone	-8600
▁disag	-8601
▁likes	-8602
▁church	-8603
▁finger	-8604
▁merged	-8605
▁models	-8606
▁tasted	-8607
▁Messiah	-8608
▁arrival	-8609
▁chronic	-8610
▁compete	-8611
▁legends	-8612
▁requite	-8613
▁warrant	-8614
▁Bachchan	-8615
▁ascribed	-8616
▁circumst	-8617
▁critical	-8618
▁divorced	-8619
▁paradise	-8620
▁Christmas	-8621
▁Protector	-8622
▁afternoon	-8623
▁intention	-8624
▁specified	-8625
▁tributary	-8626
▁equivalent	-8627
▁prostrated	-8628
11	-8629
aug	-8630
lor	-8631
top	-8632
was	-8633
▁6,	-8634
agon	-8635
ivas	-8636
▁Den	-8637
▁Pil	-8638
▁Pud	-8639
aurat	-8640
endra	-8641
gener	-8642
herry	-8643
iture	-8644
▁Rang	-8645
▁Stan	-8646
▁busy	-8647
▁keys	-8648
▁raga	-8649
▁Civil	-8650
▁Early	-8651
▁Treat	-8652
▁agent	-8653
▁compe	-8654
▁dated	-8655
▁heirs	-8656
▁obeys	-8657
▁slope	-8658
▁Office	-8659
▁behalf	-8660
▁sounds	-8661
▁walked	-8662
▁Jainism	-8663
▁Trumpet	-8664
▁William	-8665
▁accused	-8666
▁obvious	-8667
▁origins	-8668
▁Manipuri	-8669
▁Powerful	-8670
▁athletes	-8671
▁mentions	-8672
▁neighbor	-8673
▁obtained	-8674
▁possibly	-8675
▁rebelled	-8676
▁withdrew	-8677
▁diagnosed	-8678
▁fabricate	-8679
▁sanctuary	-8680
▁attributed	-8681
▁parliament	-8682
▁performing	-8683
▁prohibited	-8684
▁wrongfully	-8685
▁organizations	-8686
▁transgressing	-8687
Eat	-8688
arm	-8689
jan	-8690
kin	-8691
sal	-8692
sha	-8693
▁IF	-8694
care	-8695
iche	-8696
when	-8697
word	-8698
▁Dad	-8699
▁Kun	-8700
▁Pet	-8701
▁Sep	-8702
▁tea	-8703
▁tot	-8704
alore	-8705
ersed	-8706
umber	-8707
▁Mich	-8708
▁Pass	-8709
▁Sind	-8710
▁cart	-8711
▁epis	-8712
▁shar	-8713
ifting	-8714
onents	-8715
▁2005,	-8716
▁Blaze	-8717
▁Haman	-8718
▁crore	-8719
▁guile	-8720
▁hence	-8721
▁incur	-8722
▁ordin	-8723
▁shots	-8724
▁woods	-8725
pending	-8726
▁Soviet	-8727
▁advert	-8728
▁blamed	-8729
▁copper	-8730
▁courts	-8731
▁drinks	-8732
▁exhort	-8733
▁nobles	-8734
▁rained	-8735
▁repeat	-8736
▁Georgia	-8737
▁Similar	-8738
▁affects	-8739
▁battles	-8740
▁capture	-8741
▁fasting	-8742
▁seventh	-8743
▁squared	-8744
▁tourism	-8745
▁trained	-8746
▁vehicle	-8747
▁attended	-8748
▁overlook	-8749
▁Alexander	-8750
▁Argentina	-8751
▁condemned	-8752
▁extensive	-8753
▁pregnancy	-8754
▁responded	-8755
▁conjecture	-8756
▁maintained	-8757
▁multiplied	-8758
▁explanation	-8759
!)	-8760
TA	-8761
acu	-8762
pha	-8763
urb	-8764
ashi	-8765
cell	-8766
chay	-8767
fell	-8768
ieth	-8769
mity	-8770
onom	-8771
▁15,	-8772
▁187	-8773
▁Kut	-8774
▁Som	-8775
ivate	-8776
▁Area	-8777
▁Narm	-8778
▁Near	-8779
▁Panc	-8780
▁roof	-8781
▁wast	-8782
hology	-8783
▁Latin	-8784
▁Trust	-8785
▁accum	-8786
▁brace	-8787
▁exult	-8788
▁flame	-8789
▁giant	-8790
▁overs	-8791
ervient	-8792
▁Jewish	-8793
▁Sanjay	-8794
▁Taurat	-8795
▁artist	-8796
▁befell	-8797
▁deeply	-8798
▁ending	-8799
▁ponder	-8800
▁repaid	-8801
▁videos	-8802
▁Express	-8803
▁consume	-8804
▁infrast	-8805
▁strateg	-8806
▁favorite	-8807
▁treacher	-8808
▁Secretary	-8809
▁bewitched	-8810
▁everybody	-8811
▁intellect	-8812
▁neighbour	-8813
▁niggardly	-8814
▁permanent	-8815
▁friendship	-8816
▁Development	-8817
▁composition	-8818
▁exclusively	-8819
▁subservient	-8820
▁worshippers	-8821
oph	-8822
run	-8823
achi	-8824
into	-8825
nels	-8826
onia	-8827
reet	-8828
rise	-8829
uter	-8830
▁Dan	-8831
▁Kat	-8832
▁Kon	-8833
▁asp	-8834
▁din	-8835
abled	-8836
house	-8837
ileth	-8838
organ	-8839
ribes	-8840
▁1996	-8841
▁Dutt	-8842
▁Left	-8843
▁pool	-8844
▁scan	-8845
aratri	-8846
boxing	-8847
iments	-8848
▁Event	-8849
▁democ	-8850
▁eaten	-8851
▁phase	-8852
▁retin	-8853
ocation	-8854
▁Mahara	-8855
▁slowly	-8856
▁strict	-8857
▁wander	-8858
▁Kabaddi	-8859
▁Premier	-8860
▁Sabbath	-8861
▁Through	-8862
▁applied	-8863
▁drawing	-8864
▁inflamm	-8865
▁plotted	-8866
▁rituals	-8867
▁Michigan	-8868
▁bringeth	-8869
▁disputes	-8870
▁shipping	-8871
▁slightly	-8872
▁arrogance	-8873
▁challenge	-8874
▁Democratic	-8875
▁protecting	-8876
▁soundtrack	-8877
▁institutions	-8878
33	-8879
EA	-8880
bro	-8881
fts	-8882
mad	-8883
rah	-8884
usp	-8885
▁9,	-8886
▁UP	-8887
alat	-8888
star	-8889
weep	-8890
▁Hol	-8891
▁les	-8892
▁ske	-8893
aiman	-8894
▁Arch	-8895
▁Tugh	-8896
▁Wild	-8897
▁conc	-8898
▁cris	-8899
▁degr	-8900
▁ende	-8901
ounced	-8902
strung	-8903
▁Khand	-8904
▁revol	-8905
▁Madras	-8906
▁herein	-8907
▁ignore	-8908
▁voices	-8909
ervation	-8910
▁Brendan	-8911
▁Network	-8912
▁Usually	-8913
▁caravan	-8914
▁chooses	-8915
▁foolish	-8916
▁helping	-8917
▁longest	-8918
▁minimum	-8919
▁scatter	-8920
▁Consider	-8921
▁employee	-8922
▁preserve	-8923
▁visiting	-8924
▁Bangalore	-8925
▁profession	-8926
▁comfortable	-8927
▁programming	-8928
▁prostration	-8929
orf	-8930
uma	-8931
▁AS	-8932
▁Sn	-8933
azon	-8934
okes	-8935
onic	-8936
umes	-8937
▁Fam	-8938
▁rad	-8939
acted	-8940
ental	-8941
trees	-8942
▁Alas	-8943
▁Mang	-8944
▁Polo	-8945
▁Rani	-8946
▁Ravi	-8947
▁Tour	-8948
▁dipl	-8949
▁hind	-8950
▁unex	-8951
▁unus	-8952
▁vote	-8953
ickets	-8954
upuzha	-8955
▁Count	-8956
▁Recom	-8957
▁absor	-8958
▁bills	-8959
▁foods	-8960
▁ocean	-8961
▁ulcer	-8962
▁walks	-8963
ringeri	-8964
▁Econom	-8965
▁mosque	-8966
▁poetry	-8967
▁titles	-8968
▁Narmada	-8969
▁aspects	-8970
▁dancers	-8971
▁deserve	-8972
▁discipl	-8973
▁dropped	-8974
▁honored	-8975
▁innings	-8976
▁intends	-8977
▁offices	-8978
▁package	-8979
▁revives	-8980
▁theatre	-8981
▁Thailand	-8982
▁fighters	-8983
▁merchand	-8984
▁mosquito	-8985
▁outbreak	-8986
▁publicly	-8987
▁converted	-8988
▁disciples	-8989
▁functions	-8990
▁Revolution	-8991
▁Sufficient	-8992
▁recognised	-8993
▁accompanied	-8994
▁neighbouring	-8995
▁tuberculosis	-8996
?-	-8997
EC	-8998
dy	-8999
]."	-9000
dev	-9001
eks	-9002
kan	-9003
liv	-9004
uct	-9005
▁SC	-9006
▁TB	-9007
▁od	-9008
Call	-9009
illi	-9010
seem	-9011
▁Beg	-9012
▁Got	-9013
▁Imp	-9014
▁Int	-9015
▁Lal	-9016
▁Nir	-9017
▁Pac	-9018
▁Saf	-9019
▁Six	-9020
▁mor	-9021
ifted	-9022
ishop	-9023
pends	-9024
quest	-9025
▁1999	-9026
▁Capt	-9027
▁Vish	-9028
▁exem	-9029
▁gras	-9030
▁guns	-9031
▁nerv	-9032
▁quit	-9033
achari	-9034
▁2004.	-9035
▁Apart	-9036
▁delic	-9037
▁hoard	-9038
▁newly	-9039
▁warri	-9040
▁wings	-9041
▁Columb	-9042
▁Lahore	-9043
▁Wisdom	-9044
▁expert	-9045
▁hoping	-9046
▁lawyer	-9047
▁rating	-9048
▁surety	-9049
▁weapon	-9050
▁Besides	-9051
▁advised	-9052
▁closely	-9053
▁dialect	-9054
▁fellows	-9055
▁suppose	-9056
▁symbols	-9057
▁trumpet	-9058
▁Forgiver	-9059
▁Guidance	-9060
▁ridicule	-9061
▁Pakistani	-9062
▁regularly	-9063
▁supporter	-9064
▁Punishment	-9065
▁goalkeeper	-9066
▁instrument	-9067
▁membership	-9068
▁governments	-9069
▁circumstances	-9070
▁infrastructure	-9071
EL	-9072
Him	-9073
Rem	-9074
ady	-9075
vag	-9076
▁ax	-9077
gram	-9078
hent	-9079
hoid	-9080
mind	-9081
▁176	-9082
▁Abd	-9083
▁Bru	-9084
▁Kha	-9085
▁Yea	-9086
orial	-9087
otton	-9088
ously	-9089
▁Amar	-9090
▁Kang	-9091
▁Naga	-9092
▁Penn	-9093
▁Pong	-9094
▁Pray	-9095
▁Send	-9096
▁Writ	-9097
▁calm	-9098
▁cord	-9099
▁frog	-9100
▁pigs	-9101
▁pour	-9102
ansion	-9103
istics	-9104
▁Chera	-9105
▁Domin	-9106
▁Firon	-9107
▁Human	-9108
▁Malik	-9109
▁Organ	-9110
▁cough	-9111
▁drove	-9112
▁smart	-9113
▁tears	-9114
▁usual	-9115
▁deemed	-9116
▁eleven	-9117
▁immort	-9118
▁misled	-9119
▁progen	-9120
▁routes	-9121
▁thirty	-9122
▁tribal	-9123
Paradise	-9124
▁Bavaria	-9125
▁Francis	-9126
▁Richard	-9127
▁Shankar	-9128
▁Thamood	-9129
▁airline	-9130
▁assault	-9131
▁genetic	-9132
▁healthy	-9133
▁impress	-9134
▁locally	-9135
▁nervous	-9136
▁session	-9137
▁slaught	-9138
▁Sringeri	-9139
▁existing	-9140
▁incorpor	-9141
▁presents	-9142
ographical	-9143
▁disorders	-9144
▁hamstrung	-9145
▁inheritors	-9146
▁distinction	-9147
▁humiliation	-9148
▁disappointed	-9149
22	-9150
Pro	-9151
lla	-9152
oul	-9153
thi	-9154
tos	-9155
▁Ur	-9156
emia	-9157
iege	-9158
term	-9159
▁Dom	-9160
▁Gop	-9161
▁Ins	-9162
▁Ont	-9163
▁Pay	-9164
▁map	-9165
alymp	-9166
iliar	-9167
ropol	-9168
▁Doom	-9169
▁Full	-9170
▁Kong	-9171
▁exha	-9172
▁push	-9173
▁rows	-9174
makers	-9175
ousing	-9176
▁Carol	-9177
▁Found	-9178
▁begun	-9179
▁exhib	-9180
▁march	-9181
▁shift	-9182
▁smell	-9183
▁Commun	-9184
▁Herald	-9185
▁Public	-9186
▁Reckon	-9187
▁Series	-9188
▁Thomas	-9189
▁denial	-9190
▁elabor	-9191
▁silent	-9192
▁Charles	-9193
▁Ontario	-9194
▁flights	-9195
▁keepers	-9196
▁muscles	-9197
▁submiss	-9198
▁succour	-9199
▁Addition	-9200
▁Paralymp	-9201
▁Proclaim	-9202
▁allowing	-9203
▁attempts	-9204
▁concerns	-9205
▁conveyed	-9206
▁exposure	-9207
▁extravag	-9208
▁favoured	-9209
▁flooding	-9210
▁hardened	-9211
▁listened	-9212
▁websites	-9213
▁belonging	-9214
▁expressed	-9215
▁rejoicing	-9216
▁secondary	-9217
▁distressed	-9218
▁indigenous	-9219
▁newspapers	-9220
▁undoubtedly	-9221
';	-9222
14	-9223
26	-9224
LD	-9225
VER	-9226
qun	-9227
tor	-9228
var	-9229
▁Cz	-9230
▁Uh	-9231
▁Ve	-9232
amps	-9233
doer	-9234
hani	-9235
inga	-9236
ogue	-9237
racy	-9238
▁CEO	-9239
▁Hir	-9240
▁Tai	-9241
▁oxy	-9242
acked	-9243
atell	-9244
avati	-9245
brary	-9246
hetic	-9247
olley	-9248
ourge	-9249
pters	-9250
▁Conn	-9251
▁Line	-9252
▁Muse	-9253
▁Pesh	-9254
▁Yoga	-9255
▁Zika	-9256
▁muse	-9257
▁puts	-9258
▁rage	-9259
▁shit	-9260
▁ties	-9261
hangir	-9262
minute	-9263
▁2022.	-9264
▁Hello	-9265
▁Mirza	-9266
▁grows	-9267
▁kites	-9268
▁links	-9269
▁liver	-9270
▁marty	-9271
▁postp	-9272
▁quiet	-9273
▁swore	-9274
utenant	-9275
▁Author	-9276
▁Social	-9277
▁crisis	-9278
▁judged	-9279
▁lasted	-9280
▁pushed	-9281
▁Arabian	-9282
▁advisor	-9283
▁alleged	-9284
▁dancing	-9285
▁doctors	-9286
▁equally	-9287
▁fishing	-9288
▁leagues	-9289
▁nuclear	-9290
▁tribute	-9291
▁Victoria	-9292
▁behavior	-9293
▁consolid	-9294
▁devotees	-9295
▁policies	-9296
▁sorcerer	-9297
▁locations	-9298
▁marketing	-9299
▁persevere	-9300
▁recognise	-9301
▁Interstate	-9302
▁preference	-9303
▁supplement	-9304
▁Commonwealth	-9305
▁Constitution	-9306
▁significantly	-9307
▁representative	-9308
Sh	-9309
App	-9310
afs	-9311
azz	-9312
eta	-9313
jee	-9314
rak	-9315
uer	-9316
yam	-9317
▁ic	-9318
Alam	-9319
cons	-9320
oids	-9321
real	-9322
rons	-9323
▁175	-9324
▁Gha	-9325
▁III	-9326
▁Jos	-9327
▁Obs	-9328
▁fed	-9329
acent	-9330
agara	-9331
alpur	-9332
burgh	-9333
cutta	-9334
▁Agra	-9335
▁Chak	-9336
▁Init	-9337
▁Town	-9338
▁inqu	-9339
▁Coast	-9340
▁Czech	-9341
▁Ganga	-9342
▁Words	-9343
▁adapt	-9344
▁fifty	-9345
▁herit	-9346
▁inner	-9347
▁knock	-9348
▁solve	-9349
▁toile	-9350
▁trick	-9351
▁venge	-9352
▁Census	-9353
▁Living	-9354
▁Territ	-9355
▁chains	-9356
▁enmity	-9357
▁format	-9358
▁haught	-9359
▁immune	-9360
▁poured	-9361
▁preval	-9362
▁ranked	-9363
▁render	-9364
▁retali	-9365
▁server	-9366
▁shadow	-9367
▁Finland	-9368
▁assumed	-9369
▁binding	-9370
▁depends	-9371
▁polythe	-9372
▁precise	-9373
▁repents	-9374
▁suspend	-9375
▁Sulaiman	-9376
▁pleasing	-9377
▁vehicles	-9378
▁Indonesia	-9379
▁Everything	-9380
▁Prithviraj	-9381
▁commandment	-9382
▁encompassed	-9383
▁merchandise	-9384
▁tributaries	-9385
MA	-9386
aq	-9387
bb	-9388
AKE	-9389
OME	-9390
ews	-9391
isa	-9392
oda	-9393
ulk	-9394
▁MR	-9395
▁cu	-9396
anqu	-9397
azed	-9398
iana	-9399
ugby	-9400
uset	-9401
utta	-9402
▁183	-9403
▁Bir	-9404
▁Bow	-9405
▁Gov	-9406
▁Hen	-9407
▁Kur	-9408
▁Ven	-9409
▁Vin	-9410
▁vow	-9411
urned	-9412
▁1992	-9413
▁1998	-9414
▁Hung	-9415
▁Jean	-9416
▁clan	-9417
▁eggs	-9418
▁mand	-9419
▁stub	-9420
▁tied	-9421
▁urge	-9422
ancing	-9423
ective	-9424
▁1,000	-9425
▁Offic	-9426
▁Scott	-9427
▁deals	-9428
▁joins	-9429
▁shake	-9430
▁Amazon	-9431
▁adjust	-9432
▁appeal	-9433
▁assess	-9434
▁breath	-9435
▁pulled	-9436
▁whilst	-9437
ifferent	-9438
▁Ancient	-9439
▁Captain	-9440
▁delayed	-9441
▁deluded	-9442
▁markets	-9443
▁screens	-9444
▁worried	-9445
▁Calcutta	-9446
▁Scotland	-9447
▁criminal	-9448
▁cultures	-9449
▁enduring	-9450
▁lacrosse	-9451
▁merchant	-9452
▁millions	-9453
▁reaching	-9454
▁register	-9455
▁starring	-9456
▁assistant	-9457
▁bracelets	-9458
▁childhood	-9459
▁commander	-9460
▁defeating	-9461
▁scripture	-9462
▁wonderful	-9463
▁accordance	-9464
▁scientists	-9465
▁unexpected	-9466
▁participate	-9467
▁contemporary	-9468
▁subsequently	-9469
▁championships	-9470
19	-9471
DP	-9472
,..	-9473
bet	-9474
bra	-9475
due	-9476
iac	-9477
kti	-9478
upp	-9479
zen	-9480
▁IP	-9481
▁SH	-9482
aven	-9483
engu	-9484
mail	-9485
mate	-9486
onto	-9487
uced	-9488
▁Cry	-9489
▁Gir	-9490
▁Max	-9491
▁ate	-9492
▁dow	-9493
▁tap	-9494
▁tie	-9495
Belie	-9496
ancer	-9497
aning	-9498
graph	-9499
ithic	-9500
tends	-9501
▁Jhar	-9502
▁Khal	-9503
▁Much	-9504
▁Plan	-9505
▁Rana	-9506
▁Year	-9507
▁adul	-9508
▁foul	-9509
▁hole	-9510
▁mall	-9511
▁pace	-9512
acious	-9513
strate	-9514
▁Nawab	-9515
▁Often	-9516
▁crazy	-9517
▁trail	-9518
▁wound	-9519
oration	-9520
▁Gospel	-9521
▁Strong	-9522
▁abomin	-9523
▁assass	-9524
▁fairly	-9525
▁mayest	-9526
▁overth	-9527
▁proced	-9528
▁sequel	-9529
iliation	-9530
▁blindly	-9531
▁centres	-9532
▁doubled	-9533
▁element	-9534
▁forsake	-9535
▁promote	-9536
▁trusted	-9537
▁vessels	-9538
▁Kentucky	-9539
▁begotten	-9540
▁defender	-9541
▁entering	-9542
▁forgiven	-9543
▁sacrific	-9544
▁supports	-9545
▁therefor	-9546
▁afterward	-9547
▁monuments	-9548
▁satisfied	-9549
▁uncertain	-9550
▁Recompense	-9551
▁admonished	-9552
▁afflictive	-9553
▁comprehend	-9554
▁designated	-9555
▁expression	-9556
▁registered	-9557
▁Brahmaputra	-9558
▁engineering	-9559
▁Christianity	-9560
▁participants	-9561
18	-9562
GHT	-9563
See	-9564
gam	-9565
hmi	-9566
ikh	-9567
rec	-9568
rep	-9569
rum	-9570
ste	-9571
tho	-9572
fold	-9573
▁Big	-9574
▁Def	-9575
▁Exc	-9576
▁Pho	-9577
▁lux	-9578
asphe	-9579
being	-9580
erted	-9581
hibit	-9582
inals	-9583
ontin	-9584
phone	-9585
plete	-9586
ucing	-9587
yalty	-9588
▁Educ	-9589
▁Form	-9590
▁Glor	-9591
▁Lady	-9592
▁Land	-9593
▁Obey	-9594
▁cant	-9595
▁chat	-9596
▁gush	-9597
▁inev	-9598
▁intr	-9599
▁lock	-9600
▁wing	-9601
Alamin	-9602
ricted	-9603
rounds	-9604
usetts	-9605
▁balls	-9606
▁boast	-9607
▁prede	-9608
▁print	-9609
▁seest	-9610
▁shoes	-9611
▁tenth	-9612
ichever	-9613
vereign	-9614
▁Listen	-9615
▁Sharma	-9616
▁explos	-9617
▁medium	-9618
▁priest	-9619
▁purity	-9620
▁shaped	-9621
▁shield	-9622
▁thread	-9623
▁Nations	-9624
▁anymore	-9625
▁comment	-9626
▁commits	-9627
▁defense	-9628
▁intoxic	-9629
▁progeny	-9630
▁reveals	-9631
▁scourge	-9632
▁subdued	-9633
achusetts	-9634
formation	-9635
▁Jahangir	-9636
▁Sambhaji	-9637
▁antibiot	-9638
▁befriend	-9639
▁clinical	-9640
▁frequent	-9641
▁hastened	-9642
▁heritage	-9643
▁monaster	-9644
▁properly	-9645
▁survived	-9646
▁recording	-9647
▁seriously	-9648
▁somewhere	-9649
▁approaches	-9650
▁compassion	-9651
▁impossible	-9652
▁alternative	-9653
▁establishment	-9654
75	-9655
Ye	-9656
wo	-9657
Qur	-9658
irm	-9659
jug	-9660
uli	-9661
▁‘‘	-9662
bert	-9663
rene	-9664
ulam	-9665
▁Wow	-9666
▁nut	-9667
▁tyr	-9668
Islam	-9669
Salat	-9670
class	-9671
orney	-9672
udara	-9673
▁Camp	-9674
▁Cast	-9675
▁Dast	-9676
▁Kind	-9677
▁begu	-9678
▁core	-9679
▁edge	-9680
▁fart	-9681
▁shed	-9682
▁teen	-9683
▁thor	-9684
angels	-9685
encing	-9686
reated	-9687
▁1999,	-9688
▁2002.	-9689
▁2004,	-9690
▁Bahad	-9691
▁Kumbh	-9692
▁Range	-9693
▁afflu	-9694
▁datab	-9695
▁decis	-9696
▁groom	-9697
▁relax	-9698
▁talks	-9699
pleased	-9700
▁Theirs	-9701
▁abased	-9702
▁assert	-9703
▁conven	-9704
▁cooper	-9705
▁exchan	-9706
▁unlike	-9707
▁visits	-9708
▁Andaman	-9709
▁Players	-9710
▁Project	-9711
▁chapter	-9712
▁dealing	-9713
▁debuted	-9714
▁mosques	-9715
▁Chalukya	-9716
▁Facebook	-9717
▁belonged	-9718
▁reciting	-9719
▁requital	-9720
▁restrain	-9721
▁substant	-9722
▁subtract	-9723
▁discharge	-9724
▁predecess	-9725
▁provinces	-9726
▁Satavahana	-9727
▁encouraged	-9728
▁everywhere	-9729
▁populations	-9730
▁neighborhood	-9731
▁Massachusetts	-9732
▁environmental	-9733
▁investigation	-9734
;"	-9735
Ch	-9736
RS	-9737
sl	-9738
aza	-9739
bel	-9740
hay	-9741
nal	-9742
vol	-9743
▁00	-9744
▁Ut	-9745
▁uh	-9746
aunt	-9747
enza	-9748
free	-9749
iety	-9750
uman	-9751
▁Rog	-9752
▁sch	-9753
ashes	-9754
ateur	-9755
creen	-9756
guard	-9757
lause	-9758
ourne	-9759
▁Blue	-9760
▁Crit	-9761
▁Days	-9762
▁Fame	-9763
▁Gaut	-9764
▁Mong	-9765
▁Mult	-9766
▁Nand	-9767
▁Oper	-9768
▁Parv	-9769
▁Sidd	-9770
▁Till	-9771
▁adds	-9772
▁ages	-9773
▁cham	-9774
▁fans	-9775
▁lied	-9776
▁mant	-9777
▁psyc	-9778
▁span	-9779
▁tact	-9780
▁2005.	-9781
▁Karan	-9782
▁Sikhs	-9783
▁Techn	-9784
▁Watch	-9785
▁chant	-9786
▁doeth	-9787
▁dying	-9788
▁ragas	-9789
▁rests	-9790
▁rites	-9791
▁roots	-9792
▁verse	-9793
Worship	-9794
ificate	-9795
▁Makkah	-9796
▁Museum	-9797
▁Palest	-9798
▁dances	-9799
▁fights	-9800
▁humbly	-9801
▁intern	-9802
▁keeper	-9803
▁stress	-9804
▁values	-9805
ivestock	-9806
▁Vijayan	-9807
▁denomin	-9808
▁evolved	-9809
▁feeding	-9810
▁insight	-9811
▁publish	-9812
▁reforms	-9813
▁reserve	-9814
uspicious	-9815
▁chairman	-9816
▁channels	-9817
▁cleaning	-9818
▁thriller	-9819
▁Southeast	-9820
▁candidate	-9821
▁decorated	-9822
▁divisions	-9823
▁dominated	-9824
▁encourage	-9825
▁eternally	-9826
▁fashioned	-9827
▁miserable	-9828
▁offerings	-9829
▁partition	-9830
▁thereupon	-9831
▁absolutely	-9832
▁depression	-9833
▁revolution	-9834
▁structures	-9835
▁experiences	-9836
▁accomplished	-9837
▁specifically	-9838
BS	-9839
alo	-9840
iel	-9841
oba	-9842
▁Ki	-9843
anks	-9844
unch	-9845
unes	-9846
▁Bro	-9847
▁Dig	-9848
▁Gay	-9849
▁Haw	-9850
▁Mim	-9851
▁Zak	-9852
▁ame	-9853
▁bon	-9854
arant	-9855
athan	-9856
llers	-9857
▁Khas	-9858
▁Next	-9859
▁Rafi	-9860
▁Stay	-9861
▁Werk	-9862
▁farm	-9863
▁stol	-9864
▁vows	-9865
avalry	-9866
▁Nagar	-9867
▁Relig	-9868
▁Stock	-9869
▁bread	-9870
▁didst	-9871
▁elite	-9872
▁email	-9873
▁evalu	-9874
▁heels	-9875
▁quant	-9876
hensive	-9877
▁Kansas	-9878
▁banned	-9879
▁camels	-9880
▁curren	-9881
▁floods	-9882
▁poison	-9883
▁precip	-9884
▁seated	-9885
▁switch	-9886
▁ticket	-9887
▁Bahadur	-9888
▁Justice	-9889
▁Pallava	-9890
▁colitis	-9891
▁concert	-9892
▁eternal	-9893
▁fingers	-9894
▁pasture	-9895
▁protein	-9896
▁Airlines	-9897
▁Arkansas	-9898
▁Carolina	-9899
▁Mahabhar	-9900
▁alliance	-9901
▁collabor	-9902
▁credited	-9903
▁explains	-9904
▁forehead	-9905
▁pilgrims	-9906
▁resident	-9907
▁supplies	-9908
▁Werkudara	-9909
▁believeth	-9910
▁overtaken	-9911
▁wandering	-9912
▁charitable	-9913
▁consecutive	-9914
▁inheritance	-9915
▁investments	-9916
▁medications	-9917
▁compositions	-9918
▁confirmation	-9919
▁transportation	-9920
MS	-9921
];	-9922
–0	-9923
100	-9924
Tor	-9925
adh	-9926
asw	-9927
ocy	-9928
uan	-9929
▁"(	-9930
▁Aw	-9931
anny	-9932
arta	-9933
onal	-9934
otal	-9935
urai	-9936
▁20,	-9937
▁ARE	-9938
▁Dha	-9939
▁Hus	-9940
▁Job	-9941
▁Sec	-9942
▁Sut	-9943
▁Vol	-9944
oster	-9945
stone	-9946
uster	-9947
▁Aren	-9948
▁Page	-9949
▁Wood	-9950
▁disg	-9951
▁hits	-9952
▁tank	-9953
▁tort	-9954
▁unsu	-9955
urally	-9956
vation	-9957
▁Bliss	-9958
▁Smith	-9959
▁boats	-9960
▁steep	-9961
▁tower	-9962
▁wages	-9963
Muslims	-9964
ambling	-9965
▁Indira	-9966
▁Palace	-9967
▁Thanks	-9968
▁absent	-9969
▁corpor	-9970
▁formal	-9971
▁negoti	-9972
▁oxygen	-9973
▁plenty	-9974
▁spinal	-9975
▁Majesty	-9976
▁Toronto	-9977
▁Twitter	-9978
▁archive	-9979
▁blasphe	-9980
▁carries	-9981
▁cooking	-9982
▁crushed	-9983
▁hunting	-9984
▁palaces	-9985
▁thereon	-9986
▁accommod	-9987
▁boundary	-9988
▁confeder	-9989
▁executed	-9990
▁feelings	-9991
▁internal	-9992
▁mistakes	-9993
▁networks	-9994
▁painting	-9995
▁portents	-9996
▁protests	-9997
▁romantic	-9998
▁somebody	-9999
▁threaten	-10000
▁Knowledge	-10001
▁acknowled	-10002
▁attempted	-10003
▁competing	-10004
▁excessive	-10005
▁musicians	-10006
▁practiced	-10007
▁oppression	-10008
▁prosperity	-10009
▁remembered	-10010
▁ultimately	-10011
▁intercessor	-10012
16	-10013
aki	-10014
eff	-10015
ems	-10016
raj	-10017
▁ME	-10018
▁Ob	-10019
anti	-10020
anya	-10021
atar	-10022
itar	-10023
rose	-10024
ture	-10025
yard	-10026
▁184	-10027
▁Bob	-10028
▁Est	-10029
▁Hal	-10030
▁Typ	-10031
▁Val	-10032
▁huh	-10033
Jesus	-10034
abama	-10035
false	-10036
ipped	-10037
uding	-10038
ulous	-10039
▁Ball	-10040
▁Bhop	-10041
▁Deep	-10042
▁Jinn	-10043
▁Post	-10044
▁Prab	-10045
▁Prin	-10046
▁WHAT	-10047
▁bicy	-10048
▁cuis	-10049
▁diam	-10050
▁inse	-10051
▁oral	-10052
▁trig	-10053
dition	-10054
ishers	-10055
itably	-10056
▁2003.	-10057
▁Bible	-10058
▁Front	-10059
▁Stand	-10060
▁armed	-10061
▁dimin	-10062
▁drain	-10063
▁feels	-10064
▁indul	-10065
▁mates	-10066
▁naked	-10067
▁perce	-10068
▁ungod	-10069
Believe	-10070
hadweep	-10071
seeming	-10072
▁Bharat	-10073
▁Krishn	-10074
▁Legisl	-10075
▁abroad	-10076
▁dishes	-10077
▁estate	-10078
▁hallow	-10079
▁lights	-10080
▁trains	-10081
ographic	-10082
▁anticip	-10083
▁confron	-10084
▁deliber	-10085
▁enlight	-10086
▁extract	-10087
▁focused	-10088
▁invaded	-10089
▁kitchen	-10090
▁quicken	-10091
▁totally	-10092
▁valleys	-10093
▁assisted	-10094
▁declined	-10095
▁humanity	-10096
▁magazine	-10097
▁princess	-10098
▁Entertain	-10099
▁arguments	-10100
▁broadcast	-10101
▁preserved	-10102
▁producing	-10103
▁radiation	-10104
▁suspended	-10105
▁attractive	-10106
▁passengers	-10107
▁disbeliever	-10108
▁presentation	-10109
▁Representatives	-10110
BA	-10111
RA	-10112
TS	-10113
gs	-10114
ato	-10115
ayb	-10116
ayn	-10117
lal	-10118
oop	-10119
uel	-10120
▁44	-10121
▁48	-10122
aleh	-10123
cade	-10124
hari	-10125
hyal	-10126
isms	-10127
kins	-10128
leep	-10129
lvan	-10130
ndra	-10131
orts	-10132
rich	-10133
roit	-10134
true	-10135
▁Bij	-10136
▁Kim	-10137
▁cos	-10138
▁rot	-10139
▁tas	-10140
▁tum	-10141
▁uns	-10142
mense	-10143
nagar	-10144
▁1995	-10145
▁Back	-10146
▁Bron	-10147
▁Tele	-10148
▁auto	-10149
▁bent	-10150
▁bone	-10151
▁coup	-10152
▁cous	-10153
▁frag	-10154
▁hall	-10155
▁hung	-10156
▁lean	-10157
▁rati	-10158
▁stup	-10159
guided	-10160
rolled	-10161
▁Broad	-10162
▁Kochi	-10163
▁Peter	-10164
▁Phili	-10165
▁Sepak	-10166
▁acute	-10167
▁amass	-10168
▁canst	-10169
▁debts	-10170
▁earns	-10171
▁guilt	-10172
▁humid	-10173
▁ruins	-10174
▁shops	-10175
tenance	-10176
▁Dastan	-10177
▁Having	-10178
▁Korean	-10179
▁Tulasi	-10180
▁betray	-10181
▁fierce	-10182
▁marvel	-10183
▁princi	-10184
▁resear	-10185
▁throat	-10186
▁trusts	-10187
▁wooden	-10188
Remember	-10189
▁Alabama	-10190
▁Pandyas	-10191
▁confess	-10192
▁decrees	-10193
▁forbids	-10194
▁fucking	-10195
▁illustr	-10196
▁massive	-10197
▁rehears	-10198
▁reprodu	-10199
▁storage	-10200
▁suffice	-10201
▁bleeding	-10202
▁departed	-10203
▁familiar	-10204
▁governed	-10205
▁improved	-10206
▁indicate	-10207
▁penitent	-10208
▁princely	-10209
▁sleeping	-10210
▁throwing	-10211
▁Jharkhand	-10212
▁affection	-10213
▁defensive	-10214
▁northwest	-10215
▁qualified	-10216
▁recommend	-10217
▁vengeance	-10218
▁whereupon	-10219
▁Foundation	-10220
▁properties	-10221
▁translated	-10222
▁Forgiveness	-10223
▁Lakshadweep	-10224
▁administered	-10225
▁transmission	-10226
▁Entertainment	-10227
35	-10228
Oh	-10229
Tra	-10230
elp	-10231
pay	-10232
pos	-10233
sea	-10234
▁MO	-10235
▁Ru	-10236
Tube	-10237
amal	-10238
isse	-10239
made	-10240
stic	-10241
▁Jul	-10242
▁Tan	-10243
▁Tun	-10244
▁gho	-10245
erion	-10246
hesis	-10247
itate	-10248
ordan	-10249
sters	-10250
these	-10251
▁Down	-10252
▁Exam	-10253
▁Game	-10254
▁Greg	-10255
▁Long	-10256
▁Mall	-10257
▁Viet	-10258
▁Wall	-10259
▁crad	-10260
▁disk	-10261
▁envy	-10262
▁idle	-10263
▁poly	-10264
▁rush	-10265
▁sink	-10266
▁wolf	-10267
▁wond	-10268
urches	-10269
ursday	-10270
▁Force	-10271
▁Pitts	-10272
▁Wales	-10273
▁amuse	-10274
▁canoe	-10275
▁obliv	-10276
▁smoke	-10277
▁tired	-10278
olithic	-10279
▁Cholas	-10280
▁Indust	-10281
▁Madrid	-10282
▁Pongal	-10283
▁Street	-10284
▁Unlike	-10285
▁advise	-10286
▁argued	-10287
▁cotton	-10288
▁dancer	-10289
▁faults	-10290
▁grains	-10291
▁herald	-10292
▁observ	-10293
▁recept	-10294
▁riding	-10295
▁statue	-10296
▁Austria	-10297
▁Philipp	-10298
▁Promise	-10299
▁edition	-10300
▁monarch	-10301
▁priests	-10302
▁recount	-10303
▁sixteen	-10304
▁suspect	-10305
▁typhoid	-10306
ibilities	-10307
▁Creation	-10308
▁Thursday	-10309
▁analysis	-10310
▁civilian	-10311
▁decrease	-10312
▁dominant	-10313
▁employed	-10314
▁entrance	-10315
▁glorious	-10316
▁patterns	-10317
▁punishes	-10318
▁subjects	-10319
▁universe	-10320
▁Incumbent	-10321
▁fountains	-10322
▁technical	-10323
▁temporary	-10324
▁Forbearing	-10325
▁artificial	-10326
▁scientific	-10327
▁description	-10328
▁essentially	-10329
▁persecution	-10330
▁Archaeological	-10331
.[	-10332
gi	-10333
jj	-10334
ano	-10335
hio	-10336
▁6.	-10337
▁7.	-10338
▁CP	-10339
▁Vi	-10340
Alas	-10341
aine	-10342
inet	-10343
none	-10344
rike	-10345
vent	-10346
▁Bho	-10347
▁Daw	-10348
▁Sor	-10349
▁Vas	-10350
▁alt	-10351
▁dim	-10352
▁kin	-10353
▁mac	-10354
amboo	-10355
etime	-10356
habad	-10357
▁1000	-10358
▁Hath	-10359
▁Ohio	-10360
▁Pict	-10361
▁dram	-10362
▁encl	-10363
▁lift	-10364
▁sang	-10365
▁spir	-10366
▁wars	-10367
active	-10368
alties	-10369
bourne	-10370
called	-10371
etanus	-10372
liness	-10373
lvania	-10374
▁2001,	-10375
▁2001.	-10376
▁Along	-10377
▁Still	-10378
▁cheap	-10379
▁evils	-10380
▁fired	-10381
▁layer	-10382
▁pleas	-10383
▁stiff	-10384
▁sworn	-10385
▁Jaipur	-10386
▁Others	-10387
▁Pennsy	-10388
▁Takraw	-10389
▁inflic	-10390
▁rarely	-10391
▁scenes	-10392
▁splend	-10393
▁stolen	-10394
▁tennis	-10395
▁YouTube	-10396
▁bestows	-10397
▁shouldn	-10398
▁spreads	-10399
▁thereto	-10400
▁viruses	-10401
attupuzha	-10402
hological	-10403
▁aircraft	-10404
▁assemble	-10405
▁compound	-10406
▁descends	-10407
▁imagined	-10408
▁mansions	-10409
▁migrated	-10410
▁Hurricane	-10411
▁Reckoning	-10412
▁confusion	-10413
▁container	-10414
▁despaired	-10415
▁elsewhere	-10416
▁perdition	-10417
▁reference	-10418
▁requested	-10419
▁successor	-10420
▁Hindustani	-10421
▁conference	-10422
▁submissive	-10423
▁Mahabharata	-10424
▁Pennsylvania	-10425
▁distinguished	-10426
ec	-10427
eep	-10428
ere	-10429
rot	-10430
yar	-10431
▁33	-10432
IGHT	-10433
alem	-10434
esha	-10435
icop	-10436
icts	-10437
osal	-10438
ouri	-10439
puri	-10440
risy	-10441
riya	-10442
unga	-10443
▁Aad	-10444
▁Hig	-10445
▁Jim	-10446
▁McC	-10447
▁Sav	-10448
▁ben	-10449
▁rat	-10450
▁rod	-10451
Alone	-10452
check	-10453
cline	-10454
iable	-10455
osity	-10456
▁Isha	-10457
▁Purn	-10458
▁hack	-10459
▁tack	-10460
▁valu	-10461
aching	-10462
orting	-10463
▁2000,	-10464
▁Revel	-10465
▁Whose	-10466
▁Young	-10467
▁draws	-10468
▁exped	-10469
▁fools	-10470
▁heark	-10471
▁horiz	-10472
▁innov	-10473
▁lasts	-10474
▁repay	-10475
▁tasks	-10476
▁views	-10477
▁zakat	-10478
ciences	-10479
ologies	-10480
▁Ganesh	-10481
▁Purana	-10482
▁System	-10483
▁Trophy	-10484
▁emerge	-10485
▁flower	-10486
▁gotten	-10487
▁hiding	-10488
▁spoils	-10489
▁stable	-10490
▁titled	-10491
▁tracks	-10492
▁volume	-10493
▁Brahmin	-10494
▁Current	-10495
▁Detroit	-10496
▁Kishore	-10497
▁Mahavir	-10498
▁Swedish	-10499
▁Without	-10500
▁convert	-10501
▁crossed	-10502
▁guarant	-10503
▁madness	-10504
▁rapidly	-10505
▁referee	-10506
▁touches	-10507
▁unusual	-10508
▁wrought	-10509
▁Divinity	-10510
▁identity	-10511
▁literacy	-10512
▁severely	-10513
▁belongeth	-10514
▁implement	-10515
▁livestock	-10516
▁prisoners	-10517
▁prolonged	-10518
▁reservoir	-10519
▁electrical	-10520
▁obligatory	-10521
▁philosophy	-10522
▁restrained	-10523
▁sculptures	-10524
▁variations	-10525
▁Legislative	-10526
▁maintenance	-10527
▁universities	-10528
▁controversial	-10529
85	-10530
NS	-10531
)],	-10532
-19	-10533
Nay	-10534
abh	-10535
hem	-10536
imp	-10537
ipt	-10538
qub	-10539
rao	-10540
uzz	-10541
▁..	-10542
▁HE	-10543
▁ID	-10544
▁Ly	-10545
▁ol	-10546
Were	-10547
alli	-10548
char	-10549
gage	-10550
reek	-10551
ryan	-10552
uvan	-10553
▁13,	-10554
▁18,	-10555
▁19,	-10556
▁Aff	-10557
▁End	-10558
▁Koh	-10559
▁Lin	-10560
▁Vaj	-10561
▁Wal	-10562
▁Wed	-10563
▁Yam	-10564
▁atm	-10565
obile	-10566
rites	-10567
▁Fair	-10568
▁Kart	-10569
▁dict	-10570
▁epic	-10571
▁gymn	-10572
▁hect	-10573
▁spar	-10574
▁stab	-10575
▁wool	-10576
entive	-10577
idency	-10578
otions	-10579
▁1998.	-10580
▁Actor	-10581
▁Nicob	-10582
▁Prize	-10583
▁bowed	-10584
▁codes	-10585
▁coron	-10586
▁gotta	-10587
▁impug	-10588
▁lords	-10589
▁lungs	-10590
▁recre	-10591
▁repel	-10592
▁tiger	-10593
ificent	-10594
rossing	-10595
▁Berlin	-10596
▁Forest	-10597
▁Norway	-10598
▁Peshwa	-10599
▁Queens	-10600
▁Within	-10601
▁cancel	-10602
▁danger	-10603
▁dating	-10604
▁freely	-10605
▁harder	-10606
▁lifted	-10607
▁namely	-10608
▁prompt	-10609
▁scores	-10610
▁shaken	-10611
▁spouse	-10612
▁storms	-10613
▁thirst	-10614
ccessful	-10615
▁Account	-10616
▁Dynasty	-10617
▁Malabar	-10618
▁Plateau	-10619
▁Senator	-10620
▁defence	-10621
▁escaped	-10622
▁flaming	-10623
▁narrate	-10624
▁renamed	-10625
▁serpent	-10626
▁sunrise	-10627
unishment	-10628
▁Confeder	-10629
▁Rajendra	-10630
▁affluent	-10631
▁approved	-10632
▁deprived	-10633
▁destined	-10634
▁discover	-10635
▁duration	-10636
▁feedback	-10637
▁measured	-10638
▁opportun	-10639
▁pleasant	-10640
▁straying	-10641
vattupuzha	-10642
▁displayed	-10643
▁graduated	-10644
▁interests	-10645
▁occasions	-10646
▁posterity	-10647
▁professor	-10648
▁varieties	-10649
▁directions	-10650
▁vegetables	-10651
▁appearances	-10652
▁complicated	-10653
▁effectively	-10654
▁intercessors	-10655
▁multiplication	-10656
"?	-10657
IL	-10658
IM	-10659
PP	-10660
Lot	-10661
asm	-10662
dam	-10663
rdu	-10664
rey	-10665
sub	-10666
uta	-10667
▁(2	-10668
▁sq	-10669
ESCO	-10670
Tell	-10671
asim	-10672
ayam	-10673
gods	-10674
grap	-10675
happ	-10676
inct	-10677
▁11,	-10678
▁17,	-10679
▁28,	-10680
▁Ext	-10681
▁Lee	-10682
▁Nur	-10683
▁Sus	-10684
▁Van	-10685
▁WHO	-10686
▁ila	-10687
▁phr	-10688
▁rum	-10689
▁syn	-10690
▁til	-10691
estly	-10692
final	-10693
itted	-10694
level	-10695
rayed	-10696
rical	-10697
▁Gods	-10698
▁Luck	-10699
▁Team	-10700
▁Thai	-10701
▁boss	-10702
▁jest	-10703
▁meal	-10704
inence	-10705
ulsion	-10706
▁Ahmad	-10707
▁Pengu	-10708
▁Puduc	-10709
▁Tibet	-10710
▁amend	-10711
▁crash	-10712
▁dense	-10713
▁evacu	-10714
▁ilaha	-10715
▁micro	-10716
▁penet	-10717
▁poets	-10718
▁recru	-10719
▁spell	-10720
acharya	-10721
ministr	-10722
▁Histor	-10723
▁Pratap	-10724
▁Survey	-10725
▁UNESCO	-10726
▁decade	-10727
▁improv	-10728
▁inches	-10729
▁remark	-10730
▁throws	-10731
Applause	-10732
▁Limited	-10733
▁Pacific	-10734
▁abiders	-10735
▁helicop	-10736
▁interse	-10737
▁invites	-10738
▁maidens	-10739
▁passage	-10740
▁shocked	-10741
▁Srinivas	-10742
▁annivers	-10743
▁confirms	-10744
▁despised	-10745
▁factions	-10746
▁likewise	-10747
▁literary	-10748
▁moderate	-10749
▁unfortun	-10750
▁wildlife	-10751
▁executive	-10752
▁hypocrisy	-10753
▁perceived	-10754
▁pollution	-10755
▁purchases	-10756
▁stability	-10757
▁surprised	-10758
▁Puducherry	-10759
▁extravagant	-10760
▁manufacture	-10761
▁preparation	-10762
▁characterized	-10763
Gl	-10764
TH	-10765
Get	-10766
osh	-10767
▁Uk	-10768
Jews	-10769
ader	-10770
araj	-10771
dney	-10772
eers	-10773
igue	-10774
irts	-10775
onym	-10776
rama	-10777
▁Adi	-10778
▁Jai	-10779
▁Jat	-10780
▁Pop	-10781
▁fib	-10782
▁pul	-10783
▁tun	-10784
build	-10785
hadra	-10786
olate	-10787
usive	-10788
▁Alla	-10789
▁Bost	-10790
▁Gulf	-10791
▁Hosp	-10792
▁Love	-10793
▁Must	-10794
▁Radi	-10795
▁Rich	-10796
▁Urdu	-10797
▁Very	-10798
▁angu	-10799
▁flex	-10800
Praise	-10801
atient	-10802
ensity	-10803
vering	-10804
▁Mahal	-10805
▁Metro	-10806
▁annex	-10807
▁enhan	-10808
▁genre	-10809
▁knees	-10810
▁saves	-10811
hearted	-10812
▁Costco	-10813
▁Kushan	-10814
▁Midian	-10815
▁Sydney	-10816
▁bamboo	-10817
▁borrow	-10818
▁boxing	-10819
▁casual	-10820
▁drives	-10821
▁immigr	-10822
▁inject	-10823
▁maketh	-10824
▁mining	-10825
▁spokes	-10826
▁talked	-10827
▁unwill	-10828
▁Goddess	-10829
▁cavalry	-10830
▁comprom	-10831
▁creator	-10832
▁healing	-10833
▁ignomin	-10834
▁organis	-10835
▁raising	-10836
▁recover	-10837
▁Atlantic	-10838
▁Business	-10839
▁formerly	-10840
▁reducing	-10841
▁treating	-10842
▁valuable	-10843
ifications	-10844
▁Education	-10845
▁alternate	-10846
▁dependent	-10847
▁disappear	-10848
▁expansion	-10849
▁interface	-10850
▁multitude	-10851
▁patronage	-10852
▁practised	-10853
▁Pittsburgh	-10854
▁consisting	-10855
▁definitely	-10856
▁restricted	-10857
▁temptation	-10858
▁treatments	-10859
▁communicate	-10860
▁educational	-10861
▁applications	-10862
,]	-10863
Fo	-10864
Tr	-10865
gt	-10866
agh	-10867
igo	-10868
▁34	-10869
▁52	-10870
▁BL	-10871
▁Hi	-10872
▁Ky	-10873
▁Mi	-10874
▁NE	-10875
▁Ox	-10876
ects	-10877
eroy	-10878
folk	-10879
hami	-10880
rath	-10881
stan	-10882
uris	-10883
▁14,	-10884
▁Dou	-10885
▁GOT	-10886
▁rib	-10887
Those	-10888
Torah	-10889
going	-10890
jamin	-10891
nding	-10892
orous	-10893
palms	-10894
ranti	-10895
rogen	-10896
▁1994	-10897
▁Amit	-10898
▁Bund	-10899
▁Khur	-10900
▁bite	-10901
▁diab	-10902
▁disl	-10903
walior	-10904
▁Barce	-10905
▁Jalal	-10906
▁abase	-10907
▁arbit	-10908
▁forts	-10909
▁genes	-10910
▁goble	-10911
▁motiv	-10912
▁outdo	-10913
▁plots	-10914
▁queen	-10915
▁ratio	-10916
▁saint	-10917
▁tales	-10918
▁token	-10919
▁valid	-10920
▁vocal	-10921
ireless	-10922
▁Almost	-10923
▁Maurya	-10924
▁burned	-10925
▁distra	-10926
▁golden	-10927
▁grapes	-10928
▁insult	-10929
▁revert	-10930
▁ruling	-10931
▁satell	-10932
▁seduce	-10933
▁suspic	-10934
ications	-10935
▁Gwalior	-10936
▁Reserve	-10937
▁Stanley	-10938
▁annoyed	-10939
▁authent	-10940
▁context	-10941
▁cutting	-10942
▁dismiss	-10943
▁dragged	-10944
▁exclaim	-10945
▁expense	-10946
▁housing	-10947
▁invoked	-10948
▁mocking	-10949
▁praying	-10950
▁sailing	-10951
▁sustain	-10952
olleyball	-10953
▁colleges	-10954
▁formally	-10955
▁helpless	-10956
▁ordinary	-10957
▁reaction	-10958
▁relieved	-10959
▁resigned	-10960
▁visitors	-10961
▁Administr	-10962
▁campaigns	-10963
▁concealed	-10964
▁discontin	-10965
▁listening	-10966
▁reclining	-10967
▁technique	-10968
▁challenges	-10969
▁recitation	-10970
disbelievers	-10971
▁competitive	-10972
▁possibility	-10973
▁Muvattupuzha	-10974
▁opportunities	-10975
-2	-10976
36	-10977
43	-10978
RL	-10979
ko	-10980
Cha	-10981
IDE	-10982
cop	-10983
eor	-10984
gal	-10985
laq	-10986
rim	-10987
uba	-10988
uki	-10989
ukk	-10990
uti	-10991
▁CD	-10992
▁RA	-10993
Even	-10994
acts	-10995
atri	-10996
cuit	-10997
hole	-10998
irty	-10999
rond	-11000
such	-11001
xual	-11002
▁178	-11003
▁181	-11004
▁BBC	-11005
▁Hit	-11006
▁Ice	-11007
▁Jab	-11008
▁Lar	-11009
▁Leh	-11010
▁Rab	-11011
▁Sit	-11012
▁Vit	-11013
lfare	-11014
▁2022	-11015
▁Anna	-11016
▁Arun	-11017
▁Emer	-11018
▁Hong	-11019
▁Nord	-11020
▁Real	-11021
▁Shol	-11022
▁Snow	-11023
▁Work	-11024
▁apes	-11025
▁belt	-11026
▁defi	-11027
▁rand	-11028
▁remn	-11029
▁vine	-11030
ekshaw	-11031
harana	-11032
intend	-11033
▁1947.	-11034
▁1999.	-11035
▁2003,	-11036
▁Boeun	-11037
▁Death	-11038
▁Durga	-11039
▁Salat	-11040
▁Start	-11041
▁aided	-11042
▁arena	-11043
▁burst	-11044
▁cryst	-11045
▁hurry	-11046
▁inaug	-11047
▁skies	-11048
▁tooth	-11049
▁Boston	-11050
▁Jersey	-11051
▁Robert	-11052
▁Scient	-11053
▁agents	-11054
▁duties	-11055
▁labour	-11056
▁lagoon	-11057
▁orange	-11058
▁reprie	-11059
▁stocks	-11060
▁treadm	-11061
▁trials	-11062
▁anguish	-11063
▁clients	-11064
▁designs	-11065
▁extends	-11066
▁falsely	-11067
▁finance	-11068
▁lodging	-11069
▁revived	-11070
▁shadows	-11071
▁tonight	-11072
▁varying	-11073
▁agencies	-11074
▁approval	-11075
▁churches	-11076
▁disagree	-11077
▁gambling	-11078
▁imperial	-11079
▁murdered	-11080
▁rightful	-11081
▁thunderb	-11082
▁Allahabad	-11083
▁Manekshaw	-11084
▁assembled	-11085
▁attacking	-11086
▁exception	-11087
▁exclusive	-11088
▁execution	-11089
▁gathering	-11090
▁impressed	-11091
▁influenza	-11092
▁investing	-11093
▁recipient	-11094
▁sincerely	-11095
▁villagers	-11096
▁withholds	-11097
▁frustrated	-11098
▁personally	-11099
▁reasonable	-11100
▁subsequent	-11101
▁anniversary	-11102
▁obligations	-11103
▁representing	-11104
▁relationships	-11105
CT	-11106
ds	-11107
oi	-11108
sk	-11109
esa	-11110
vet	-11111
▁Ol	-11112
▁Ri	-11113
▁SO	-11114
Fear	-11115
atti	-11116
hers	-11117
kens	-11118
lona	-11119
reci	-11120
▁2:2	-11121
▁Baj	-11122
▁Dil	-11123
▁HIV	-11124
▁Haj	-11125
▁Shi	-11126
▁Top	-11127
▁VPN	-11128
▁asc	-11129
▁myt	-11130
▁reb	-11131
amine	-11132
araja	-11133
hapur	-11134
onnie	-11135
pered	-11136
seven	-11137
▁Card	-11138
▁Jose	-11139
▁Mine	-11140
▁Puri	-11141
▁Soci	-11142
▁Sury	-11143
▁THIS	-11144
▁Wali	-11145
▁cogn	-11146
▁craw	-11147
▁owns	-11148
▁shun	-11149
▁solo	-11150
▁tang	-11151
▁terr	-11152
▁unif	-11153
▁yaws	-11154
hrupad	-11155
usting	-11156
▁1993.	-11157
▁Liber	-11158
▁Press	-11159
▁abdom	-11160
▁hides	-11161
▁prays	-11162
▁ropes	-11163
▁shock	-11164
▁swell	-11165
▁toler	-11166
essions	-11167
mention	-11168
uttaqun	-11169
▁Balaji	-11170
▁Bhopal	-11171
▁Rahman	-11172
▁accuse	-11173
▁amidst	-11174
▁arrows	-11175
▁ascrib	-11176
▁debate	-11177
▁doubts	-11178
▁equity	-11179
▁extens	-11180
▁grands	-11181
▁intent	-11182
▁latest	-11183
▁museum	-11184
▁nobody	-11185
▁roller	-11186
▁sticks	-11187
▁stored	-11188
▁tender	-11189
▁toilet	-11190
▁varies	-11191
▁Medical	-11192
▁Nicobar	-11193
▁availed	-11194
▁courage	-11195
▁courses	-11196
▁devised	-11197
▁slander	-11198
▁soldier	-11199
▁wealthy	-11200
▁willeth	-11201
▁winners	-11202
▁Missouri	-11203
▁Pandavas	-11204
▁adjacent	-11205
▁connects	-11206
▁demanded	-11207
▁mustered	-11208
▁sequence	-11209
▁summoned	-11210
▁vaccines	-11211
▁Barcelona	-11212
▁diversity	-11213
▁emotional	-11214
▁exhausted	-11215
▁fragments	-11216
▁frequency	-11217
▁impatient	-11218
▁intercede	-11219
▁oblivious	-11220
▁ordinance	-11221
▁selection	-11222
▁Honourable	-11223
▁ceremonies	-11224
▁kickboxing	-11225
▁situations	-11226
▁questioning	-11227
▁compassionate	-11228
IF	-11229
Wh	-11230
▁,	-11231
)].	-11232
hin	-11233
uka	-11234
▁37	-11235
▁5.	-11236
▁AN	-11237
▁Ks	-11238
▁py	-11239
afar	-11240
arna	-11241
gers	-11242
heim	-11243
ihil	-11244
mnip	-11245
onda	-11246
▁Abb	-11247
▁Box	-11248
▁Cop	-11249
▁Din	-11250
▁Jam	-11251
▁Lab	-11252
▁Yad	-11253
▁alp	-11254
▁bot	-11255
▁tip	-11256
▁vig	-11257
abies	-11258
ieves	-11259
onent	-11260
▁Bush	-11261
▁dogs	-11262
▁seiz	-11263
▁stir	-11264
estone	-11265
nesday	-11266
▁Kamal	-11267
▁Niger	-11268
▁analy	-11269
▁badly	-11270
▁cited	-11271
▁exile	-11272
▁haste	-11273
▁lakes	-11274
▁milit	-11275
▁prose	-11276
▁seals	-11277
▁solar	-11278
▁spare	-11279
▁spots	-11280
▁surve	-11281
assador	-11282
istence	-11283
▁Accept	-11284
▁Bhagav	-11285
▁Edward	-11286
▁Greece	-11287
▁Khanna	-11288
▁Poland	-11289
▁Saying	-11290
▁amends	-11291
▁behave	-11292
▁crying	-11293
▁elders	-11294
▁finest	-11295
▁interc	-11296
▁launch	-11297
▁liquid	-11298
▁planet	-11299
▁random	-11300
▁relent	-11301
▁remake	-11302
▁resemb	-11303
▁safely	-11304
▁shower	-11305
▁sinner	-11306
▁subjug	-11307
▁themes	-11308
▁tokens	-11309
grossing	-11310
▁Shopper	-11311
▁Special	-11312
▁answers	-11313
▁bidding	-11314
▁deposit	-11315
▁helpful	-11316
▁kinship	-11317
▁marched	-11318
▁predict	-11319
▁Penguins	-11320
▁Wildlife	-11321
▁commerce	-11322
▁divinity	-11323
▁sanction	-11324
▁smallest	-11325
▁sporting	-11326
▁weakened	-11327
▁youngest	-11328
▁Brazilian	-11329
▁Melbourne	-11330
▁Sankranti	-11331
▁Wednesday	-11332
▁behaviour	-11333
▁carefully	-11334
▁highlight	-11335
▁inscribed	-11336
▁passenger	-11337
▁replacing	-11338
▁allegiance	-11339
▁arrogantly	-11340
▁imprisoned	-11341
▁protective	-11342
▁purchasing	-11343
▁Philippines	-11344
▁distinguish	-11345
▁inflammation	-11346
▁northeastern	-11347
▁presidential	-11348
▁automatically	-11349
45	-11350
RT	-11351
300	-11352
agi	-11353
ded	-11354
eda	-11355
ibl	-11356
iga	-11357
▁39	-11358
▁MP	-11359
▁PC	-11360
▁iP	-11361
Give	-11362
adan	-11363
amma	-11364
drop	-11365
five	-11366
game	-11367
iban	-11368
inte	-11369
issa	-11370
oval	-11371
pany	-11372
pris	-11373
▁Adv	-11374
▁DNA	-11375
▁Dia	-11376
▁Dub	-11377
▁Kaz	-11378
▁Loc	-11379
▁Loh	-11380
▁OUT	-11381
▁ing	-11382
▁kar	-11383
▁mol	-11384
▁mun	-11385
Glory	-11386
salms	-11387
uddha	-11388
▁Chel	-11389
▁Kund	-11390
▁Mars	-11391
▁Roll	-11392
▁cake	-11393
▁culp	-11394
▁eyel	-11395
▁surn	-11396
Follow	-11397
aneous	-11398
isting	-11399
lessly	-11400
▁Color	-11401
▁Films	-11402
▁Jonah	-11403
▁Meite	-11404
▁Place	-11405
▁Salim	-11406
▁Speed	-11407
▁Taste	-11408
▁Third	-11409
▁climb	-11410
▁coord	-11411
▁enlar	-11412
▁flash	-11413
▁flora	-11414
▁loans	-11415
▁parks	-11416
▁ports	-11417
▁trunk	-11418
▁vines	-11419
Gabriel	-11420
forever	-11421
▁Chatur	-11422
▁Purity	-11423
▁butter	-11424
▁plague	-11425
▁quarre	-11426
▁Formula	-11427
▁Gabriel	-11428
▁Private	-11429
▁Tughlaq	-11430
▁Vietnam	-11431
▁cuisine	-11432
▁farming	-11433
▁fetters	-11434
▁fiction	-11435
▁imposed	-11436
▁license	-11437
▁plastic	-11438
▁pursuit	-11439
▁realise	-11440
▁satisfy	-11441
▁shorter	-11442
▁staying	-11443
▁survive	-11444
▁wounded	-11445
▁writers	-11446
▁Columbia	-11447
▁Maharaja	-11448
▁Pictures	-11449
▁costumes	-11450
▁database	-11451
▁fortress	-11452
▁immunity	-11453
▁striking	-11454
▁touching	-11455
▁ultimate	-11456
Sufficient	-11457
▁blindness	-11458
▁committee	-11459
▁complaint	-11460
▁providers	-11461
▁whichever	-11462
▁attraction	-11463
▁connecting	-11464
▁contribute	-11465
▁hospitality	-11466
▁overwhelmed	-11467
▁recognition	-11468
▁treacherous	-11469
▁vaccination	-11470
▁supplication	-11471
▁corresponding	-11472
▁classification	-11473
27	-11474
FC	-11475
OO	-11476
PA	-11477
),-	-11478
Sol	-11479
bus	-11480
isp	-11481
leg	-11482
▁75	-11483
▁DO	-11484
▁IV	-11485
▁Si	-11486
amba	-11487
etes	-11488
kara	-11489
orse	-11490
thon	-11491
vard	-11492
▁177	-11493
▁Age	-11494
▁Hyp	-11495
▁Kul	-11496
▁USD	-11497
▁fan	-11498
▁gri	-11499
▁hal	-11500
▁maj	-11501
celer	-11502
enger	-11503
icial	-11504
▁00:0	-11505
▁1971	-11506
▁Drav	-11507
▁Live	-11508
▁Minn	-11509
▁Nooh	-11510
▁Veer	-11511
▁Wars	-11512
▁gall	-11513
▁prod	-11514
▁twin	-11515
▁wake	-11516
Travel	-11517
itated	-11518
making	-11519
weight	-11520
▁1947,	-11521
▁Abode	-11522
▁Anglo	-11523
▁Const	-11524
▁Rudra	-11525
▁aloud	-11526
▁coinc	-11527
▁drunk	-11528
▁juris	-11529
▁liked	-11530
▁prize	-11531
▁wanna	-11532
▁wheat	-11533
chester	-11534
through	-11535
▁Deputy	-11536
▁Ronnie	-11537
▁Turkey	-11538
▁chaste	-11539
▁erring	-11540
▁misery	-11541
▁overfl	-11542
▁repair	-11543
▁spared	-11544
▁whence	-11545
rondisse	-11546
▁100,000	-11547
▁breathe	-11548
▁doubles	-11549
▁faction	-11550
▁filming	-11551
▁hateful	-11552
▁inflict	-11553
▁portent	-11554
▁resolve	-11555
▁sisters	-11556
▁sounded	-11557
▁tempted	-11558
▁ungodly	-11559
▁accurate	-11560
▁breathed	-11561
▁contrast	-11562
▁currency	-11563
▁delusion	-11564
▁estimate	-11565
▁highways	-11566
▁inclined	-11567
▁invested	-11568
▁sessions	-11569
▁sickness	-11570
▁somewhat	-11571
▁suitable	-11572
▁surprise	-11573
▁swimming	-11574
beneficent	-11575
▁Glorified	-11576
▁Reclining	-11577
▁Similarly	-11578
▁Territory	-11579
▁attracted	-11580
▁construct	-11581
▁preaching	-11582
▁strongest	-11583
▁humiliated	-11584
▁photograph	-11585
▁statements	-11586
▁Sovereignty	-11587
▁cultivation	-11588
▁transferred	-11589
▁Vijayanagara	-11590
▁acknowledged	-11591
▁truthfulness	-11592
▁complications	-11593
LC	-11594
]:	-11595
Put	-11596
nar	-11597
occ	-11598
rad	-11599
▁42	-11600
▁IC	-11601
▁Il	-11602
aple	-11603
assi	-11604
bean	-11605
bery	-11606
issi	-11607
reen	-11608
uine	-11609
ylum	-11610
▁10%	-11611
▁22,	-11612
▁bom	-11613
▁jew	-11614
alone	-11615
hanam	-11616
haran	-11617
itals	-11618
marks	-11619
otted	-11620
produ	-11621
trans	-11622
visor	-11623
▁Balt	-11624
▁Doss	-11625
▁Holl	-11626
▁Jung	-11627
▁Phys	-11628
▁Soft	-11629
▁abol	-11630
▁blog	-11631
▁comr	-11632
▁cook	-11633
▁lady	-11634
▁pand	-11635
▁plun	-11636
▁raid	-11637
▁sect	-11638
▁tens	-11639
Should	-11640
atched	-11641
erring	-11642
illery	-11643
insula	-11644
mother	-11645
ration	-11646
▁Henry	-11647
▁Honor	-11648
▁Laden	-11649
▁Mecca	-11650
▁Radha	-11651
▁Radio	-11652
▁Titan	-11653
▁brows	-11654
▁chick	-11655
▁fatal	-11656
▁filed	-11657
▁greed	-11658
▁prote	-11659
▁seeds	-11660
▁sharp	-11661
▁shore	-11662
▁steal	-11663
▁tough	-11664
▁toxic	-11665
ocrites	-11666
▁Cheras	-11667
▁Father	-11668
▁Recall	-11669
▁breach	-11670
▁caller	-11671
▁canton	-11672
▁dinner	-11673
▁eighth	-11674
▁fisher	-11675
▁phones	-11676
▁pocket	-11677
▁rhythm	-11678
▁strain	-11679
▁traces	-11680
▁traded	-11681
▁tranqu	-11682
▁varied	-11683
▁Blazing	-11684
▁Hanuman	-11685
▁Iranian	-11686
▁Lucknow	-11687
▁Welcome	-11688
▁benefic	-11689
▁centers	-11690
▁hanging	-11691
▁plainly	-11692
▁retinol	-11693
▁routine	-11694
▁statues	-11695
▁travels	-11696
▁variant	-11697
▁consumed	-11698
▁delivers	-11699
▁mightier	-11700
▁operates	-11701
▁respited	-11702
▁seasonal	-11703
▁Navaratri	-11704
▁Ourselves	-11705
▁conferred	-11706
▁defiantly	-11707
▁depressed	-11708
▁furniture	-11709
▁honorable	-11710
▁paintings	-11711
▁photograp	-11712
▁celebrates	-11713
▁convention	-11714
▁reportedly	-11715
▁alternation	-11716
▁considering	-11717
▁grandfather	-11718
▁personality	-11719
▁settlements	-11720
▁transmitted	-11721
":	-11722
An	-11723
ss	-11724
bul	-11725
cal	-11726
cow	-11727
itz	-11728
oto	-11729
qum	-11730
six	-11731
vin	-11732
xim	-11733
▁("	-11734
▁(3	-11735
▁64	-11736
▁cm	-11737
▁ju	-11738
▁la	-11739
Here	-11740
abol	-11741
atra	-11742
hala	-11743
hati	-11744
irst	-11745
ista	-11746
laim	-11747
lity	-11748
mond	-11749
oths	-11750
pled	-11751
prot	-11752
stru	-11753
tion	-11754
wear	-11755
▁120	-11756
▁Ari	-11757
▁Kot	-11758
▁NFL	-11759
▁sep	-11760
▁vel	-11761
about	-11762
ailed	-11763
chery	-11764
hemat	-11765
ilton	-11766
plate	-11767
riers	-11768
stein	-11769
thodo	-11770
▁1940	-11771
▁Barb	-11772
▁Garh	-11773
▁HAVE	-11774
▁HERE	-11775
▁Uday	-11776
▁beds	-11777
▁brid	-11778
▁eats	-11779
▁fare	-11780
▁gene	-11781
▁ther	-11782
friend	-11783
verage	-11784
▁Elect	-11785
▁Kings	-11786
▁Local	-11787
▁Mahan	-11788
▁Mayor	-11789
▁Sahib	-11790
▁Small	-11791
▁Sorry	-11792
▁Tiger	-11793
▁caste	-11794
▁fails	-11795
▁hydro	-11796
▁kills	-11797
▁mayor	-11798
▁veins	-11799
▁width	-11800
Islamic	-11801
onomous	-11802
ustomer	-11803
▁Anyone	-11804
▁Bridge	-11805
▁Native	-11806
▁Sangam	-11807
▁amazed	-11808
▁crafts	-11809
▁finals	-11810
▁hardly	-11811
▁lesser	-11812
▁oppose	-11813
▁tyrant	-11814
▁upside	-11815
ificence	-11816
▁Forgive	-11817
▁Purnima	-11818
▁Station	-11819
▁acclaim	-11820
▁amazing	-11821
▁decimal	-11822
▁drought	-11823
▁elderly	-11824
▁forbade	-11825
▁forgave	-11826
▁offense	-11827
▁operate	-11828
▁outstri	-11829
▁shining	-11830
▁singers	-11831
▁surname	-11832
▁victors	-11833
▁wouldst	-11834
Therefore	-11835
ationally	-11836
▁Decision	-11837
▁Security	-11838
▁Srinagar	-11839
▁devising	-11840
▁elevated	-11841
▁mathemat	-11842
▁monument	-11843
▁numbered	-11844
▁peaceful	-11845
▁plotting	-11846
▁resolved	-11847
▁rhythmic	-11848
▁Currently	-11849
▁Depending	-11850
▁Different	-11851
▁Professor	-11852
▁awareness	-11853
▁consisted	-11854
▁incumbent	-11855
▁offensive	-11856
▁recovered	-11857
▁suspected	-11858
▁universal	-11859
▁abundantly	-11860
▁aggression	-11861
▁comparison	-11862
▁electronic	-11863
▁historians	-11864
▁withdrawal	-11865
▁antibiotics	-11866
▁certificate	-11867
▁discontinued	-11868
▁manufacturing	-11869
!-	-11870
";	-11871
46	-11872
CH	-11873
DA	-11874
Fi	-11875
Un	-11876
aa	-11877
ae	-11878
TER	-11879
].’	-11880
eal	-11881
iji	-11882
izz	-11883
odh	-11884
▁51	-11885
▁BA	-11886
▁Du	-11887
erts	-11888
ghed	-11889
harm	-11890
ihad	-11891
ikes	-11892
imet	-11893
oded	-11894
ogen	-11895
utan	-11896
▁Bak	-11897
▁Eid	-11898
▁Fre	-11899
▁Gul	-11900
▁Hem	-11901
▁Lie	-11902
▁Taj	-11903
▁ali	-11904
▁fel	-11905
▁org	-11906
▁vac	-11907
allik	-11908
great	-11909
happy	-11910
oever	-11911
payee	-11912
tical	-11913
▁1900	-11914
▁Arts	-11915
▁Bull	-11916
▁Into	-11917
▁Plus	-11918
▁Tirt	-11919
▁calc	-11920
▁cann	-11921
▁mend	-11922
▁mood	-11923
▁neut	-11924
ibbean	-11925
inking	-11926
uction	-11927
▁1992.	-11928
▁Click	-11929
▁Gujar	-11930
▁Nanda	-11931
▁Samaj	-11932
▁THERE	-11933
▁bonds	-11934
▁chrom	-11935
▁deriv	-11936
▁heter	-11937
▁hired	-11938
▁loyal	-11939
▁semen	-11940
▁sixty	-11941
▁treas	-11942
▁uncom	-11943
▁yards	-11944
osition	-11945
▁10,000	-11946
▁Amrits	-11947
▁Odissi	-11948
▁Sholay	-11949
▁agency	-11950
▁canopy	-11951
▁copies	-11952
▁crores	-11953
▁kindly	-11954
▁prodig	-11955
▁talent	-11956
▁undert	-11957
keyboard	-11958
▁Brother	-11959
▁Finally	-11960
▁Lakshmi	-11961
▁Records	-11962
▁amateur	-11963
▁anxiety	-11964
▁beating	-11965
▁beliefs	-11966
▁bondman	-11967
▁cheaper	-11968
▁demands	-11969
▁drivers	-11970
▁furious	-11971
▁ignored	-11972
▁notably	-11973
▁panchay	-11974
▁substit	-11975
▁Portugal	-11976
▁Religion	-11977
▁Tropical	-11978
▁collapse	-11979
▁constitu	-11980
▁contrary	-11981
▁disheart	-11982
▁interact	-11983
▁minority	-11984
▁operated	-11985
▁practise	-11986
▁triangle	-11987
▁Francisco	-11988
▁Initially	-11989
▁justified	-11990
▁objective	-11991
▁perpetual	-11992
▁slaughter	-11993
▁struggled	-11994
▁variation	-11995
▁Eventually	-11996
▁brightness	-11997
▁percentage	-11998
▁ulcerative	-11999
▁disgraceful	-12000
▁increasingly	-12001
-0	-12002
29	-12003
:"	-12004
IE	-12005
PS	-12006
bec	-12007
bes	-12008
lle	-12009
wed	-12010
▁74	-12011
▁OH	-12012
▁mm	-12013
▁ox	-12014
avor	-12015
eras	-12016
hali	-12017
icut	-12018
mala	-12019
mish	-12020
moil	-12021
neum	-12022
rani	-12023
▁25,	-12024
▁29,	-12025
▁Ast	-12026
▁IOC	-12027
▁Lax	-12028
▁Mak	-12029
▁Tux	-12030
atiya	-12031
icate	-12032
irect	-12033
▁1987	-12034
▁Hend	-12035
▁Ours	-12036
▁Puja	-12037
▁bats	-12038
▁buff	-12039
▁corp	-12040
▁heap	-12041
▁obsc	-12042
▁roll	-12043
▁slip	-12044
▁tomb	-12045
▁toys	-12046
accept	-12047
ailing	-12048
ington	-12049
necked	-12050
seless	-12051
▁Bhatt	-12052
▁Burma	-12053
▁Grant	-12054
▁Guide	-12055
▁Saudi	-12056
▁buses	-12057
▁deter	-12058
▁drops	-12059
▁excav	-12060
▁excel	-12061
▁hives	-12062
▁kidna	-12063
▁mouse	-12064
▁outer	-12065
▁posts	-12066
▁steel	-12067
▁surge	-12068
▁theme	-12069
avarman	-12070
ivities	-12071
largest	-12072
pective	-12073
theless	-12074
▁Centre	-12075
▁Conlon	-12076
▁Martin	-12077
▁Philad	-12078
▁aileth	-12079
▁asylum	-12080
▁cooked	-12081
▁cousin	-12082
▁cradle	-12083
▁dishon	-12084
▁facial	-12085
▁flames	-12086
▁gender	-12087
▁impose	-12088
▁ingred	-12089
▁shades	-12090
▁studio	-12091
▁transf	-12092
ifestyle	-12093
powerful	-12094
▁Android	-12095
▁Belgium	-12096
▁Kalinga	-12097
▁Turkish	-12098
▁Warning	-12099
▁annihil	-12100
▁endemic	-12101
▁erected	-12102
▁garment	-12103
▁haughty	-12104
▁hearken	-12105
▁immense	-12106
▁library	-12107
▁mixture	-12108
▁pouring	-12109
▁qualify	-12110
▁reverse	-12111
▁secured	-12112
▁shifted	-12113
▁shortly	-12114
▁turmoil	-12115
▁whereby	-12116
▁whisper	-12117
ropolitan	-12118
sequently	-12119
▁Democrat	-12120
▁Hospital	-12121
▁checking	-12122
▁composer	-12123
▁controls	-12124
▁decisive	-12125
▁external	-12126
▁iniquity	-12127
▁kingship	-12128
▁lifeless	-12129
▁opposing	-12130
▁petition	-12131
▁recovery	-12132
▁Caribbean	-12133
▁Chalukyas	-12134
▁amusement	-12135
▁apartment	-12136
▁calculate	-12137
▁cancelled	-12138
▁conceived	-12139
▁contained	-12140
▁dispersed	-12141
▁favourite	-12142
▁involving	-12143
▁overtakes	-12144
▁privately	-12145
▁satellite	-12146
▁Originator	-12147
▁Scriptures	-12148
▁atmosphere	-12149
▁eliminated	-12150
▁reputation	-12151
▁habitations	-12152
▁ingratitude	-12153
▁politicians	-12154
▁commissioned	-12155
▁significance	-12156
66	-12157
nk	-12158
sa	-12159
aga	-12160
kur	-12161
▁72	-12162
▁AL	-12163
▁Ce	-12164
▁Ep	-12165
▁Ud	-12166
▁Um	-12167
▁Uz	-12168
aris	-12169
aser	-12170
atin	-12171
bour	-12172
irus	-12173
keys	-12174
nigh	-12175
prof	-12176
tree	-12177
udge	-12178
want	-12179
▁12.	-12180
▁16,	-12181
▁30,	-12182
▁Ans	-12183
▁NOT	-12184
▁Non	-12185
▁Rio	-12186
▁TED	-12187
▁oft	-12188
▁tag	-12189
esome	-12190
ijing	-12191
inger	-12192
itous	-12193
orian	-12194
ouins	-12195
stery	-12196
ullah	-12197
▁1930	-12198
▁1981	-12199
▁Cult	-12200
▁Kuch	-12201
▁Math	-12202
▁Mizo	-12203
▁Sard	-12204
▁Seek	-12205
▁Song	-12206
▁Vice	-12207
▁bord	-12208
▁desk	-12209
▁dign	-12210
▁gest	-12211
▁tale	-12212
Father	-12213
bridge	-12214
elphia	-12215
minded	-12216
ortion	-12217
resist	-12218
spread	-12219
▁1998,	-12220
▁Brown	-12221
▁Chhat	-12222
▁Ganes	-12223
▁Saint	-12224
▁Sindh	-12225
▁Surya	-12226
▁aston	-12227
▁bands	-12228
▁brown	-12229
▁disqu	-12230
▁explo	-12231
▁fract	-12232
▁hasty	-12233
▁ideal	-12234
▁lunar	-12235
▁lusts	-12236
▁numer	-12237
▁orbit	-12238
▁prone	-12239
▁roast	-12240
▁veloc	-12241
▁waxed	-12242
amental	-12243
cerning	-12244
ologist	-12245
▁Cities	-12246
▁Desert	-12247
▁Minnes	-12248
▁Modern	-12249
▁franch	-12250
▁harmon	-12251
▁hemorr	-12252
▁honest	-12253
▁losses	-12254
▁parish	-12255
▁premie	-12256
▁rebels	-12257
▁rivals	-12258
▁trauma	-12259
▁wasted	-12260
▁wholly	-12261
▁wrongs	-12262
▁youths	-12263
cendants	-12264
▁Bijapur	-12265
▁Chelsea	-12266
▁Netball	-12267
▁Praised	-12268
▁Sangmin	-12269
▁Tibetan	-12270
▁bargain	-12271
▁capable	-12272
▁carrier	-12273
▁compare	-12274
▁fertile	-12275
▁genuine	-12276
▁invents	-12277
▁kinsmen	-12278
▁letting	-12279
▁noticed	-12280
▁passion	-12281
▁pillars	-12282
▁profile	-12283
▁ranking	-12284
▁roughly	-12285
▁seventy	-12286
▁sharing	-12287
▁spirits	-12288
▁tetanus	-12289
eneration	-12290
▁Agricult	-12291
▁Amritsar	-12292
▁Computer	-12293
▁Likewise	-12294
▁Vaishnav	-12295
▁foremost	-12296
▁incurred	-12297
▁intimate	-12298
▁protects	-12299
▁relevant	-12300
▁Transport	-12301
▁accompany	-12302
▁decreased	-12303
▁democracy	-12304
▁expecting	-12305
▁penalties	-12306
▁procedure	-12307
▁standards	-12308
▁traveling	-12309
▁Conference	-12310
▁appreciate	-12311
▁calculated	-12312
▁politician	-12313
▁procession	-12314
▁Descendants	-12315
▁controversy	-12316
▁influential	-12317
▁substantial	-12318
▁Philadelphia	-12319
▁Professional	-12320
▁announcement	-12321
▁predominantly	-12322
▁archaeological	-12323
UR	-12324
ei	-12325
bia	-12326
cin	-12327
iro	-12328
kum	-12329
▁56	-12330
▁Ni	-12331
▁Om	-12332
▁PR	-12333
▁Rs	-12334
▁dw	-12335
Iesa	-12336
Qarn	-12337
acks	-12338
acle	-12339
aret	-12340
gins	-12341
iano	-12342
norm	-12343
osom	-12344
▁23,	-12345
▁27,	-12346
▁3.5	-12347
▁800	-12348
▁Dra	-12349
▁Exe	-12350
▁Mom	-12351
▁NHL	-12352
▁Tre	-12353
▁Web	-12354
▁ski	-12355
▁vul	-12356
Aware	-12357
afsir	-12358
aqqum	-12359
athed	-12360
▁1977	-12361
▁1989	-12362
▁Bose	-12363
▁Dhan	-12364
▁FIDE	-12365
▁Madh	-12366
▁Rand	-12367
▁Same	-12368
▁horn	-12369
▁hymn	-12370
▁lust	-12371
▁mole	-12372
▁pert	-12373
▁phen	-12374
▁slop	-12375
▁suit	-12376
▁swar	-12377
▁unle	-12378
ifully	-12379
▁Build	-12380
▁Dhoni	-12381
▁Leban	-12382
▁Swiss	-12383
▁Wrath	-12384
▁abhor	-12385
▁ashes	-12386
▁dirty	-12387
▁hypot	-12388
▁incom	-12389
▁purer	-12390
▁renow	-12391
▁strat	-12392
▁stuck	-12393
Chapter	-12394
grimage	-12395
▁Madyan	-12396
▁Meitei	-12397
▁Moscow	-12398
▁Motors	-12399
▁Persia	-12400
▁Sarasw	-12401
▁autism	-12402
▁devoid	-12403
▁gently	-12404
▁hollow	-12405
▁junior	-12406
▁photos	-12407
▁reconc	-12408
▁spaces	-12409
▁string	-12410
▁sunset	-12411
▁thrust	-12412
▁weekly	-12413
▁writes	-12414
achariah	-12415
▁Madurai	-12416
▁briefly	-12417
▁causeth	-12418
▁closest	-12419
▁compact	-12420
▁counted	-12421
▁cycling	-12422
▁descent	-12423
▁fifteen	-12424
▁fitting	-12425
▁guiding	-12426
▁kindred	-12427
▁pastime	-12428
▁plateau	-12429
▁pretend	-12430
▁stating	-12431
▁strives	-12432
▁thieves	-12433
▁turneth	-12434
▁venture	-12435
mnipotent	-12436
▁Actually	-12437
▁Benjamin	-12438
▁airports	-12439
▁boastful	-12440
▁diabetes	-12441
▁hectares	-12442
▁integral	-12443
▁midfield	-12444
▁retained	-12445
▁sections	-12446
▁Minnesota	-12447
▁disgraced	-12448
▁entrusted	-12449
▁insolence	-12450
▁particles	-12451
▁Manchester	-12452
▁components	-12453
▁flourished	-12454
▁forbearing	-12455
▁straitened	-12456
▁supplicate	-12457
▁abomination	-12458
▁disappeared	-12459
▁instruction	-12460
▁Independence	-12461
▁associations	-12462
▁compensation	-12463
49	-12464
55	-12465
AL	-12466
BI	-12467
MI	-12468
Aad	-12469
Can	-12470
UST	-12471
aar	-12472
eev	-12473
idi	-12474
iki	-12475
iti	-12476
▁68	-12477
▁9.	-12478
▁fi	-12479
Mary	-12480
addy	-12481
bage	-12482
ccer	-12483
ette	-12484
gaon	-12485
hist	-12486
holm	-12487
iang	-12488
iser	-12489
isht	-12490
khar	-12491
phew	-12492
uddy	-12493
veri	-12494
zhik	-12495
▁168	-12496
▁Fif	-12497
▁GON	-12498
▁Hyd	-12499
▁Imm	-12500
▁Muj	-12501
▁Ott	-12502
▁Rav	-12503
▁Run	-12504
▁Tap	-12505
▁aug	-12506
▁cyl	-12507
▁dub	-12508
▁jam	-12509
▁mph	-12510
▁odd	-12511
amese	-12512
andal	-12513
arked	-12514
ckets	-12515
cular	-12516
fight	-12517
grade	-12518
idian	-12519
junct	-12520
ureau	-12521
▁1983	-12522
▁Cand	-12523
▁Horn	-12524
▁Huss	-12525
▁Stat	-12526
▁Talk	-12527
▁Upan	-12528
▁mamm	-12529
▁stim	-12530
▁stom	-12531
▁thro	-12532
▁vent	-12533
▁wate	-12534
▁womb	-12535
aditya	-12536
handed	-12537
igible	-12538
should	-12539
usalem	-12540
▁1997.	-12541
▁Arena	-12542
▁Begum	-12543
▁Brian	-12544
▁Error	-12545
▁Hence	-12546
▁Kutch	-12547
▁Lohri	-12548
▁Tunis	-12549
▁Using	-12550
▁acres	-12551
▁arose	-12552
▁borne	-12553
▁chore	-12554
▁cloth	-12555
▁creed	-12556
▁draft	-12557
▁intra	-12558
▁loads	-12559
▁noise	-12560
▁plate	-12561
▁siege	-12562
▁stays	-12563
quality	-12564
▁Alaska	-12565
▁Family	-12566
▁Munich	-12567
▁Psalms	-12568
▁Viktor	-12569
▁academ	-12570
▁detest	-12571
▁devast	-12572
▁devise	-12573
▁dynast	-12574
▁filmed	-12575
▁nephew	-12576
▁output	-12577
▁resign	-12578
▁shrine	-12579
▁weaker	-12580
ardoning	-12581
ervative	-12582
▁Chittor	-12583
▁Gayatri	-12584
▁Mauryan	-12585
▁Taliban	-12586
▁anybody	-12587
▁approve	-12588
▁benevol	-12589
▁closing	-12590
▁excited	-12591
▁factory	-12592
▁forming	-12593
▁grossed	-12594
▁gymnast	-12595
▁heading	-12596
▁listens	-12597
▁masters	-12598
▁mortals	-12599
▁mounted	-12600
▁receipt	-12601
▁recline	-12602
▁retinal	-12603
▁roasted	-12604
▁royalty	-12605
▁slaying	-12606
▁snooker	-12607
▁sparing	-12608
▁strokes	-12609
▁wrapped	-12610
allikattu	-12611
▁Gujarati	-12612
▁conquest	-12613
▁focusing	-12614
▁prevents	-12615
▁proteins	-12616
▁relation	-12617
▁reproach	-12618
▁studying	-12619
▁suppress	-12620
▁Authority	-12621
▁Treatment	-12622
▁artillery	-12623
▁breathing	-12624
▁constrain	-12625
▁defending	-12626
▁disputing	-12627
▁exercises	-12628
▁promotion	-12629
▁searching	-12630
▁similarly	-12631
▁sustained	-12632
▁auspicious	-12633
▁conversion	-12634
▁provincial	-12635
▁references	-12636
▁approaching	-12637
▁consumption	-12638
▁Commissioner	-12639
Se	-12640
vy	-12641
arb	-12642
bat	-12643
cel	-12644
din	-12645
don	-12646
sex	-12647
two	-12648
zed	-12649
zes	-12650
▁38	-12651
▁BS	-12652
▁DV	-12653
Musa	-12654
agan	-12655
aren	-12656
ilah	-12657
mini	-12658
plus	-12659
pton	-12660
sent	-12661
ushu	-12662
vara	-12663
viol	-12664
▁600	-12665
▁ALL	-12666
▁Aks	-12667
▁Aul	-12668
▁Boy	-12669
▁Hai	-12670
▁Hot	-12671
▁Hun	-12672
▁Low	-12673
▁Mew	-12674
▁SCI	-12675
▁Tog	-12676
▁ark	-12677
▁clo	-12678
▁pup	-12679
▁rig	-12680
▁spy	-12681
ateth	-12682
child	-12683
ester	-12684
idays	-12685
ipudi	-12686
ogues	-12687
style	-12688
▁Corn	-12689
▁Kaur	-12690
▁Kell	-12691
▁Mant	-12692
▁Mike	-12693
▁Prix	-12694
▁Read	-12695
▁Seer	-12696
▁Sita	-12697
▁apps	-12698
▁bags	-12699
▁cush	-12700
▁fict	-12701
▁gaze	-12702
▁grab	-12703
▁illa	-12704
▁knot	-12705
▁lect	-12706
▁ours	-12707
▁summ	-12708
▁tent	-12709
▁tone	-12710
▁unne	-12711
▁vice	-12712
gnosis	-12713
nessee	-12714
ulates	-12715
▁Blood	-12716
▁Daily	-12717
▁Field	-12718
▁Lower	-12719
▁Mahat	-12720
▁Zakat	-12721
▁audio	-12722
▁beast	-12723
▁burnt	-12724
▁coats	-12725
▁cocon	-12726
▁crack	-12727
▁fauna	-12728
▁fleet	-12729
▁forge	-12730
▁fraud	-12731
▁input	-12732
▁khyal	-12733
▁lunch	-12734
▁melod	-12735
▁raids	-12736
▁reass	-12737
▁rooms	-12738
▁spite	-12739
▁subur	-12740
▁voted	-12741
▁warns	-12742
▁wheel	-12743
amation	-12744
casting	-12745
halasse	-12746
jeeling	-12747
zhikode	-12748
▁Hidden	-12749
▁Injeel	-12750
▁Severe	-12751
▁eldest	-12752
▁guitar	-12753
▁proxim	-12754
▁repose	-12755
▁rounds	-12756
▁shapes	-12757
▁Clement	-12758
▁Connect	-12759
▁Khurram	-12760
▁Meeting	-12761
▁Parvati	-12762
▁Society	-12763
▁acceler	-12764
▁clarify	-12765
▁crucify	-12766
▁customs	-12767
▁dressed	-12768
▁expound	-12769
▁grieved	-12770
▁laughed	-12771
▁mustard	-12772
▁portray	-12773
▁regards	-12774
▁thrones	-12775
▁trailer	-12776
▁Speedway	-12777
▁Williams	-12778
▁advocate	-12779
▁captives	-12780
▁creative	-12781
▁creators	-12782
▁displays	-12783
▁disposed	-12784
▁fragment	-12785
▁infantry	-12786
▁mainland	-12787
▁managing	-12788
▁purifies	-12789
▁unnecess	-12790
▁velocity	-12791
▁Kozhikode	-12792
▁Saraswati	-12793
▁Tennessee	-12794
▁basically	-12795
▁competent	-12796
▁concluded	-12797
▁deserving	-12798
▁inherited	-12799
▁legendary	-12800
▁mortality	-12801
▁reprieved	-12802
▁suspicion	-12803
▁Acquainted	-12804
▁Queensland	-12805
▁accountant	-12806
▁criticized	-12807
▁devotional	-12808
▁habitation	-12809
▁infectious	-12810
▁influences	-12811
▁perception	-12812
▁resolution	-12813
▁volleyball	-12814
▁celebrating	-12815
▁examination	-12816
▁legislative	-12817
▁considerable	-12818
▁contribution	-12819
▁difficulties	-12820
▁requirements	-12821
▁Traditionally	-12822
▁organisations	-12823
38	-12824
48	-12825
Re	-12826
)!"	-12827
cod	-12828
hah	-12829
jid	-12830
oes	-12831
▁(%	-12832
▁AI	-12833
'...	-12834
abai	-12835
greg	-12836
ifer	-12837
sell	-12838
umed	-12839
▁10.	-12840
▁170	-12841
▁179	-12842
▁700	-12843
▁Cle	-12844
▁Dun	-12845
▁Fox	-12846
▁Gen	-12847
▁Inv	-12848
▁Lew	-12849
▁Log	-12850
▁Rai	-12851
▁Wil	-12852
▁spl	-12853
▁tab	-12854
farer	-12855
gence	-12856
igers	-12857
inite	-12858
oused	-12859
point	-12860
scale	-12861
tingu	-12862
▁1920	-12863
▁1972	-12864
▁1991	-12865
▁Badr	-12866
▁Bhat	-12867
▁Dest	-12868
▁GCom	-12869
▁Hari	-12870
▁Kill	-12871
▁Maya	-12872
▁Shir	-12873
▁Vill	-12874
▁drum	-12875
▁fake	-12876
▁knee	-12877
▁leaf	-12878
▁mang	-12879
▁omen	-12880
▁scor	-12881
▁sear	-12882
People	-12883
Tafsir	-12884
iputra	-12885
owered	-12886
prings	-12887
seeing	-12888
strong	-12889
things	-12890
thodox	-12891
uaries	-12892
▁1995,	-12893
▁1997,	-12894
▁Bhans	-12895
▁Bruce	-12896
▁Chris	-12897
▁Magog	-12898
▁Mahad	-12899
▁Mohan	-12900
▁Ratan	-12901
▁Short	-12902
▁Timur	-12903
▁beats	-12904
▁booty	-12905
▁clock	-12906
▁curve	-12907
▁derby	-12908
▁exams	-12909
▁lists	-12910
▁membr	-12911
▁moist	-12912
▁opens	-12913
▁owing	-12914
▁scorn	-12915
▁smite	-12916
▁squad	-12917
▁topic	-12918
▁vanqu	-12919
▁venue	-12920
▁veter	-12921
▁whist	-12922
artered	-12923
▁Recite	-12924
▁advent	-12925
▁destit	-12926
▁detect	-12927
▁divert	-12928
▁famine	-12929
▁hungry	-12930
▁indoor	-12931
▁neglig	-12932
▁plight	-12933
▁pursue	-12934
▁spices	-12935
▁squash	-12936
▁stoned	-12937
▁traced	-12938
▁triump	-12939
▁Beijing	-12940
▁Greater	-12941
▁Snooker	-12942
▁brocade	-12943
▁chances	-12944
▁doubted	-12945
▁episode	-12946
▁extingu	-12947
▁fatigue	-12948
▁goblets	-12949
▁grocery	-12950
▁hostile	-12951
▁lesions	-12952
▁refuses	-12953
▁stomach	-12954
▁submits	-12955
abilities	-12956
▁Bhansali	-12957
▁GCompris	-12958
▁Lacrosse	-12959
▁Reliance	-12960
▁culprits	-12961
▁desiring	-12962
▁facility	-12963
▁isolated	-12964
▁laughing	-12965
▁performs	-12966
▁rendered	-12967
▁restrict	-12968
▁strongly	-12969
▁traveled	-12970
▁watchful	-12971
▁Hollywood	-12972
▁Kuchipudi	-12973
▁batteries	-12974
▁confident	-12975
▁elaborate	-12976
▁emigrated	-12977
▁estimates	-12978
▁inflicted	-12979
▁narrative	-12980
▁perfected	-12981
▁promoting	-12982
▁townships	-12983
▁Scientists	-12984
▁accomplish	-12985
▁acquainted	-12986
▁aggressive	-12987
▁corrupters	-12988
▁expedition	-12989
▁prosperous	-12990
▁respective	-12991
▁transition	-12992
▁calculation	-12993
▁munificence	-12994
▁restaurants	-12995
▁similitudes	-12996
▁predecessors	-12997
▁unsuccessful	-12998
▁consciousness	-12999
▁neighbourhood	-13000
▁precipitation	-13001
%,	-13002
37	-13003
Or	-13004
fi	-13005
”,	-13006
400	-13007
ahl	-13008
hak	-13009
ige	-13010
lli	-13011
nda	-13012
sis	-13013
▁46	-13014
▁49	-13015
▁55	-13016
▁Yu	-13017
boat	-13018
ctic	-13019
eman	-13020
riti	-13021
rown	-13022
thur	-13023
wani	-13024
▁160	-13025
▁Cir	-13026
▁Dae	-13027
▁Dim	-13028
▁Gog	-13029
▁Gor	-13030
▁Gun	-13031
▁Haz	-13032
▁Joe	-13033
▁Lib	-13034
▁Mam	-13035
▁Mer	-13036
▁Mut	-13037
▁Raw	-13038
▁Tus	-13039
▁Zam	-13040
▁adm	-13041
▁gur	-13042
▁lip	-13043
▁rif	-13044
▁scr	-13045
▁vot	-13046
athon	-13047
crete	-13048
eling	-13049
green	-13050
igate	-13051
storm	-13052
udios	-13053
umble	-13054
worth	-13055
ystem	-13056
▁1979	-13057
▁1982	-13058
▁Anim	-13059
▁Frie	-13060
▁Head	-13061
▁OKAY	-13062
▁Poly	-13063
▁Sach	-13064
▁anch	-13065
▁carp	-13066
▁epid	-13067
▁feud	-13068
▁gran	-13069
▁hues	-13070
▁menu	-13071
▁pays	-13072
▁rear	-13073
▁symp	-13074
▁tape	-13075
▁vile	-13076
▁yeah	-13077
ardons	-13078
enment	-13079
erated	-13080
illong	-13081
monary	-13082
▁1984.	-13083
▁1991.	-13084
▁Croat	-13085
▁Khasi	-13086
▁Malwa	-13087
▁Raman	-13088
▁Santa	-13089
▁beque	-13090
▁chron	-13091
▁cinem	-13092
▁defer	-13093
▁guest	-13094
▁irrit	-13095
▁jewel	-13096
▁manip	-13097
▁tanks	-13098
▁tryst	-13099
aculate	-13100
iratory	-13101
reprene	-13102
▁Athlet	-13103
▁Recent	-13104
▁Return	-13105
▁affili	-13106
▁derive	-13107
▁desper	-13108
▁dollar	-13109
▁doomed	-13110
▁export	-13111
▁flocks	-13112
▁jewell	-13113
▁learns	-13114
▁organs	-13115
▁rental	-13116
▁revers	-13117
▁salary	-13118
▁scarce	-13119
▁sepoys	-13120
▁signal	-13121
▁unfair	-13122
▁victim	-13123
▁Actress	-13124
▁Studios	-13125
▁Whereas	-13126
▁anxious	-13127
▁battery	-13128
▁behaved	-13129
▁blocked	-13130
▁captive	-13131
▁casting	-13132
▁conflic	-13133
▁heareth	-13134
▁ingrate	-13135
▁lineage	-13136
▁mammals	-13137
▁unclear	-13138
▁warrior	-13139
▁watered	-13140
▁welfare	-13141
Prostrate	-13142
▁Imperial	-13143
▁Services	-13144
▁Vajpayee	-13145
▁admonish	-13146
▁confined	-13147
▁constell	-13148
▁contempt	-13149
▁coverage	-13150
▁earnings	-13151
▁floating	-13152
▁grandson	-13153
▁immortal	-13154
▁lifetime	-13155
▁pardoned	-13156
▁portions	-13157
▁reliable	-13158
punishment	-13159
▁Executive	-13160
▁Hindustan	-13161
▁extension	-13162
▁floorball	-13163
▁initiated	-13164
▁investors	-13165
▁ownership	-13166
▁preparing	-13167
▁proximity	-13168
▁reduction	-13169
▁rejection	-13170
▁Darjeeling	-13171
▁completion	-13172
▁criticised	-13173
▁darknesses	-13174
▁definition	-13175
▁occupation	-13176
▁travelling	-13177
▁festivities	-13178
▁implemented	-13179
▁involvement	-13180
▁multiplying	-13181
▁partnership	-13182
▁remembering	-13183
▁slaughtered	-13184
▁thunderbolt	-13185
▁municipalities	-13186
▁reconciliation	-13187
42	-13188
Ah	-13189
bi	-13190
Man	-13191
alp	-13192
hot	-13193
inf	-13194
kal	-13195
ukh	-13196
▁58	-13197
▁65	-13198
▁8.	-13199
▁CN	-13200
▁GS	-13201
▁Gy	-13202
hesh	-13203
inah	-13204
ints	-13205
juna	-13206
orer	-13207
plex	-13208
rets	-13209
uram	-13210
▁Cra	-13211
▁FOR	-13212
▁Kak	-13213
▁Ren	-13214
▁Wat	-13215
▁fer	-13216
▁hub	-13217
▁owe	-13218
▁pus	-13219
▁wel	-13220
▁wit	-13221
Jacob	-13222
atyam	-13223
eries	-13224
maker	-13225
onomy	-13226
orted	-13227
ouver	-13228
owers	-13229
raged	-13230
raine	-13231
third	-13232
▁1993	-13233
▁Bhub	-13234
▁Hajj	-13235
▁Kham	-13236
▁Maur	-13237
▁Mill	-13238
▁Nice	-13239
▁Race	-13240
▁Sust	-13241
▁bury	-13242
▁damn	-13243
▁dams	-13244
▁dost	-13245
▁gear	-13246
▁icon	-13247
▁meed	-13248
▁surf	-13249
▁thin	-13250
▁vein	-13251
Hearer	-13252
adashi	-13253
alling	-13254
igated	-13255
rupted	-13256
waters	-13257
▁Armen	-13258
▁Chair	-13259
▁Cross	-13260
▁GONNA	-13261
▁Medic	-13262
▁Motor	-13263
▁Order	-13264
▁Steve	-13265
▁Table	-13266
▁Trump	-13267
▁aimed	-13268
▁baked	-13269
▁beach	-13270
▁cable	-13271
▁moral	-13272
▁ninet	-13273
▁persu	-13274
▁renew	-13275
▁renov	-13276
▁rises	-13277
▁robot	-13278
▁spear	-13279
▁stops	-13280
▁teeth	-13281
▁thorn	-13282
▁viral	-13283
illance	-13284
ulating	-13285
▁Oxford	-13286
▁abnorm	-13287
▁allerg	-13288
▁ambush	-13289
▁apolog	-13290
▁conflu	-13291
▁editor	-13292
▁jurisd	-13293
▁layers	-13294
▁permit	-13295
▁powder	-13296
▁raises	-13297
▁redeem	-13298
▁refund	-13299
▁strang	-13300
▁subdiv	-13301
▁tunnel	-13302
▁vanity	-13303
▁viewed	-13304
▁wounds	-13305
▁Control	-13306
▁Indiana	-13307
▁Johnson	-13308
▁Mankind	-13309
▁Ramadan	-13310
▁cleanse	-13311
▁cleared	-13312
▁comrade	-13313
▁funding	-13314
▁outrage	-13315
▁pardons	-13316
▁removal	-13317
▁thyself	-13318
▁warfare	-13319
▁weeping	-13320
▁whereat	-13321
atanatyam	-13322
▁Austrian	-13323
▁Himachal	-13324
▁attitude	-13325
▁attorney	-13326
▁drainage	-13327
▁educated	-13328
▁maturity	-13329
▁modified	-13330
▁scheming	-13331
▁speakers	-13332
▁stubborn	-13333
▁terminal	-13334
▁wayfarer	-13335
▁Jerusalem	-13336
▁Kathakali	-13337
▁demanding	-13338
▁elevation	-13339
▁hospitals	-13340
▁merchants	-13341
▁presently	-13342
▁surviving	-13343
▁Israelites	-13344
▁discussion	-13345
▁mainstream	-13346
▁nomination	-13347
▁overturned	-13348
▁pronounced	-13349
▁reservoirs	-13350
▁connections	-13351
▁differently	-13352
▁ingredients	-13353
▁replacement	-13354
▁residential	-13355
▁geographical	-13356
▁organisation	-13357
▁Bharatanatyam	-13358
17	-13359
BT	-13360
OD	-13361
OL	-13362
”.	-13363
▁q	-13364
.'"	-13365
:00	-13366
Don	-13367
Has	-13368
IDS	-13369
ION	-13370
aco	-13371
bah	-13372
iry	-13373
pop	-13374
▁"'	-13375
▁53	-13376
▁FR	-13377
▁Gh	-13378
▁SU	-13379
▁UE	-13380
Well	-13381
adha	-13382
arnt	-13383
four	-13384
nath	-13385
oved	-13386
pool	-13387
▁26,	-13388
▁Gal	-13389
▁Gol	-13390
▁Kes	-13391
▁URL	-13392
▁abd	-13393
▁aer	-13394
▁ain	-13395
▁cub	-13396
▁nat	-13397
Truly	-13398
armed	-13399
choma	-13400
cific	-13401
clock	-13402
ether	-13403
front	-13404
indus	-13405
ipher	-13406
rikun	-13407
rious	-13408
ucted	-13409
urbed	-13410
▁1969	-13411
▁1988	-13412
▁1997	-13413
▁Dury	-13414
▁Fred	-13415
▁Hard	-13416
▁Onam	-13417
▁Pala	-13418
▁Pras	-13419
▁Ranj	-13420
▁Shik	-13421
▁Tuls	-13422
▁Vanc	-13423
▁bits	-13424
▁blew	-13425
▁butt	-13426
▁dare	-13427
▁deer	-13428
▁glac	-13429
▁kiss	-13430
▁lapt	-13431
▁luck	-13432
▁math	-13433
▁quad	-13434
▁ster	-13435
ermost	-13436
iation	-13437
opathy	-13438
ptions	-13439
▁1996,	-13440
▁Ashok	-13441
▁Babur	-13442
▁Desai	-13443
▁Ishaq	-13444
▁brill	-13445
▁chaos	-13446
▁depth	-13447
▁downt	-13448
▁fancy	-13449
▁feast	-13450
▁honey	-13451
▁onset	-13452
▁serum	-13453
▁swept	-13454
▁usury	-13455
▁vital	-13456
ascular	-13457
chestra	-13458
itative	-13459
▁Badami	-13460
▁Decree	-13461
▁Kaveri	-13462
▁Mukher	-13463
▁Python	-13464
▁Rajesh	-13465
▁Region	-13466
▁circul	-13467
▁conver	-13468
▁deceit	-13469
▁execut	-13470
▁expose	-13471
▁incred	-13472
▁kidney	-13473
▁landsl	-13474
▁learnt	-13475
▁lovely	-13476
▁loving	-13477
▁merges	-13478
▁revolt	-13479
▁steady	-13480
ferences	-13481
▁Affairs	-13482
▁Jackson	-13483
▁bicycle	-13484
▁blinded	-13485
▁blowing	-13486
▁chamber	-13487
▁classic	-13488
▁congreg	-13489
▁engines	-13490
▁funeral	-13491
▁parking	-13492
▁physics	-13493
▁pledged	-13494
▁scabies	-13495
▁scholar	-13496
▁threats	-13497
▁unclean	-13498
▁uniform	-13499
▁Ministry	-13500
▁Servants	-13501
▁Shillong	-13502
▁artistic	-13503
▁concerts	-13504
▁deafness	-13505
▁destroys	-13506
▁forelock	-13507
▁friendly	-13508
▁holidays	-13509
▁ignominy	-13510
▁meetings	-13511
▁musician	-13512
▁screened	-13513
▁writings	-13514
▁Palestine	-13515
▁Vancouver	-13516
▁befalleth	-13517
▁excepting	-13518
▁hastening	-13519
▁historian	-13520
▁introduce	-13521
▁invasions	-13522
▁migration	-13523
▁restricts	-13524
▁sorcerers	-13525
▁sovereign	-13526
▁teachings	-13527
▁terrorist	-13528
▁beforehand	-13529
▁Independent	-13530
▁Prophethood	-13531
▁acknowledge	-13532
▁necessarily	-13533
▁researchers	-13534
▁unwillingly	-13535
▁Additionally	-13536
▁confederates	-13537
▁historically	-13538
▁incorporated	-13539
▁occasionally	-13540
▁satisfaction	-13541
'?	-13542
47	-13543
?!	-13544
JP	-13545
KF	-13546
jo	-13547
kh	-13548
ns	-13549
Ask	-13550
apa	-13551
div	-13552
gor	-13553
heb	-13554
itr	-13555
vik	-13556
▁43	-13557
▁AT	-13558
▁KN	-13559
▁Ku	-13560
anse	-13561
arts	-13562
avur	-13563
cils	-13564
gone	-13565
high	-13566
ideo	-13567
iked	-13568
illy	-13569
iors	-13570
mans	-13571
mere	-13572
mund	-13573
oles	-13574
ptic	-13575
rine	-13576
umal	-13577
▁(20	-13578
▁11.	-13579
▁24,	-13580
▁Bai	-13581
▁Dew	-13582
▁Ent	-13583
▁Hay	-13584
▁Kav	-13585
▁NAS	-13586
▁Nok	-13587
▁Pas	-13588
▁Rah	-13589
▁Ras	-13590
▁Ref	-13591
▁Tax	-13592
▁WAS	-13593
▁ard	-13594
▁bub	-13595
▁oct	-13596
Enjoy	-13597
Greek	-13598
Throw	-13599
achel	-13600
allas	-13601
apida	-13602
avari	-13603
erers	-13604
iligo	-13605
orski	-13606
ritis	-13607
uffed	-13608
world	-13609
wrong	-13610
▁1978	-13611
▁Dara	-13612
▁Food	-13613
▁Huwa	-13614
▁Jawa	-13615
▁Matt	-13616
▁Pali	-13617
▁Perm	-13618
▁Site	-13619
▁Trav	-13620
▁Vani	-13621
▁anon	-13622
▁anot	-13623
▁auth	-13624
▁dent	-13625
▁doer	-13626
▁fame	-13627
▁fant	-13628
▁maps	-13629
▁nick	-13630
▁puja	-13631
▁puzz	-13632
▁suck	-13633
▁toll	-13634
▁tres	-13635
iduous	-13636
jected	-13637
▁1990.	-13638
▁Chile	-13639
▁Eight	-13640
▁Irish	-13641
▁Kanch	-13642
▁Karam	-13643
▁Leela	-13644
▁Linux	-13645
▁Parsh	-13646
▁RIGHT	-13647
▁Swift	-13648
▁herbs	-13649
▁immun	-13650
▁ische	-13651
▁lamps	-13652
▁mobil	-13653
▁sting	-13654
▁Bhutan	-13655
▁Nepali	-13656
▁Nobody	-13657
▁Search	-13658
▁asleep	-13659
▁bowing	-13660
▁deploy	-13661
▁enthus	-13662
▁exempl	-13663
▁inward	-13664
▁modest	-13665
▁propag	-13666
▁quails	-13667
▁raging	-13668
▁survey	-13669
▁tempor	-13670
▁verify	-13671
▁vulner	-13672
Whatever	-13673
▁bathing	-13674
▁dispens	-13675
▁failing	-13676
▁infants	-13677
▁lighter	-13678
▁painted	-13679
▁singles	-13680
▁tillage	-13681
▁unfaith	-13682
▁Economic	-13683
▁Egyptian	-13684
▁Kashmiri	-13685
▁Military	-13686
▁Montreal	-13687
▁Pallavas	-13688
▁altitude	-13689
▁eligible	-13690
▁findings	-13691
▁interior	-13692
▁interven	-13693
▁obstruct	-13694
▁renowned	-13695
▁resource	-13696
▁trespass	-13697
▁Ahmedabad	-13698
▁affecting	-13699
▁chieftain	-13700
▁collapsed	-13701
▁efficient	-13702
▁exchanged	-13703
▁featuring	-13704
▁perfectly	-13705
▁personnel	-13706
▁perverted	-13707
▁platforms	-13708
▁rehearsed	-13709
▁respected	-13710
▁secretary	-13711
▁swallowed	-13712
▁Lieutenant	-13713
▁completing	-13714
▁helicopter	-13715
▁obligation	-13716
▁prominence	-13717
▁volunteers	-13718
▁appreciated	-13719
▁contributed	-13720
▁predominant	-13721
▁establishing	-13722
▁demonstration	-13723
77	-13724
CP	-13725
bir	-13726
ett	-13727
gil	-13728
hea	-13729
ipe	-13730
lej	-13731
nia	-13732
▁(6	-13733
▁Ju	-13734
▁MW	-13735
▁MY	-13736
Wait	-13737
acco	-13738
agra	-13739
apat	-13740
cler	-13741
dest	-13742
izza	-13743
lime	-13744
olis	-13745
post	-13746
ulse	-13747
usal	-13748
▁Bos	-13749
▁Dog	-13750
▁Key	-13751
▁Qut	-13752
▁Sak	-13753
▁Tho	-13754
▁Tit	-13755
▁Vel	-13756
▁foe	-13757
▁lap	-13758
▁nom	-13759
▁nur	-13760
▁pel	-13761
anmar	-13762
gical	-13763
icity	-13764
ights	-13765
mouth	-13766
ortic	-13767
ukone	-13768
uters	-13769
venue	-13770
▁1947	-13771
▁1964	-13772
▁1985	-13773
▁Chow	-13774
▁Fran	-13775
▁Gill	-13776
▁Kate	-13777
▁Lamb	-13778
▁Pope	-13779
▁Shak	-13780
▁Trib	-13781
▁Vall	-13782
▁Walk	-13783
▁arra	-13784
▁bike	-13785
▁bold	-13786
▁golf	-13787
▁lend	-13788
▁lips	-13789
▁nour	-13790
▁pile	-13791
▁reun	-13792
▁void	-13793
arshan	-13794
esters	-13795
estyle	-13796
indeed	-13797
▁Beach	-13798
▁Clive	-13799
▁Dance	-13800
▁Patal	-13801
▁Saleh	-13802
▁Serve	-13803
▁Seven	-13804
▁ample	-13805
▁arise	-13806
▁beget	-13807
▁belly	-13808
▁chari	-13809
▁cruel	-13810
▁dwelt	-13811
▁faire	-13812
▁farms	-13813
▁index	-13814
▁lined	-13815
▁pierc	-13816
▁preca	-13817
▁prest	-13818
▁risks	-13819
▁roofs	-13820
▁rugby	-13821
▁surah	-13822
▁tract	-13823
▁usage	-13824
▁votes	-13825
▁zones	-13826
general	-13827
itivity	-13828
uscript	-13829
▁Auliya	-13830
▁Greeks	-13831
▁Indies	-13832
▁Mandir	-13833
▁Mongol	-13834
▁Nazare	-13835
▁Romans	-13836
▁Select	-13837
▁Travel	-13838
▁adhere	-13839
▁barred	-13840
▁dealer	-13841
▁exempt	-13842
▁insane	-13843
▁legacy	-13844
▁madman	-13845
▁physic	-13846
▁posted	-13847
▁versus	-13848
resoever	-13849
▁Century	-13850
▁Federal	-13851
▁Ganesha	-13852
▁Karachi	-13853
▁Members	-13854
▁Nigeria	-13855
▁Science	-13856
▁circuit	-13857
▁crystal	-13858
▁favored	-13859
▁heralds	-13860
▁inspire	-13861
▁leather	-13862
▁mineral	-13863
▁outcast	-13864
▁rejects	-13865
▁rivalry	-13866
▁shaking	-13867
▁violate	-13868
▁Padukone	-13869
▁accursed	-13870
▁awaiting	-13871
▁befallen	-13872
▁colonies	-13873
▁comments	-13874
▁defended	-13875
▁exceeded	-13876
▁finances	-13877
▁junction	-13878
▁keyboard	-13879
▁midnight	-13880
▁password	-13881
▁prompted	-13882
▁variable	-13883
▁Louisiana	-13884
▁Righteous	-13885
▁advertise	-13886
▁alcoholic	-13887
▁chemicals	-13888
▁comprises	-13889
▁crucified	-13890
▁discussed	-13891
▁generated	-13892
▁lifestyle	-13893
▁possesses	-13894
▁prevalent	-13895
▁producers	-13896
▁revealing	-13897
▁synthesis	-13898
▁traveller	-13899
▁treadmill	-13900
▁Jalaluddin	-13901
▁Presidency	-13902
▁Revelation	-13903
▁assumption	-13904
▁casualties	-13905
▁diplomatic	-13906
▁excellence	-13907
▁formations	-13908
▁impressive	-13909
▁inevitable	-13910
▁infidelity	-13911
▁initiative	-13912
▁travellers	-13913
▁waterfalls	-13914
▁wickedness	-13915
▁accountable	-13916
▁competitors	-13917
▁extensively	-13918
▁foundations	-13919
▁monasteries	-13920
▁prophethood	-13921
▁specialized	-13922
▁subsistence	-13923
▁uncertainty	-13924
▁unfortunate	-13925
▁apprehensive	-13926
▁consolidated	-13927
▁hypocritical	-13928
▁transgresses	-13929
Am	-13930
Ma	-13931
Mo	-13932
amy	-13933
bye	-13934
mph	-13935
ool	-13936
orp	-13937
ulg	-13938
▁SE	-13939
▁Ts	-13940
acre	-13941
ados	-13942
avid	-13943
city	-13944
cuss	-13945
emen	-13946
have	-13947
iece	-13948
keep	-13949
offs	-13950
olar	-13951
orus	-13952
roph	-13953
rous	-13954
than	-13955
thus	-13956
ucks	-13957
ukki	-13958
untu	-13959
▁110	-13960
▁21,	-13961
▁Bud	-13962
▁Dhu	-13963
▁Fat	-13964
▁Nil	-13965
▁Num	-13966
▁Tab	-13967
▁Yaj	-13968
▁une	-13969
▁vag	-13970
Power	-13971
atore	-13972
ideth	-13973
iracy	-13974
onder	-13975
perse	-13976
poser	-13977
ussis	-13978
vable	-13979
▁1956	-13980
▁1967	-13981
▁Chin	-13982
▁Cuba	-13983
▁Hait	-13984
▁Hara	-13985
▁Hope	-13986
▁Kara	-13987
▁Koll	-13988
▁Lind	-13989
▁Note	-13990
▁Padm	-13991
▁Pant	-13992
▁Sony	-13993
▁Tree	-13994
▁UEFA	-13995
▁ally	-13996
▁audi	-13997
▁beta	-13998
▁cure	-13999
▁erad	-14000
▁gram	-14001
▁grey	-14002
▁null	-14003
▁pink	-14004
Rahman	-14005
Strike	-14006
arrass	-14007
ashing	-14008
asters	-14009
eshwar	-14010
minent	-14011
teenth	-14012
▁1996.	-14013
▁2002,	-14014
▁Anita	-14015
▁Clark	-14016
▁Jains	-14017
▁Jassi	-14018
▁Karwa	-14019
▁Mewar	-14020
▁Prior	-14021
▁Storm	-14022
▁Throw	-14023
▁bunch	-14024
▁facil	-14025
▁grasp	-14026
▁loses	-14027
▁obser	-14028
▁plent	-14029
▁procl	-14030
▁strip	-14031
▁vigil	-14032
▁wider	-14033
adation	-14034
between	-14035
inating	-14036
sticerc	-14037
taining	-14038
▁Agency	-14039
▁Create	-14040
▁Howard	-14041
▁Kartik	-14042
▁Nagpur	-14043
▁Number	-14044
▁Rivers	-14045
▁Swamin	-14046
▁Taiwan	-14047
▁abject	-14048
▁append	-14049
▁attach	-14050
▁corpse	-14051
▁enable	-14052
▁glance	-14053
▁heated	-14054
▁melody	-14055
▁snatch	-14056
▁surviv	-14057
▁thence	-14058
▁volcan	-14059
▁wholes	-14060
ologists	-14061
omething	-14062
ustrious	-14063
▁Envelop	-14064
▁Jawahar	-14065
▁Lebanon	-14066
▁Wherein	-14067
▁angered	-14068
▁authors	-14069
▁booking	-14070
▁cameras	-14071
▁carpets	-14072
▁citizen	-14073
▁courier	-14074
▁defects	-14075
▁deviate	-14076
▁endured	-14077
▁farther	-14078
▁feareth	-14079
▁joining	-14080
▁manages	-14081
▁moments	-14082
▁netball	-14083
▁printed	-14084
▁recital	-14085
▁remorse	-14086
▁servers	-14087
▁silence	-14088
▁staring	-14089
▁tangent	-14090
▁thyroid	-14091
▁tornado	-14092
▁whither	-14093
▁wonders	-14094
▁Glorious	-14095
▁Navorski	-14096
▁concrete	-14097
▁confront	-14098
▁defiance	-14099
▁disobeys	-14100
▁eternity	-14101
▁impugned	-14102
▁repented	-14103
▁spacious	-14104
▁withheld	-14105
▁Generally	-14106
▁Mukherjee	-14107
▁compelled	-14108
▁contested	-14109
▁declining	-14110
▁descended	-14111
▁discovery	-14112
▁economics	-14113
▁equitable	-14114
▁evolution	-14115
▁followeth	-14116
▁hostility	-14117
▁indicated	-14118
▁journeyed	-14119
▁mechanism	-14120
▁medicines	-14121
▁populated	-14122
▁pronounce	-14123
▁screening	-14124
▁sensitive	-14125
▁strategic	-14126
▁collecting	-14127
▁comparable	-14128
▁confluence	-14129
▁constitute	-14130
▁discipline	-14131
▁distinctly	-14132
▁entreprene	-14133
▁falsehoods	-14134
▁manuscript	-14135
▁meditation	-14136
▁performers	-14137
▁Paralympics	-14138
▁Retribution	-14139
▁Traditional	-14140
▁corporation	-14141
▁denominator	-14142
▁documentary	-14143
▁regulations	-14144
▁salesperson	-14145
▁suggestions	-14146
▁consultation	-14147
▁introduction	-14148
▁recreational	-14149
▁surveillance	-14150
▁architectural	-14151
▁contributions	-14152
▁participation	-14153
▁professionals	-14154
▁representatives	-14155
Ac	-14156
Of	-14157
SE	-14158
ez	-14159
ju	-14160
zi	-14161
.’”	-14162
ILL	-14163
SAW	-14164
bek	-14165
bin	-14166
bow	-14167
cia	-14168
hir	-14169
lee	-14170
ois	-14171
oqu	-14172
tok	-14173
▁Ai	-14174
▁CL	-14175
▁Ey	-14176
▁FA	-14177
Thou	-14178
arse	-14179
assy	-14180
erma	-14181
hage	-14182
mann	-14183
olin	-14184
olts	-14185
onel	-14186
stro	-14187
unks	-14188
utor	-14189
wall	-14190
▁000	-14191
▁250	-14192
▁Eli	-14193
▁Ern	-14194
▁Fel	-14195
▁Gab	-14196
▁Jib	-14197
▁Kaf	-14198
▁Tag	-14199
▁cav	-14200
▁hes	-14201
▁tam	-14202
amped	-14203
anche	-14204
habil	-14205
hanas	-14206
heses	-14207
hetra	-14208
human	-14209
peace	-14210
pious	-14211
▁Anth	-14212
▁Bagh	-14213
▁Base	-14214
▁Bowl	-14215
▁Carl	-14216
▁Drag	-14217
▁Glad	-14218
▁Hass	-14219
▁Insp	-14220
▁JUST	-14221
▁Jama	-14222
▁Java	-14223
▁Lout	-14224
▁Prak	-14225
▁Resp	-14226
▁brut	-14227
▁bulk	-14228
▁cuts	-14229
▁ecos	-14230
▁epit	-14231
▁lakh	-14232
▁outs	-14233
▁taxi	-14234
▁tear	-14235
▁tiny	-14236
▁util	-14237
ancies	-14238
artala	-14239
rapati	-14240
taland	-14241
ulsive	-14242
▁Based	-14243
▁Brook	-14244
▁Categ	-14245
▁Exper	-14246
▁False	-14247
▁Karna	-14248
▁Liver	-14249
▁Quick	-14250
▁Seest	-14251
▁Sinha	-14252
▁besie	-14253
▁carve	-14254
▁memor	-14255
▁mould	-14256
▁nause	-14257
▁panic	-14258
▁pneum	-14259
▁rainy	-14260
▁rated	-14261
▁recur	-14262
▁theft	-14263
▁weary	-14264
▁weren	-14265
ashtami	-14266
▁20,000	-14267
▁Arthur	-14268
▁Choose	-14269
▁Disney	-14270
▁Gautam	-14271
▁Janata	-14272
▁Roller	-14273
▁Shetty	-14274
▁Spring	-14275
▁Unless	-14276
▁Yamuna	-14277
▁assets	-14278
▁barely	-14279
▁counts	-14280
▁disown	-14281
▁fables	-14282
▁impair	-14283
▁ordain	-14284
▁penned	-14285
▁satans	-14286
▁slopes	-14287
▁sooner	-14288
▁strove	-14289
▁tables	-14290
▁taketh	-14291
▁tenure	-14292
▁welcom	-14293
arations	-14294
children	-14295
imbatore	-14296
ordinate	-14297
partners	-14298
question	-14299
▁Capital	-14300
▁Israeli	-14301
▁Nintend	-14302
▁Speaker	-14303
▁banking	-14304
▁bringer	-14305
▁choices	-14306
▁consecr	-14307
▁dutiful	-14308
▁fastest	-14309
▁figured	-14310
▁gaining	-14311
▁handful	-14312
▁landing	-14313
▁menstru	-14314
▁signing	-14315
▁surpass	-14316
▁tickets	-14317
▁unhappy	-14318
▁Agartala	-14319
▁Brahmins	-14320
▁Godavari	-14321
▁Maryland	-14322
▁Sciences	-14323
▁Therefor	-14324
▁activist	-14325
▁advisors	-14326
▁disperse	-14327
▁emotions	-14328
▁excesses	-14329
▁overtime	-14330
▁pandemic	-14331
▁reserves	-14332
▁severity	-14333
▁shouldst	-14334
▁Arunachal	-14335
▁Cherisher	-14336
▁Dravidian	-14337
▁Zachariah	-14338
▁abounding	-14339
▁accepting	-14340
▁activists	-14341
▁addressed	-14342
▁classroom	-14343
▁conflicts	-14344
▁disclosed	-14345
▁ecosystem	-14346
▁exclaimed	-14347
▁exemption	-14348
▁franchise	-14349
▁gratitude	-14350
▁indicates	-14351
▁practical	-14352
▁remembers	-14353
▁resurrect	-14354
▁retailers	-14355
▁salvation	-14356
▁stretched	-14357
▁violently	-14358
▁accounting	-14359
▁attainment	-14360
▁autonomous	-14361
▁boundaries	-14362
▁conclusion	-14363
▁guidelines	-14364
▁journalist	-14365
▁polytheism	-14366
▁prevention	-14367
▁sacrifices	-14368
▁suppressed	-14369
▁underlying	-14370
▁vegetarian	-14371
▁battlefield	-14372
▁collections	-14373
▁institution	-14374
▁maintaining	-14375
▁Organization	-14376
▁commandments	-14377
▁qualification	-14378
▁characteristics	-14379
79	-14380
89	-14381
DI	-14382
De	-14383
Me	-14384
UM	-14385
oj	-14386
800	-14387
ENT	-14388
May	-14389
Nor	-14390
aro	-14391
cot	-14392
des	-14393
oom	-14394
rub	-14395
tam	-14396
▁0,	-14397
▁GN	-14398
▁UC	-14399
Fire	-14400
adas	-14401
amat	-14402
amom	-14403
arni	-14404
asha	-14405
best	-14406
cane	-14407
foot	-14408
fted	-14409
hika	-14410
ippi	-14411
iter	-14412
obin	-14413
olio	-14414
ques	-14415
wala	-14416
▁130	-14417
▁Alf	-14418
▁Bid	-14419
▁CPU	-14420
▁Hou	-14421
▁Kos	-14422
▁Kus	-14423
▁Nan	-14424
▁Nap	-14425
▁Rap	-14426
▁Ult	-14427
▁Zul	-14428
▁jag	-14429
Today	-14430
acles	-14431
apala	-14432
arsha	-14433
boats	-14434
habet	-14435
olves	-14436
unned	-14437
▁1986	-14438
▁Care	-14439
▁Kaly	-14440
▁Kath	-14441
▁Kick	-14442
▁Mans	-14443
▁Pack	-14444
▁Requ	-14445
▁Saty	-14446
▁Schw	-14447
▁Step	-14448
▁Tony	-14449
▁asce	-14450
▁leve	-14451
▁mate	-14452
▁plug	-14453
▁rude	-14454
▁tail	-14455
Saying	-14456
ancore	-14457
commun	-14458
handra	-14459
illity	-14460
isible	-14461
lester	-14462
▁1990,	-14463
▁Alice	-14464
▁Dubai	-14465
▁Enjoy	-14466
▁Hawai	-14467
▁Kites	-14468
▁Serge	-14469
▁Sinai	-14470
▁Tourn	-14471
▁Wings	-14472
▁agony	-14473
▁cleft	-14474
▁craft	-14475
▁defra	-14476
▁enorm	-14477
▁fires	-14478
▁holes	-14479
▁hoped	-14480
▁knife	-14481
Solomon	-14482
fecture	-14483
umbling	-14484
viously	-14485
▁Arabia	-14486
▁Colomb	-14487
▁Dharma	-14488
▁Idukki	-14489
▁Khalji	-14490
▁Market	-14491
▁Member	-14492
▁PlaySt	-14493
▁Potent	-14494
▁Really	-14495
▁Sachin	-14496
▁banana	-14497
▁banner	-14498
▁bullet	-14499
▁ceased	-14500
▁config	-14501
▁crowds	-14502
▁filing	-14503
▁locked	-14504
▁molten	-14505
▁ninety	-14506
▁reluct	-14507
▁saddle	-14508
▁seller	-14509
▁shoots	-14510
▁spends	-14511
▁therap	-14512
▁towers	-14513
▁Atlanta	-14514
▁Delight	-14515
▁Govinda	-14516
▁Hussain	-14517
▁Notable	-14518
▁Observe	-14519
▁Ukraine	-14520
▁coconut	-14521
▁columns	-14522
▁crucial	-14523
▁enabled	-14524
▁enforce	-14525
▁festive	-14526
▁hoarded	-14527
▁opposes	-14528
▁outdoor	-14529
▁permits	-14530
▁planted	-14531
▁regrets	-14532
▁seizure	-14533
▁tactics	-14534
▁teaches	-14535
▁throats	-14536
▁tremble	-14537
▁trigger	-14538
something	-14539
▁Alliance	-14540
▁Colorado	-14541
▁Messages	-14542
▁Mountain	-14543
▁Nintendo	-14544
▁Scottish	-14545
▁Together	-14546
▁adultery	-14547
▁baseball	-14548
▁bringest	-14549
▁counting	-14550
▁dialects	-14551
▁dialogue	-14552
▁diverted	-14553
▁horrible	-14554
▁machines	-14555
▁memorial	-14556
▁paycheck	-14557
▁peripher	-14558
▁phenomen	-14559
▁piercing	-14560
▁prospect	-14561
▁realised	-14562
▁requests	-14563
▁shoulder	-14564
▁stopping	-14565
▁variance	-14566
▁appearing	-14567
▁arraigned	-14568
▁destitute	-14569
▁dynasties	-14570
▁embarrass	-14571
▁endeavour	-14572
▁exceeding	-14573
▁greatness	-14574
▁improving	-14575
▁incidence	-14576
▁jewellery	-14577
▁misguided	-14578
▁mythology	-14579
▁persisted	-14580
▁prevailed	-14581
▁terrified	-14582
▁Technology	-14583
▁Travancore	-14584
▁affiliated	-14585
▁antibodies	-14586
▁distribute	-14587
▁exhibition	-14588
▁medication	-14589
▁neglectful	-14590
▁overthrown	-14591
▁worshiping	-14592
rondissement	-14593
▁circulation	-14594
▁convenience	-14595
▁illustrious	-14596
▁investigate	-14597
▁outstanding	-14598
▁northwestern	-14599
▁proportioned	-14600
▁independently	-14601
OP	-14602
Qa	-14603
-20	-14604
aba	-14605
abs	-14606
col	-14607
ekw	-14608
haj	-14609
hid	-14610
hyp	-14611
lay	-14612
lyn	-14613
rup	-14614
uni	-14615
▁"%	-14616
▁Ti	-14617
Adam	-14618
aiah	-14619
akah	-14620
bris	-14621
emet	-14622
haus	-14623
hyam	-14624
many	-14625
mart	-14626
rang	-14627
xide	-14628
ynam	-14629
▁Abs	-14630
▁BJP	-14631
▁Cro	-14632
▁Emb	-14633
▁HER	-14634
▁Luc	-14635
▁Opp	-14636
▁Sax	-14637
▁ath	-14638
▁gor	-14639
▁obe	-14640
▁piv	-14641
▁sli	-14642
▁sne	-14643
▁vie	-14644
▁vom	-14645
adeva	-14646
alous	-14647
ariya	-14648
chari	-14649
chiat	-14650
erals	-14651
every	-14652
fball	-14653
first	-14654
ighed	-14655
month	-14656
ource	-14657
words	-14658
▁1952	-14659
▁Beth	-14660
▁Bhav	-14661
▁Burn	-14662
▁Jane	-14663
▁Kali	-14664
▁Laur	-14665
▁Ober	-14666
▁Patt	-14667
▁Poor	-14668
▁Raya	-14669
▁Tris	-14670
▁bowl	-14671
▁carn	-14672
▁exor	-14673
▁fasc	-14674
▁flew	-14675
▁spin	-14676
▁unve	-14677
▁vibr	-14678
apuram	-14679
ctoral	-14680
hether	-14681
icosis	-14682
inging	-14683
otiate	-14684
places	-14685
rition	-14686
strous	-14687
uberty	-14688
ulsory	-14689
usions	-14690
▁1979,	-14691
▁1994,	-14692
▁1995.	-14693
▁Etern	-14694
▁Honey	-14695
▁Jones	-14696
▁Kanda	-14697
▁Lewis	-14698
▁Surat	-14699
▁Tulsi	-14700
▁Yadav	-14701
▁bosom	-14702
▁brave	-14703
▁calum	-14704
▁camps	-14705
▁canal	-14706
▁chase	-14707
▁covet	-14708
▁epics	-14709
▁ghost	-14710
▁grade	-14711
▁meals	-14712
▁pluck	-14713
▁poems	-14714
▁shell	-14715
▁snake	-14716
▁sorts	-14717
Messeng	-14718
aneswar	-14719
angered	-14720
emetery	-14721
emorial	-14722
ictions	-14723
isphere	-14724
▁Aditya	-14725
▁Andrew	-14726
▁Bindus	-14727
▁Gather	-14728
▁Heaven	-14729
▁Kargil	-14730
▁Nikhil	-14731
▁Squash	-14732
▁anemia	-14733
▁awhile	-14734
▁babies	-14735
▁beaten	-14736
▁bottle	-14737
▁depths	-14738
▁harmed	-14739
▁laptop	-14740
▁partly	-14741
▁sample	-14742
▁waited	-14743
▁washed	-14744
▁weaken	-14745
ographer	-14746
▁Chamber	-14747
▁History	-14748
▁Mahatma	-14749
▁Mexican	-14750
▁Mission	-14751
▁Mississ	-14752
▁Someone	-14753
▁altered	-14754
▁awesome	-14755
▁bearers	-14756
▁crashed	-14757
▁curtain	-14758
▁eminent	-14759
▁emotion	-14760
▁greeted	-14761
▁handled	-14762
▁hitting	-14763
▁horizon	-14764
▁lawsuit	-14765
▁malaria	-14766
▁melodic	-14767
▁ongoing	-14768
▁outward	-14769
▁rehabil	-14770
▁schemes	-14771
▁washing	-14772
▁wickets	-14773
▁Anderson	-14774
▁Eternity	-14775
▁Hellfire	-14776
▁Korfball	-14777
▁Superman	-14778
▁Yourself	-14779
▁banished	-14780
▁cylinder	-14781
▁disabled	-14782
▁electron	-14783
▁husbands	-14784
▁organize	-14785
▁releases	-14786
▁shoppers	-14787
halassemia	-14788
▁Cambridge	-14789
▁abdominal	-14790
▁ascribing	-14791
▁brilliant	-14792
▁corporate	-14793
▁criterion	-14794
▁deciduous	-14795
▁delicious	-14796
▁equitably	-14797
▁fictional	-14798
▁heaviness	-14799
▁humiliate	-14800
▁naturally	-14801
▁recession	-14802
▁specially	-14803
▁straitens	-14804
▁telephone	-14805
sticercosis	-14806
▁Coimbatore	-14807
▁distracted	-14808
▁oppressors	-14809
▁principles	-14810
▁suspicious	-14811
▁thoroughly	-14812
▁Bhubaneswar	-14813
▁Furthermore	-14814
▁PlayStation	-14815
▁Productions	-14816
▁Swaminathan	-14817
▁blameworthy	-14818
▁intercourse	-14819
▁subtropical	-14820
▁achievements	-14821
▁commercially	-14822
▁expectations	-14823
▁experiencing	-14824
▁concentration	-14825
▁determination	-14826
▁internationally	-14827
")	-14828
-3	-14829
CE	-14830
IP	-14831
LY	-14832
La	-14833
Ne	-14834
TV	-14835
Mah	-14836
agu	-14837
bag	-14838
hee	-14839
nah	-14840
ups	-14841
▁41	-14842
▁85	-14843
▁Gi	-14844
▁Jy	-14845
▁Kn	-14846
Make	-14847
akhi	-14848
axis	-14849
chin	-14850
hams	-14851
heth	-14852
hill	-14853
irin	-14854
ithm	-14855
pres	-14856
quet	-14857
teth	-14858
veda	-14859
▁165	-14860
▁2.5	-14861
▁CAN	-14862
▁DVD	-14863
▁Der	-14864
▁Gow	-14865
▁Kay	-14866
▁Mes	-14867
▁Mis	-14868
▁Poo	-14869
▁Roh	-14870
▁Yug	-14871
▁avo	-14872
▁fol	-14873
▁ink	-14874
▁lin	-14875
▁pin	-14876
▁tug	-14877
▁ump	-14878
▁unp	-14879
adays	-14880
aders	-14881
ainer	-14882
built	-14883
eline	-14884
folio	-14885
iceth	-14886
ishad	-14887
itory	-14888
jjain	-14889
onies	-14890
relig	-14891
rimun	-14892
▁1965	-14893
▁1984	-14894
▁Ajay	-14895
▁Avni	-14896
▁Baba	-14897
▁Beck	-14898
▁Bern	-14899
▁Fiji	-14900
▁Gord	-14901
▁Harr	-14902
▁Janm	-14903
▁Marg	-14904
▁Navy	-14905
▁Shia	-14906
▁Sure	-14907
▁URLs	-14908
▁beho	-14909
▁cher	-14910
▁pant	-14911
▁tore	-14912
▁trek	-14913
▁unre	-14914
Indian	-14915
agraha	-14916
ancial	-14917
angeet	-14918
consin	-14919
ennium	-14920
eously	-14921
icated	-14922
ifiers	-14923
imedia	-14924
inding	-14925
isance	-14926
ometry	-14927
▁1993,	-14928
▁2,000	-14929
▁BLAKE	-14930
▁Close	-14931
▁Harid	-14932
▁Harry	-14933
▁Nobel	-14934
▁Rajya	-14935
▁Ratha	-14936
▁Shant	-14937
▁Surah	-14938
▁Write	-14939
▁beans	-14940
▁flung	-14941
▁girlf	-14942
▁lingu	-14943
▁metro	-14944
▁ninth	-14945
▁pursu	-14946
▁shack	-14947
▁slide	-14948
▁solic	-14949
anthrop	-14950
cretion	-14951
issance	-14952
onymous	-14953
rightly	-14954
▁Aihole	-14955
▁Altern	-14956
▁Dagger	-14957
▁Dallas	-14958
▁Engine	-14959
▁Failed	-14960
▁Gabbar	-14961
▁Higher	-14962
▁Imphal	-14963
▁Invest	-14964
▁Ismail	-14965
▁Jagann	-14966
▁Jordan	-14967
▁Pandey	-14968
▁Zaqqum	-14969
▁artery	-14970
▁beheld	-14971
▁capita	-14972
▁cleans	-14973
▁compel	-14974
▁courty	-14975
▁debris	-14976
▁defied	-14977
▁fusion	-14978
▁marine	-14979
▁masses	-14980
▁nerves	-14981
▁paired	-14982
▁restra	-14983
Customer	-14984
▁Brahman	-14985
▁Denmark	-14986
▁Houston	-14987
▁Myanmar	-14988
[...]
