<pad>	0
<unk>	0
<sos>	0
<eos>	0
▁ک	-0
▁ا	-1
▁ہ	-2
▁م	-3
یں	-4
ور	-5
▁س	-6
▁ب	-7
▁ت	-8
▁ج	-9
▁ن	-10
▁پ	-11
▁کے	-12
▁کی	-13
▁اور	-14
▁ہے	-15
▁د	-16
▁و	-17
▁میں	-18
ان	-19
ار	-20
وں	-21
▁ل	-22
یا	-23
▁کر	-24
▁گ	-25
▁ر	-26
▁سے	-27
▁کو	-28
ال	-29
▁اس	-30
▁ان	-31
▁آ	-32
یک	-33
ائ	-34
▁ہو	-35
▁کہ	-36
▁کا	-37
ات	-38
نے	-39
▁ہیں	-40
▁پر	-41
▁نے	-42
ھی	-43
▁ی	-44
▁تم	-45
ہیں	-46
ین	-47
تے	-48
▁چ	-49
▁(	-50
▁خ	-51
▁وہ	-52
تا	-53
▁ش	-54
▁ع	-55
ام	-56
▁یہ	-57
▁ف	-58
ری	-59
▁جو	-60
▁تو	-61
▁ہم	-62
▁ہے۔	-63
▁ح	-64
ئے	-65
▁ایک	-66
▁ط	-67
▁کیا	-68
▁ال	-69
▁تھ	-70
اہ	-71
▁ق	-72
▁وال	-73
▁اپ	-74
▁نہیں	-75
ئی	-76
لا	-77
نا	-78
لہ	-79
▁ز	-80
یر	-81
لی	-82
تی	-83
ند	-84
▁بھی	-85
▁لو	-86
▁ای	-87
دا	-88
▁لی	-89
اب	-90
نی	-91
وس	-92
▁رہ	-93
▁آپ	-94
▁لوگ	-95
ھر	-96
▁نہ	-97
▁دی	-98
گر	-99
ول	-100
▁ڈ	-101
ون	-102
ائی	-103
▁اللہ	-104
ائے	-105
▁لیے	-106
اس	-107
اد	-108
▁جس	-109
چھ	-110
مان	-111
▁طر	-112
ارے	-113
▁پی	-114
▁ہیں۔	-115
دہ	-116
کھ	-117
▁گے	-118
سی	-119
▁اپنے	-120
▁ٹ	-121
▁بی	-122
اری	-123
▁ص	-124
▁پہ	-125
لے	-126
▁تھا	-127
▁جن	-128
وم	-129
▁گا	-130
▁ہی	-131
▁1	-132
▁بہ	-133
▁کرنے	-134
▁جب	-135
اتھ	-136
▁فر	-137
▁کرتے	-138
بر	-139
▁جان	-140
▁جات	-141
▁یا	-142
▁پھر	-143
▁تھے	-144
▁تمہ	-145
می	-146
▁سک	-147
▁سب	-148
جھ	-149
▁بر	-150
کہ	-151
یز	-152
از	-153
▁بڑ	-154
▁در	-155
▁بہت	-156
دی	-157
ست	-158
انی	-159
اں	-160
▁ساتھ	-161
نگ	-162
▁کوئی	-163
▁گیا	-164
▁کچھ	-165
▁2	-166
▁دیا	-167
▁تک	-168
▁اگر	-169
▁سو	-170
▁خو	-171
▁لئے	-172
ھو	-173
▁دو	-174
▁ہوں	-175
یت	-176
▁اسے	-177
▁والا	-178
▁دن	-179
▁طرف	-180
رو	-181
اؤ	-182
▁مع	-183
▁کھ	-184
▁بن	-185
ٹی	-186
▁انہیں	-187
▁من	-188
▁بع	-189
ہوں	-190
▁لوگوں	-191
▁طور	-192
▁غ	-193
یس	-194
▁رو	-195
یم	-196
لم	-197
▁رکھ	-198
▁والے	-199
فر	-200
را	-201
انے	-202
ائیں	-203
ما	-204
▁کہا	-205
▁می	-206
▁اپنی	-207
شک	-208
ٹر	-209
قت	-210
▁ذ	-211
▁دیک	-212
▁خدا	-213
مال	-214
▁چاہ	-215
مت	-216
▁زیا	-217
▁بات	-218
▁بعد	-219
▁رہے	-220
▁مق	-221
مین	-222
بی	-223
خت	-224
▁20	-225
▁تمہارے	-226
▁کام	-227
▁جاتا	-228
▁ہر	-229
▁مو	-230
ھا	-231
▁با	-232
▁کرو	-233
وی	-234
▁زیادہ	-235
▁وا	-236
▁کم	-237
▁سر	-238
▁پاس	-239
ہر	-240
گی	-241
▁شک	-242
▁تھی	-243
▁تع	-244
▁ایس	-245
▁اُ	-246
▁طرح	-247
▁ایمان	-248
▁دے	-249
▁انہوں	-250
مر	-251
▁ہوئے	-252
▁مر	-253
▁رب	-254
▁بے	-255
اک	-256
▁میر	-257
▁سی	-258
▁اے	-259
▁بھ	-260
▁تمہیں	-261
▁پہلے	-262
شن	-263
▁اب	-264
قی	-265
▁تھا۔	-266
▁دوس	-267
ود	-268
▁حک	-269
▁کسی	-270
▁مجھ	-271
▁لگ	-272
▁ہوا	-273
▁جائے	-274
▁مل	-275
▁آس	-276
▁کریں	-277
▁19	-278
اص	-279
اف	-280
کر	-281
گار	-282
▁زمین	-283
▁ض	-284
▁بنا	-285
▁کرتا	-286
▁مح	-287
تع	-288
له	-289
▁او	-290
یکن	-291
ارا	-292
کی	-293
یاں	-294
▁چیز	-295
▁رس	-296
▁دیکھ	-297
لو	-298
▁لے	-299
رے	-300
▁ہند	-301
ریب	-302
ذاب	-303
الی	-304
جہ	-305
▁وقت	-306
وری	-307
دار	-308
▁مجھے	-309
▁تر	-310
▁مش	-311
▁"	-312
▁مد	-313
▁گئے	-314
سل	-315
▁عذاب	-316
نچ	-317
▁ہوگ	-318
دگار	-319
مل	-320
▁لیکن	-321
تہ	-322
▁اسی	-323
کے	-324
یل	-325
▁ظ	-326
▁دور	-327
کار	-328
رف	-329
قع	-330
▁-	-331
▁علا	-332
▁والوں	-333
▁سن	-334
اتے	-335
▁بل	-336
▁ہوتا	-337
▁بیشک	-338
▁بد	-339
▁اع	-340
▁پڑ	-341
ورت	-342
▁نام	-343
▁چھو	-344
▁پیدا	-345
▁جہ	-346
▁کار	-347
▁جا	-348
▁پس	-349
▁کھی	-350
ٹھ	-351
▁میرے	-352
▁گی	-353
▁بند	-354
▁رہا	-355
کا	-356
▁سال	-357
جی	-358
امل	-359
▁نا	-360
▁تا	-361
▁سم	-362
وب	-363
▁گئی	-364
▁بچ	-365
▁نی	-366
▁الله	-367
در	-368
▁پرور	-369
خص	-370
▁تھے۔	-371
قین	-372
▁ات	-373
▁کرے	-374
▁فی	-375
▁پو	-376
زی	-377
▁ہونے	-378
▁سکتے	-379
▁قوم	-380
▁حال	-381
ثر	-382
▁پہنچ	-383
▁مت	-384
▁ضر	-385
▁نش	-386
▁ہوئی	-387
▁استع	-388
سم	-389
▁پروردگار	-390
فی	-391
▁کرنا	-392
▁جھ	-393
نٹ	-394
شی	-395
00	-396
ڑی	-397
وست	-398
▁ہمارے	-399
▁استعمال	-400
▁آسمان	-401
▁صرف	-402
▁ڈر	-403
تاب	-404
▁نک	-405
▁ہندوست	-406
▁جیس	-407
▁بڑا	-408
▁جائیں	-409
ینڈ	-410
▁رسول	-411
▁موس	-412
اصل	-413
▁حص	-414
▁تق	-415
▁والی	-416
خر	-417
باد	-418
▁201	-419
▁اہ	-420
▁یقین	-421
ٹا	-422
▁لیا	-423
▁گر	-424
▁اک	-425
▁فلم	-426
▁ریا	-427
انا	-428
▁ڈال	-429
اً	-430
جر	-431
▁بار	-432
▁دل	-433
▁سکتا	-434
▁تاکہ	-435
وا	-436
▁بال	-437
اہر	-438
▁وه	-439
▁مط	-440
بہ	-441
▁واقع	-442
ایا	-443
▁کل	-444
▁شخص	-445
▁ہوتی	-446
▁آگ	-447
حت	-448
یش	-449
▁دیں	-450
▁کتاب	-451
▁وہی	-452
▁قر	-453
▁حاصل	-454
بان	-455
▁نو	-456
▁انت	-457
▁اُن	-458
▁نم	-459
وت	-460
▁مگر	-461
▁ٹھ	-462
▁جسے	-463
▁زند	-464
▁مہ	-465
▁حق	-466
▁شر	-467
وار	-468
اتا	-469
▁شامل	-470
ونوں	-471
بھی	-472
▁ری	-473
▁ہوگا	-474
▁آر	-475
نڈ	-476
امی	-477
▁کیا۔	-478
ڑے	-479
▁گھر	-480
▁تھی۔	-481
جو	-482
▁چل	-483
ائن	-484
▁بہتر	-485
▁سام	-486
▁بڑی	-487
▁ریاست	-488
▁3	-489
▁بھیج	-490
توں	-491
▁گو	-492
ای	-493
ریع	-494
انہ	-495
▁بخ	-496
▁ہوتے	-497
پر	-498
▁رح	-499
▁دونوں	-500
▁یہاں	-501
▁حکم	-502
▁،	-503
▁پور	-504
▁بارے	-505
..	-506
▁سمجھ	-507
▁تب	-508
▁مس	-509
کو	-510
▁ذریع	-511
▁دوسرے	-512
▁مال	-513
▁ور	-514
▁وجہ	-515
▁چھ	-516
▁را	-517
▁کھیل	-518
▁ڈی	-519
▁فرما	-520
▁قب	-521
▁کافر	-522
▁کن	-523
▁ہدا	-524
ارہ	-525
▁وی	-526
اور	-527
▁اُس	-528
پی	-529
▁تمام	-530
▁علاق	-531
▁جاتی	-532
▁آخر	-533
تم	-534
▁کہہ	-535
▁مان	-536
▁نظ	-537
▁دنیا	-538
▁مدد	-539
▁پھی	-540
ڈی	-541
▁جیسے	-542
▁کیے	-543
▁جی	-544
▁میری	-545
▁درمی	-546
▁عام	-547
▁آئے	-548
▁مار	-549
▁سل	-550
زا	-551
▁جگ	-552
▁تمہاری	-553
▁ہدایت	-554
یات	-555
▁نیک	-556
▁شہر	-557
▁فیص	-558
یں۔	-559
▁مخت	-560
▁پیش	-561
▁خود	-562
ارت	-563
▁گھ	-564
سان	-565
من	-566
اند	-567
▁درمیان	-568
سٹ	-569
▁فرم	-570
▁کرد	-571
▁گیا۔	-572
ئر	-573
▁جاؤ	-574
لوم	-575
ٹے	-576
▁دا	-577
▁اخ	-578
اہی	-579
دم	-580
▁دیتا	-581
▁قسم	-582
▁جم	-583
▁جانے	-584
صی	-585
▁کہتے	-586
ڑا	-587
▁گز	-588
▁سوا	-589
▁ہماری	-590
▁جاتے	-591
جود	-592
▁اپنا	-593
▁اِ	-594
▁راس	-595
چھے	-596
▁یہی	-597
وٹ	-598
وہ	-599
▁ہندوستان	-600
لف	-601
اہم	-602
روع	-603
بت	-604
یہ	-605
▁ث	-606
▁آئی	-607
▁ہمیں	-608
▁بڑے	-609
▁شروع	-610
ائل	-611
ادی	-612
فت	-613
▁موسی	-614
▁بنایا	-615
عت	-616
▁نق	-617
▁ایسا	-618
چے	-619
ندر	-620
طا	-621
▁معلوم	-622
الم	-623
ائم	-624
▁تی	-625
▁چھوڑ	-626
▁ایسے	-627
▁قیا	-628
▁200	-629
▁ٹی	-630
▁دکھ	-631
▁جگہ	-632
▁تعالی	-633
▁مغ	-634
▁پاک	-635
▁تمہارا	-636
▁t	-637
▁امر	-638
in	-639
▁گرو	-640
یال	-641
ریق	-642
▁بس	-643
▁تعالیٰ	-644
▁تقریب	-645
▁علم	-646
▁شی	-647
کس	-648
▁راہ	-649
▁میرا	-650
لق	-651
▁دیتے	-652
▁آج	-653
▁مختلف	-654
▁لائے	-655
▁عمل	-656
▁جل	-657
▁جنگ	-658
▁کی۔	-659
▁گن	-660
▁یاد	-661
▁کہیں	-662
▁ادا	-663
▁دہ	-664
▁بخش	-665
▁لڑ	-666
اح	-667
▁خبر	-668
فا	-669
کن	-670
▁پانی	-671
لاف	-672
▁وع	-673
▁کون	-674
▁h	-675
▁ار	-676
ابق	-677
▁دریا	-678
▁آن	-679
پس	-680
▁جھٹ	-681
▁کس	-682
ٹس	-683
▁حصہ	-684
▁ناز	-685
▁رکھتے	-686
▁چاہتا	-687
ونکہ	-688
▁خوب	-689
یشہ	-690
حی	-691
▁بلکہ	-692
▁دینے	-693
تر	-694
▁بھر	-695
▁خر	-696
▁خیال	-697
لام	-698
▁تیر	-699
طان	-700
نت	-701
▁جہاں	-702
یکی	-703
▁مشر	-704
▁کرتی	-705
▁پرو	-706
▁رکھا	-707
▁دوران	-708
لیہ	-709
▁این	-710
▁اص	-711
▁نازل	-712
▁بڑھ	-713
ائر	-714
▁رات	-715
▁بو	-716
▁زندگی	-717
اپ	-718
▁اف	-719
لع	-720
▁ہوج	-721
اتی	-722
▁پھ	-723
مو	-724
تیار	-725
▁جانتا	-726
خل	-727
▁ہاتھ	-728
سک	-729
ومت	-730
ابر	-731
▁اگ	-732
▁پیغ	-733
▁ہاں	-734
▁گے۔	-735
ہی	-736
▁رہی	-737
▁یو	-738
مبر	-739
▁کیوں	-740
▁a	-741
▁پک	-742
▁ذریعے	-743
▁اکثر	-744
▁انج	-745
نس	-746
▁ہمیشہ	-747
▁دار	-748
گز	-749
مد	-750
▁مث	-751
▁آیا	-752
▁کبھی	-753
▁مقاب	-754
ؤں	-755
▁خط	-756
▁جانتے	-757
▁اختیار	-758
▁موجود	-759
یکس	-760
چھا	-761
▁مک	-762
گو	-763
▁تین	-764
▁گا۔	-765
▁نشان	-766
▁ظالم	-767
▁اسٹ	-768
▁قریب	-769
▁خوش	-770
نم	-771
▁جمع	-772
▁وہاں	-773
▁انسان	-774
▁ٹیم	-775
کل	-776
er	-777
ینی	-778
▁غیر	-779
آن	-780
▁اعمال	-781
▁آف	-782
▁اح	-783
▁کیونکہ	-784
▁سامنے	-785
▁قائم	-786
▁چاہتے	-787
▁اٹھ	-788
مہ	-789
▁سخت	-790
▁دیکھا	-791
▁آیت	-792
▁تح	-793
▁طریق	-794
▁بیان	-795
▁پیچھے	-796
ے۔	-797
غیر	-798
شت	-799
▁آئ	-800
▁اج	-801
جئے	-802
▁فو	-803
لوں	-804
▁کان	-805
▁فیصلہ	-806
▁ضرور	-807
▁وس	-808
▁نصی	-809
▁بنیا	-810
لب	-811
▁بج	-812
▁4	-813
▁متع	-814
▁5	-815
▁پل	-816
▁مسل	-817
▁پیر	-818
وز	-819
▁مہر	-820
▁k	-821
▁نکال	-822
▁عورت	-823
▁منت	-824
▁روز	-825
▁آسمانوں	-826
▁مطابق	-827
▁دیا۔	-828
▁قیامت	-829
▁کئی	-830
▁دیگر	-831
انکہ	-832
▁رہیں	-833
▁s	-834
▁پن	-835
لاک	-836
▁کھلا	-837
▁اد	-838
▁ملک	-839
▁تص	-840
ائش	-841
لیم	-842
▁اسک	-843
شش	-844
▁حالانکہ	-845
الب	-846
▁باد	-847
▁ملا	-848
▁داخل	-849
▁فرمایا	-850
الله	-851
▁ایسی	-852
▁جنہوں	-853
▁ام	-854
واز	-855
اے	-856
▁مقر	-857
عنی	-858
▁گمر	-859
▁پار	-860
▁نظر	-861
▁پہلی	-862
▁لا	-863
▁یقیناً	-864
▁آخرت	-865
ھے	-866
▁دین	-867
▁عطا	-868
▁اہم	-869
▁لکھ	-870
رہ	-871
▁انتظ	-872
ou	-873
▁نصیحت	-874
اق	-875
▁خاص	-876
▁کمپ	-877
▁انگ	-878
▁وعدہ	-879
پور	-880
سے	-881
▁اہل	-882
ar	-883
▁سات	-884
▁حر	-885
▁باز	-886
▁رق	-887
▁نکل	-888
▁کوشش	-889
▁بین	-890
▁کافروں	-891
▁آد	-892
▁چاہے	-893
دوں	-894
▁سکتی	-895
▁چار	-896
▁جانا	-897
انوں	-898
▁عر	-899
▁بول	-900
تھ	-901
▁تیار	-902
▁خلاف	-903
▁موسیٰ	-904
▁دع	-905
▁چاہی	-906
گا	-907
بادت	-908
▁حکومت	-909
▁ٹھیک	-910
بو	-911
on	-912
دے	-913
▁االله	-914
ٹھا	-915
▁آز	-916
▁رحمت	-917
▁موت	-918
▁ضرورت	-919
▁نشانی	-920
▁کفر	-921
▁تلا	-922
▁روک	-923
▁ظلم	-924
▁برابر	-925
تو	-926
▁قاب	-927
▁لگے	-928
▁پیغمبر	-929
▁عبادت	-930
▁مج	-931
▁عمر	-932
▁شمال	-933
چی	-934
▁جنہیں	-935
▁فض	-936
▁جھو	-937
▁زبان	-938
▁اش	-939
سلام	-940
▁ظاہر	-941
▁مغر	-942
▁سین	-943
⁄4	-944
▁دوب	-945
▁ہوگی	-946
▁پہا	-947
▁کئے	-948
▁قبول	-949
▁کمی	-950
▁بعض	-951
▁السلام	-952
▁کش	-953
▁ہلاک	-954
▁m	-955
▁واپس	-956
یب	-957
▁ٹر	-958
▁ہندوستانی	-959
▁تقریباً	-960
▁فرش	-961
مب	-962
▁دھ	-963
▁باپ	-964
▁قدر	-965
بود	-966
▁رہنے	-967
▁گئے۔	-968
▁پسند	-969
▁اچ	-970
▁آنے	-971
ڈر	-972
انچ	-973
▁بھائی	-974
جا	-975
▁آگے	-976
▁تاہم	-977
قل	-978
▁اض	-979
▁منا	-980
▁انجام	-981
▁بھیجا	-982
▁199	-983
▁حس	-984
زخ	-985
میر	-986
▁گناہ	-987
لائی	-988
ڑھ	-989
▁مثال	-990
▁انکار	-991
▁خری	-992
جے	-993
ومی	-994
▁اچھا	-995
▁کامیا	-996
▁دوزخ	-997
لایا	-998
▁کافی	-999
ٹن	-1000
▁نقص	-1001
داد	-1002
▁لیں	-1003
▁دوبارہ	-1004
▁'	-1005
▁اوپر	-1006
▁رہو	-1007
ڈو	-1008
▁تبدی	-1009
بل	-1010
▁نقصان	-1011
کھی	-1012
▁آنکھ	-1013
▁مرک	-1014
▁جاری	-1015
▁مقام	-1016
▁بادش	-1017
▁بت	-1018
▁سیا	-1019
نو	-1020
▁خاند	-1021
▁y	-1022
▁باہر	-1023
▁قرآن	-1024
▁مندر	-1025
▁کہنے	-1026
اروں	-1027
يں	-1028
▁سنگ	-1029
داز	-1030
▁18	-1031
▁6	-1032
لاد	-1033
▁خوف	-1034
▁کیل	-1035
▁حد	-1036
▁باغ	-1037
▁سزا	-1038
an	-1039
سب	-1040
اؤں	-1041
قات	-1042
▁غالب	-1043
▁مذ	-1044
چا	-1045
▁بدلہ	-1046
▁دیجئے	-1047
▁اند	-1048
▁مقرر	-1049
▁آدمی	-1050
at	-1051
▁عم	-1052
▁آباد	-1053
▁صدی	-1054
▁امی	-1055
▁جواب	-1056
...	-1057
▁سرک	-1058
▁کردیا	-1059
▁تجھ	-1060
▁بتا	-1061
▁علاوہ	-1062
▁کردار	-1063
براہ	-1064
▁کت	-1065
▁مخ	-1066
ماری	-1067
▁حکمت	-1068
لاح	-1069
▁اِن	-1070
▁لگا	-1071
ئن	-1072
صر	-1073
▁تلاش	-1074
عون	-1075
▁دوسری	-1076
▁گول	-1077
▁نیچے	-1078
▁نع	-1079
▁پورا	-1080
قر	-1081
نہ	-1082
ویں	-1083
▁رکھنے	-1084
ریل	-1085
▁معبود	-1086
▁افر	-1087
ائٹ	-1088
▁7	-1089
جات	-1090
▁سا	-1091
▁نماز	-1092
▁تہ	-1093
▁مسلمان	-1094
▁کمپنی	-1095
▁خرچ	-1096
▁نشانیاں	-1097
انس	-1098
▁حقی	-1099
▁ہوں۔	-1100
▁علاقے	-1101
▁انداز	-1102
▁پکار	-1103
▁شریک	-1104
▁مض	-1105
▁کھلاڑی	-1106
▁صاح	-1107
▁ہو۔	-1108
کت	-1109
تل	-1110
▁انڈ	-1111
▁تیرے	-1112
▁جاننے	-1113
▁اندر	-1114
▁شیطان	-1115
▁نعمت	-1116
▁دوست	-1117
▁بندوں	-1118
▁بہترین	-1119
▁l	-1120
▁ذریعہ	-1121
دید	-1122
ادہ	-1123
is	-1124
▁افراد	-1125
وص	-1126
▁پڑھ	-1127
▁عہ	-1128
▁۔	-1129
ارڈ	-1130
▁8	-1131
▁فائ	-1132
▁متح	-1133
▁بغیر	-1134
▁منہ	-1135
▁پوری	-1136
▁رہتے	-1137
یعنی	-1138
▁اضاف	-1139
▁ہرگز	-1140
خب	-1141
▁صبر	-1142
فار	-1143
▁اسٹی	-1144
▁فرعون	-1145
▁زندہ	-1146
000	-1147
▁بنانے	-1148
▁مست	-1149
اع	-1150
▁شہ	-1151
▁ذکر	-1152
ناک	-1153
▁تھو	-1154
بے	-1155
یکہ	-1156
پا	-1157
▁ہونا	-1158
روں	-1159
▁سلط	-1160
زید	-1161
▁گزر	-1162
)،	-1163
▁نف	-1164
ظیم	-1165
ورن	-1166
▁معاف	-1167
▁ہوا۔	-1168
اریخ	-1169
▁ختم	-1170
▁قابل	-1171
▁چکے	-1172
لیل	-1173
ڑوں	-1174
عی	-1175
سوس	-1176
▁غل	-1177
▁ضلع	-1178
▁جبکہ	-1179
▁اول	-1180
▁تاریخ	-1181
▁اولاد	-1182
▁قتل	-1183
ستی	-1184
ورس	-1185
▁مکمل	-1186
علیہ	-1187
▁بالکل	-1188
▁ابت	-1189
▁دش	-1190
▁رکھتا	-1191
وف	-1192
مانے	-1193
▁بےشک	-1194
ومن	-1195
▁دست	-1196
▁سید	-1197
▁خاندان	-1198
▁d	-1199
▁قرار	-1200
▁بادشاہ	-1201
ٹک	-1202
▁اون	-1203
▁رنگ	-1204
▁متا	-1205
لت	-1206
▁رحم	-1207
▁علی	-1208
▁تعلق	-1209
▁پرہ	-1210
ٹو	-1211
زد	-1212
▁گرد	-1213
▁خرید	-1214
او	-1215
فو	-1216
▁چند	-1217
زیر	-1218
ایت	-1219
▁یون	-1220
▁کیلئے	-1221
he	-1222
لیف	-1223
طہ	-1224
مار	-1225
ادو	-1226
وال	-1227
▁عن	-1228
▁دلوں	-1229
▁سلطنت	-1230
▁̧	-1231
وبی	-1232
طی	-1233
▁بنائے	-1234
▁سط	-1235
▁جر	-1236
▁چیزوں	-1237
▁دیکھتے	-1238
▁طا	-1239
▁درد	-1240
▁مزید	-1241
▁فضل	-1242
▁راستہ	-1243
▁مص	-1244
▁خواہ	-1245
مپ	-1246
▁پا	-1247
▁مہربان	-1248
▁بخشنے	-1249
▁گروہ	-1250
ضح	-1251
▁پرہیز	-1252
ستہ	-1253
ادر	-1254
لیس	-1255
▁کریں۔	-1256
▁لائن	-1257
سپ	-1258
▁امید	-1259
▁اط	-1260
▁اخت	-1261
▁بح	-1262
▁ابراہ	-1263
ذا	-1264
▁کال	-1265
اض	-1266
▁فٹ	-1267
▁کپ	-1268
▁ابراہیم	-1269
ٰی	-1270
▁مغربی	-1271
▁ڈھ	-1272
▁کھول	-1273
▁آیتوں	-1274
یکل	-1275
▁برا	-1276
▁فار	-1277
بار	-1278
▁چو	-1279
▁متاثر	-1280
▁پوچھ	-1281
▁واضح	-1282
▁b	-1283
▁ایم	-1284
▁دیو	-1285
▁جیسا	-1286
▁سور	-1287
▁پت	-1288
▁جین	-1289
▁دیکھو	-1290
قریب	-1291
▁w	-1292
عق	-1293
سر	-1294
اید	-1295
▁10	-1296
▁متحدہ	-1297
▁اچھی	-1298
▁جہنم	-1299
گاہ	-1300
▁198	-1301
▁تیز	-1302
▁بنیادی	-1303
▁مقابلے	-1304
▁نبی	-1305
▁فراہم	-1306
▁202	-1307
▁ایل	-1308
▁باتوں	-1309
▁بش	-1310
▁مم	-1311
▁ہمارا	-1312
ابت	-1313
▁گمراہ	-1314
▁بیٹھ	-1315
کٹ	-1316
وسی	-1317
ay	-1318
بح	-1319
▁ه	-1320
▁بلند	-1321
▁سطح	-1322
▁والو	-1323
مانی	-1324
ہور	-1325
▁پڑے	-1326
کان	-1327
▁شاید	-1328
▁گئی۔	-1329
▁بنگ	-1330
▁حصے	-1331
عہ	-1332
▁پانچ	-1333
یاتی	-1334
▁صورت	-1335
▁قص	-1336
زہ	-1337
شنل	-1338
▁پکڑ	-1339
▁لہ	-1340
▁اِس	-1341
or	-1342
ریف	-1343
▁عز	-1344
▁لوٹ	-1345
▁طاقت	-1346
دائی	-1347
▁الگ	-1348
فوظ	-1349
▁راج	-1350
▁رکھی	-1351
اج	-1352
▁فرو	-1353
ریز	-1354
▁نظام	-1355
▁عنقریب	-1356
▁197	-1357
▁نتی	-1358
▁وار	-1359
▁دیئے	-1360
▁اجاز	-1361
کوں	-1362
▁تس	-1363
▁9	-1364
▁لگتا	-1365
▁ہندو	-1366
حق	-1367
▁اجازت	-1368
گری	-1369
▁لینے	-1370
▁تن	-1371
ینا	-1372
▁فل	-1373
سا	-1374
سیم	-1375
▁جلد	-1376
▁والد	-1377
▁اصل	-1378
▁آواز	-1379
▁جادو	-1380
ہم	-1381
▁محفوظ	-1382
وروں	-1383
حک	-1384
▁بدل	-1385
▁کردی	-1386
وامی	-1387
شتہ	-1388
▁شدہ	-1389
جن	-1390
▁جما	-1391
▁شکل	-1392
▁p	-1393
▁انتق	-1394
▁ایف	-1395
▁ریک	-1396
▁ملے	-1397
▁تج	-1398
▁تھیں	-1399
▁امریکی	-1400
خو	-1401
وک	-1402
خاب	-1403
چہ	-1404
▁سج	-1405
ونی	-1406
▁تف	-1407
▁ابھی	-1408
▁مومن	-1409
▁کاری	-1410
▁اجر	-1411
▁تعمیر	-1412
انگ	-1413
▁ناک	-1414
▁مقامی	-1415
▁انتخاب	-1416
▁جنوبی	-1417
,000	-1418
بانی	-1419
▁حم	-1420
▁پہنچا	-1421
▁بیوی	-1422
▁ہار	-1423
▁ڈرتے	-1424
اتین	-1425
▁عہد	-1426
▁مب	-1427
یائی	-1428
▁مین	-1429
▁چلے	-1430
▁خواتین	-1431
▁کور	-1432
▁فوج	-1433
▁بھلا	-1434
▁تبدیل	-1435
برد	-1436
▁آتا	-1437
▁ست	-1438
▁پہلا	-1439
en	-1440
ژن	-1441
▁شادی	-1442
▁وحی	-1443
ٹل	-1444
▁ہف	-1445
▁جھٹلایا	-1446
فاظ	-1447
▁گیم	-1448
▁مالک	-1449
▁علاقوں	-1450
▁امریکہ	-1451
▁منص	-1452
▁چا	-1453
▁مشہور	-1454
▁15	-1455
▁اق	-1456
ومیٹر	-1457
▁پھیر	-1458
حد	-1459
▁قومی	-1460
▁شع	-1461
دد	-1462
▁قیم	-1463
▁پیروی	-1464
▁گی۔	-1465
▁تقسیم	-1466
▁حساب	-1467
▁حقیقت	-1468
▁اسکول	-1469
ڈا	-1470
▁آب	-1471
▁کہو	-1472
▁اٹھا	-1473
▁مطلب	-1474
▁کلومیٹر	-1475
ده	-1476
▁صاف	-1477
▁لیتے	-1478
▁دشمن	-1479
▁نمبر	-1480
▁چیزیں	-1481
▁ظالموں	-1482
▁کھو	-1483
نج	-1484
ہائے	-1485
▁برائی	-1486
▁تھیں۔	-1487
▁17	-1488
▁12	-1489
▁توبہ	-1490
▁دہائی	-1491
خری	-1492
▁قدی	-1493
▁متعلق	-1494
▁درجہ	-1495
▁شکر	-1496
▁چکھ	-1497
▁آؤ	-1498
▁ڈرو	-1499
ڈن	-1500
▁c	-1501
▁سائ	-1502
دان	-1503
▁موسیقی	-1504
▁لانے	-1505
ویل	-1506
▁you	-1507
▁ذمہ	-1508
▁تجھے	-1509
▁علام	-1510
▁بری	-1511
▁شو	-1512
▁باتیں	-1513
▁طریقہ	-1514
▁بیماری	-1515
سن	-1516
▁سبب	-1517
▁کرکے	-1518
۔۔	-1519
▁عورتوں	-1520
▁باع	-1521
موں	-1522
▁بیٹے	-1523
▁قان	-1524
▁سیک	-1525
▁پتہ	-1526
غاز	-1527
▁مشرقی	-1528
▁رقم	-1529
ضی	-1530
بھ	-1531
▁آئیں	-1532
لاس	-1533
▁دیے	-1534
▁قلع	-1535
دیش	-1536
▁دس	-1537
▁فن	-1538
▁دیکھنے	-1539
یکا	-1540
▁آغاز	-1541
▁اگرچہ	-1542
▁مددگار	-1543
▁آبادی	-1544
▁جھگ	-1545
▁ترین	-1546
▁بنی	-1547
▁دھو	-1548
▁سامان	-1549
چر	-1550
▁آخری	-1551
▁پایا	-1552
▁رز	-1553
▁ریاستہائے	-1554
▁چیم	-1555
طر	-1556
▁بچے	-1557
▁ماں	-1558
▁کہاں	-1559
▁انتقال	-1560
ورڈ	-1561
it	-1562
▁منظ	-1563
▁باقی	-1564
▁حالت	-1565
▁صبح	-1566
▁انس	-1567
▁آسان	-1568
▁انٹر	-1569
▁علیہ	-1570
▁خبردار	-1571
رائی	-1572
▁سنا	-1573
▁جھٹل	-1574
▁to	-1575
▁فت	-1576
▁جیت	-1577
▁ہوئی۔	-1578
است	-1579
▁196	-1580
▁ممکن	-1581
▁سچ	-1582
▁ابتدائی	-1583
لیز	-1584
▁بنیاد	-1585
▁جنت	-1586
re	-1587
▁صاحب	-1588
▁مانگ	-1589
▁ثابت	-1590
ریم	-1591
▁الب	-1592
▁جانب	-1593
▁رہے۔	-1594
وان	-1595
▁آپس	-1596
▁بستی	-1597
▁مضبو	-1598
▁حی	-1599
▁چکا	-1600
▁مردوں	-1601
یسٹ	-1602
قف	-1603
▁ما	-1604
▁شمالی	-1605
▁مشت	-1606
▁پورے	-1607
▁ha	-1608
دھ	-1609
▁پچھ	-1610
ئیں	-1611
▁میل	-1612
▁سوال	-1613
▁علاقہ	-1614
▁از	-1615
▁واقعی	-1616
▁تش	-1617
▁صحی	-1618
▁ٹھک	-1619
▁بچوں	-1620
▁سچے	-1621
▁چھپ	-1622
▁فیصد	-1623
▁نجات	-1624
ائع	-1625
▁برس	-1626
▁سکے	-1627
▁مرد	-1628
▁میٹر	-1629
▁انتظار	-1630
لینڈ	-1631
▁نئے	-1632
حال	-1633
▁پناہ	-1634
گرام	-1635
▁رزق	-1636
▁نافر	-1637
▁خد	-1638
▁یونی	-1639
▁تعلیم	-1640
▁مشک	-1641
▁تکلیف	-1642
▁منصوب	-1643
▁چاہیے	-1644
نک	-1645
▁آتے	-1646
▁دیکھیں	-1647
▁شا	-1648
▁لینڈ	-1649
▁ریکارڈ	-1650
▁دعا	-1651
▁چین	-1652
▁باعث	-1653
▁علاج	-1654
▁کرسک	-1655
▁اثر	-1656
ٹوں	-1657
▁کھانے	-1658
▁زیر	-1659
▁جلدی	-1660
▁چھوٹے	-1661
▁قدیم	-1662
ابی	-1663
▁آیتیں	-1664
دت	-1665
▁لوگو	-1666
▁عیس	-1667
▁رکھو	-1668
▁تعداد	-1669
▁امت	-1670
▁ممال	-1671
▁ں	-1672
وسف	-1673
ستان	-1674
▁میچ	-1675
▁جماعت	-1676
▁عظیم	-1677
▁فائدہ	-1678
▁کامیابی	-1679
▁بلا	-1680
▁گمراہی	-1681
▁f	-1682
▁نر	-1683
▁سوچ	-1684
▁ہل	-1685
▁بھا	-1686
▁سننے	-1687
▁لاتے	-1688
▁لیا۔	-1689
یکٹ	-1690
▁حاض	-1691
▁تہوار	-1692
جب	-1693
▁خص	-1694
▁کروں	-1695
ll	-1696
ضہ	-1697
لات	-1698
▁16	-1699
▁پال	-1700
▁چلا	-1701
▁محسوس	-1702
▁ہوگئے	-1703
▁دہلی	-1704
▁ہوگیا	-1705
▁سکھ	-1706
▁بھلائی	-1707
وق	-1708
بیر	-1709
▁روشن	-1710
کاری	-1711
ing	-1712
▁مرا	-1713
▁ہوئے۔	-1714
خدا	-1715
▁کامیاب	-1716
▁یور	-1717
▁مرکزی	-1718
▁نوح	-1719
▁زبرد	-1720
▁کھڑے	-1721
ڈیو	-1722
▁معا	-1723
▁بوجھ	-1724
▁خواہش	-1725
▁تیس	-1726
▁گروپ	-1727
ڈز	-1728
▁شپ	-1729
▁مقابلہ	-1730
▁سارے	-1731
سو	-1732
▁قبل	-1733
▁گاہ	-1734
▁درخت	-1735
▁شکست	-1736
▁بھارت	-1737
▁ماہ	-1738
▁کیسے	-1739
▁تخ	-1740
▁کاموں	-1741
فظ	-1742
منٹ	-1743
طاعت	-1744
▁مجر	-1745
▁کردے	-1746
▁ہوسک	-1747
▁لک	-1748
▁ساز	-1749
▁́	-1750
عات	-1751
▁اچھے	-1752
▁سلام	-1753
▁دردناک	-1754
▁دوڑ	-1755
▁ڈالر	-1756
▁کیر	-1757
ارف	-1758
▁عال	-1759
وٹر	-1760
▁خون	-1761
▁طلب	-1762
▁ممالک	-1763
▁منتخب	-1764
▁حل	-1765
داروں	-1766
▁کرو۔	-1767
ٹنگ	-1768
3⁄4	-1769
▁گاؤں	-1770
▁ساتھی	-1771
▁n	-1772
سیع	-1773
▁مٹی	-1774
▁محبت	-1775
نٹی	-1776
▁غور	-1777
▁نفس	-1778
▁کردہ	-1779
دمات	-1780
▁صدر	-1781
▁سمجھتے	-1782
▁نئی	-1783
▁اسرائی	-1784
▁لائ	-1785
دگی	-1786
راف	-1787
▁اگلے	-1788
▁بولے	-1789
▁فرمائے	-1790
▁مشتمل	-1791
یزہ	-1792
▁ٹک	-1793
▁طریقے	-1794
با	-1795
▁چی	-1796
انک	-1797
▁چلو	-1798
▁موسم	-1799
ڑک	-1800
▁مدت	-1801
▁پائے	-1802
▁کہنا	-1803
▁دادا	-1804
▁قیمت	-1805
ہے	-1806
ندی	-1807
▁جنوب	-1808
ریہ	-1809
▁مرت	-1810
▁بھیجے	-1811
▁مضبوط	-1812
▁کھانا	-1813
▁الس	-1814
▁ایش	-1815
▁لیگ	-1816
▁مذہ	-1817
▁تصدی	-1818
▁سوائے	-1819
زر	-1820
▁اتر	-1821
▁قدرت	-1822
▁تصدیق	-1823
لڈ	-1824
گے	-1825
▁ریلیز	-1826
▁بچا	-1827
▁کاؤ	-1828
ڈیا	-1829
▁راستے	-1830
▁جیسی	-1831
▁منٹ	-1832
▁عزت	-1833
▁راست	-1834
▁فروخت	-1835
▁کاروب	-1836
▁اضافہ	-1837
کین	-1838
ارتی	-1839
▁نیا	-1840
▁جھوٹ	-1841
میت	-1842
▁رسولوں	-1843
▁پروگرام	-1844
▁195	-1845
طانوی	-1846
لان	-1847
▁یوسف	-1848
عال	-1849
▁فرمان	-1850
گل	-1851
وڈ	-1852
▁معام	-1853
▁اطاعت	-1854
▁ایوار	-1855
▁اداکار	-1856
بات	-1857
▁مخال	-1858
▁برطانوی	-1859
▁چیمپ	-1860
بول	-1861
ئیں۔	-1862
ندوں	-1863
▁اعلی	-1864
▁موقع	-1865
▁خدمات	-1866
ائیڈ	-1867
▁سفر	-1868
▁ڈالا	-1869
▁دی۔	-1870
▁مبنی	-1871
▁حاضر	-1872
▁نیشنل	-1873
▁...	-1874
▁روح	-1875
▁فس	-1876
ہرست	-1877
▁نما	-1878
▁اسرائیل	-1879
ید	-1880
▁پلٹ	-1881
▁حفاظ	-1882
ریں	-1883
▁روش	-1884
▁چیمپئن	-1885
▁سرما	-1886
▁فرشتے	-1887
رفت	-1888
▁سما	-1889
al	-1890
▁جت	-1891
▁کمپی	-1892
▁خیر	-1893
▁درواز	-1894
▁11	-1895
▁نیٹ	-1896
صاف	-1897
▁اولمپ	-1898
▁ضروری	-1899
▁وسلم	-1900
ودی	-1901
خصوص	-1902
▁the	-1903
▁علیھ	-1904
▁یونیورس	-1905
▁السّ	-1906
▁تیری	-1907
لز	-1908
▁ترقی	-1909
▁بناتے	-1910
▁پولیس	-1911
▁گھروں	-1912
▁گواہ	-1913
ٹری	-1914
▁صحیح	-1915
ضا	-1916
▁تنگ	-1917
▁قدم	-1918
▁رکھے	-1919
▁زبردست	-1920
▁دلیل	-1921
▁بندی	-1922
▁سجدہ	-1923
▁نمائ	-1924
▁منتقل	-1925
▁السّلام	-1926
صد	-1927
پو	-1928
▁الاق	-1929
▁کشتی	-1930
ed	-1931
▁معلومات	-1932
▁پرہیزگار	-1933
تیب	-1934
▁میدان	-1935
▁یونیورسٹی	-1936
▁سہ	-1937
مولی	-1938
▁ایڈ	-1939
▁اینڈ	-1940
▁الاقوامی	-1941
ورا	-1942
یند	-1943
▁مناف	-1944
اؤنڈ	-1945
▁است	-1946
▁مشکل	-1947
▁فرماتا	-1948
▁دوں	-1949
▁دینا	-1950
▁شمار	-1951
▁عالمی	-1952
▁سنگھ	-1953
ھیل	-1954
▁زور	-1955
▁ملی	-1956
▁کمز	-1957
▁جون	-1958
▁چاہیں	-1959
▁یقینی	-1960
▁صف	-1961
▁بارش	-1962
▁مجمو	-1963
الہ	-1964
▁کمپیوٹر	-1965
▁حصوں	-1966
▁حملہ	-1967
▁کھلی	-1968
▁دوسرا	-1969
▁.	-1970
▁سپ	-1971
▁عقل	-1972
▁مشرق	-1973
▁دریائے	-1974
es	-1975
▁شدید	-1976
ّت	-1977
▁نگر	-1978
دین	-1979
▁اڑ	-1980
▁گرفت	-1981
▁لائیں	-1982
▁سورج	-1983
▁ایر	-1984
▁پید	-1985
▁بدلے	-1986
▁فرمائی	-1987
جودہ	-1988
▁بیٹا	-1989
▁حرام	-1990
▁سمجھا	-1991
▁پردیش	-1992
▁کہانی	-1993
▁مارچ	-1994
گن	-1995
▁پھیل	-1996
ایتی	-1997
▁طویل	-1998
روف	-1999
▁نزد	-2000
▁چکی	-2001
▁ہوگا۔	-2002
▁آہ	-2003
اپنے	-2004
▁سمندر	-2005
▁ہوجائے	-2006
▁نشانیوں	-2007
خبر	-2008
▁پہاڑی	-2009
▁اختلاف	-2010
▁194	-2011
▁سکیں	-2012
▁کہتا	-2013
om	-2014
الو	-2015
اللہ	-2016
▁بنائی	-2017
طل	-2018
ہرے	-2019
▁چڑھ	-2020
▁کاؤنٹی	-2021
وسہ	-2022
▁کلب	-2023
ab	-2024
صل	-2025
▁نتیجے	-2026
▁S	-2027
ارک	-2028
قاف	-2029
یکر	-2030
▁فرق	-2031
▁میز	-2032
▁بھو	-2033
▁طوف	-2034
▁تحقی	-2035
▁وزیر	-2036
▁باو	-2037
▁خان	-2038
▁توجہ	-2039
▁مقبول	-2040
▁g	-2041
▁موجودہ	-2042
▁موسٰی	-2043
▁لع	-2044
▁کررہ	-2045
▁انتظام	-2046
▁چن	-2047
▁منفی	-2048
▁تعریف	-2049
زار	-2050
▁عد	-2051
▁غر	-2052
یکٹر	-2053
▁آسٹ	-2054
▁جنوری	-2055
▁محمد	-2056
▁پہاڑ	-2057
بیح	-2058
▁اہلِ	-2059
ندہ	-2060
نیا	-2061
▁ہٹ	-2062
قرار	-2063
▁فہرست	-2064
▁گواہی	-2065
▁فساد	-2066
▁درج	-2067
▁فوجی	-2068
صے	-2069
ڈل	-2070
▁is	-2071
ویٰ	-2072
▁ثقاف	-2073
▁نزدیک	-2074
میں	-2075
▁بیچ	-2076
▁مخصوص	-2077
▁یقینا	-2078
▁آنکھوں	-2079
▁بنائیں	-2080
ائد	-2081
▁الز	-2082
▁اعلان	-2083
▁مسلمانوں	-2084
حا	-2085
▁نسل	-2086
un	-2087
▁پتھر	-2088
▁آزم	-2089
▁توڑ	-2090
▁فتح	-2091
▁پین	-2092
لیو	-2093
یاب	-2094
▁دف	-2095
▁راب	-2096
▁رہتا	-2097
▁ایچ	-2098
▁فون	-2099
▁تباہ	-2100
▁دنوں	-2101
▁یک	-2102
▁دیتی	-2103
▁فرشتوں	-2104
اکی	-2105
▁نہایت	-2106
ریح	-2107
▁14	-2108
▁حض	-2109
▁غم	-2110
▁نیکی	-2111
▁آسٹریل	-2112
▁باند	-2113
▁اتار	-2114
▁احسان	-2115
▁آمد	-2116
▁ویں	-2117
▁بندے	-2118
▁گزار	-2119
▁شاہ	-2120
▁ملین	-2121
▁ستم	-2122
▁نیو	-2123
▁نہریں	-2124
▁لعنت	-2125
▁اتارا	-2126
ot	-2127
▁ڈاک	-2128
لیوں	-2129
▁آیات	-2130
▁روایتی	-2131
▁آتی	-2132
▁خوشی	-2133
▁T	-2134
▁کرل	-2135
▁کھا	-2136
▁تسبیح	-2137
خی	-2138
الت	-2139
▁مرکز	-2140
شر	-2141
ہا	-2142
▁لاؤ	-2143
▁گھنٹ	-2144
▁چش	-2145
▁تجر	-2146
دو	-2147
▁قادر	-2148
▁کلاس	-2149
▁یعنی	-2150
▁فلموں	-2151
▁پہنچے	-2152
▁کھاتے	-2153
▁گری	-2154
▁جھٹلا	-2155
▁چھوٹی	-2156
▁ہوائی	-2157
منی	-2158
▁حما	-2159
▁ہاتھوں	-2160
الیہ	-2161
▁قوت	-2162
▁رفت	-2163
▁حکمر	-2164
اسک	-2165
▁روزی	-2166
▁پارک	-2167
!)	-2168
▁نس	-2169
▁بڑھا	-2170
▁البتہ	-2171
am	-2172
▁بک	-2173
طے	-2174
▁شان	-2175
▁پڑا	-2176
▁کھیلوں	-2177
▁بتایا	-2178
▁مطال	-2179
▁تھوڑا	-2180
▁13	-2181
▁لہذا	-2182
فید	-2183
▁سچا	-2184
▁اٹھائے	-2185
▁دان	-2186
▁سیز	-2187
▁قرض	-2188
▁پنج	-2189
▁ورلڈ	-2190
▁اڈ	-2191
پورٹ	-2192
▁سوی	-2193
▁متعدد	-2194
لاع	-2195
▁کاٹ	-2196
اسی	-2197
▁قلعہ	-2198
▁ٹیکس	-2199
▁مزہ	-2200
▁منی	-2201
▁ورک	-2202
▁بھول	-2203
ندگی	-2204
▁منعق	-2205
▁سرمایہ	-2206
حاظ	-2207
▁ڈرانے	-2208
▁تحت	-2209
▁انڈیا	-2210
▁اوقات	-2211
ائز	-2212
اوی	-2213
تھی	-2214
بتلا	-2215
ومبر	-2216
▁وسیع	-2217
▁انصاف	-2218
▁پائی	-2219
بع	-2220
▁صن	-2221
▁چاہیے۔	-2222
▁گناہوں	-2223
یکشن	-2224
▁اعت	-2225
▁راه	-2226
▁لحاظ	-2227
▁بجائے	-2228
▁مہلت	-2229
▁چاند	-2230
▁ادائی	-2231
▁باوجود	-2232
سمبر	-2233
▁رام	-2234
بور	-2235
ساس	-2236
خبری	-2237
▁نور	-2238
▁دیں۔	-2239
▁کھیلا	-2240
انیہ	-2241
وے	-2242
خیر	-2243
▁جاپ	-2244
▁رجو	-2245
▁محض	-2246
▁مور	-2247
ائب	-2248
▁گڑھ	-2249
▁رکھیں	-2250
▁چاہئے	-2251
▁I	-2252
▁کاش	-2253
▁بیٹھے	-2254
انسی	-2255
▁جھیل	-2256
▁شکار	-2257
▁نومبر	-2258
▁آنکھیں	-2259
▁وز	-2260
▁سیزن	-2261
لیٹ	-2262
▁حوال	-2263
▁ہوجائیں	-2264
واب	-2265
▁رجوع	-2266
▁ہفتے	-2267
▁قانون	-2268
▁کہے	-2269
▁؟	-2270
▁بنگال	-2271
▁فرماؤ	-2272
▁خوشخبری	-2273
ھیر	-2274
▁پرست	-2275
▁الزام	-2276
▁ترتیب	-2277
▁اوس	-2278
▁روشنی	-2279
▁30	-2280
▁شہری	-2281
پے	-2282
آخر	-2283
الح	-2284
▁نہیں۔	-2285
▁ٹھکانا	-2286
شا	-2287
▁تنا	-2288
▁مقصد	-2289
▁اقت	-2290
▁تیرا	-2291
▁حالات	-2292
▁سالوں	-2293
▁انٹرنی	-2294
▁جانوروں	-2295
▁انتہ	-2296
شکر	-2297
▁پارٹی	-2298
بال	-2299
▁غلط	-2300
▁معی	-2301
▁براہ	-2302
مے	-2303
▁ٹو	-2304
▁صوب	-2305
▁اتنا	-2306
▁سائن	-2307
▁منکر	-2308
▁پریش	-2309
مع	-2310
▁لڑائی	-2311
▁خشک	-2312
▁طوفان	-2313
▁کب	-2314
▁الٰ	-2315
▁سلس	-2316
▁حفاظت	-2317
▁دسمبر	-2318
▁ستمبر	-2319
▁نافرمانی	-2320
لس	-2321
ینہ	-2322
▁انف	-2323
▁بدھ	-2324
▁حیر	-2325
▁مند	-2326
▁اسٹور	-2327
▁جزا	-2328
پن	-2329
فرت	-2330
▁2014	-2331
▁لکھا	-2332
▁ٹھہر	-2333
▁مسائل	-2334
▁ادائیگی	-2335
توبر	-2336
▁ریس	-2337
▁ویب	-2338
▁بینک	-2339
▁بینڈ	-2340
▁پیغام	-2341
▁لب	-2342
▁رقص	-2343
▁کیسا	-2344
▁کررہے	-2345
el	-2346
ٹین	-2347
▁th	-2348
▁مئی	-2349
▁2020	-2350
▁منعقد	-2351
▁انسانوں	-2352
▁لڑکی	-2353
▁اپریل	-2354
ریشن	-2355
▁وائر	-2356
عذاب	-2357
▁ساری	-2358
▁سوار	-2359
▁پیٹھ	-2360
▁سرکاری	-2361
▁صاحبان	-2362
▁پاکیزہ	-2363
us	-2364
▁سند	-2365
▁آرام	-2366
ff	-2367
ولت	-2368
▁قط	-2369
▁ساح	-2370
▁متو	-2371
▁خات	-2372
▁جھگڑ	-2373
▁باخبر	-2374
▁اکتوبر	-2375
et	-2376
▁°	-2377
فتہ	-2378
کیا	-2379
▁ویس	-2380
▁کتنی	-2381
▁ناق	-2382
کاروں	-2383
▁معاہ	-2384
▁گیند	-2385
▁نص	-2386
▁صحت	-2387
▁مسی	-2388
▁بھاگ	-2389
▁مبتلا	-2390
▁لم	-2391
▁حمل	-2392
▁اشیا	-2393
نگا	-2394
▁ڈرا	-2395
▁گویا	-2396
ہو	-2397
تال	-2398
▁مائ	-2399
▁پول	-2400
▁درست	-2401
▁گاڑی	-2402
▁باطل	-2403
▁واحد	-2404
▁کمزور	-2405
▁آزاد	-2406
▁مریم	-2407
ونگ	-2408
▁تل	-2409
▁عاد	-2410
▁فور	-2411
▁مای	-2412
▁مزا	-2413
▁اخرا	-2414
▁چھوٹا	-2415
امن	-2416
▁ہائی	-2417
))	-2418
▁زر	-2419
قرآن	-2420
▁شام	-2421
▁لوط	-2422
▁پہچ	-2423
▁2010	-2424
▁باکس	-2425
▁ke	-2426
▁بھروسہ	-2427
پل	-2428
گوں	-2429
▁سٹی	-2430
▁مخلو	-2431
▁کھلاڑیوں	-2432
ائنٹ	-2433
▁2013	-2434
▁کھاؤ	-2435
ہار	-2436
▁جسم	-2437
▁چال	-2438
ارج	-2439
▁تد	-2440
▁ملتا	-2441
▁منصوبہ	-2442
افٹ	-2443
▁نواز	-2444
▁پیمانے	-2445
▁مسئ	-2446
▁پھل	-2447
▁اگست	-2448
▁مغرب	-2449
صہ	-2450
مول	-2451
▁جہاد	-2452
▁مذاق	-2453
▁ٹیسٹ	-2454
▁کردیں	-2455
نوں	-2456
▁اسپ	-2457
▁شرح	-2458
▁ایکس	-2459
▁سرکشی	-2460
▁بیل	-2461
▁سنی	-2462
حکومت	-2463
▁چر	-2464
▁بیک	-2465
▁غار	-2466
▁انسانی	-2467
▁وآ	-2468
▁اکی	-2469
▁سامنا	-2470
▁B	-2471
حقی	-2472
▁پیٹ	-2473
▁ایوارڈ	-2474
▁خور	-2475
▁کینی	-2476
ویر	-2477
▁تشک	-2478
▁لیتا	-2479
▁پیدائش	-2480
▁زی	-2481
ظم	-2482
▁چلنے	-2483
قہ	-2484
دتی	-2485
سٹر	-2486
▁3⁄4	-2487
▁وارث	-2488
▁امکان	-2489
▁سلی	-2490
▁جدید	-2491
▁پوشی	-2492
▁تشکیل	-2493
مود	-2494
▁بیر	-2495
as	-2496
ve	-2497
▁W	-2498
▁دب	-2499
▁ارادہ	-2500
▁A	-2501
مک	-2502
▁ذات	-2503
▁کالج	-2504
▁جولائی	-2505
▁خریداری	-2506
▁برت	-2507
▁خال	-2508
▁شرک	-2509
▁گرم	-2510
▁اضافی	-2511
ٹھی	-2512
▁آدم	-2513
▁تخت	-2514
▁نیکو	-2515
رت	-2516
▁خل	-2517
▁دیر	-2518
▁مقامات	-2519
▁25	-2520
ینوں	-2521
▁گنا	-2522
▁2011	-2523
▁درجے	-2524
▁سابق	-2525
▁صلاح	-2526
▁پائیں	-2527
ندے	-2528
عام	-2529
ٹرول	-2530
▁اٹھانے	-2531
▁کیرالہ	-2532
▁رکن	-2533
▁تبدیلی	-2534
▁دریافت	-2535
▁بط	-2536
▁سری	-2537
▁خصوص	-2538
▁وسطی	-2539
▁D	-2540
▁دکھایا	-2541
▁مف	-2542
▁تیزی	-2543
▁جہاز	-2544
▁دارال	-2545
▁سویڈن	-2546
ُو	-2547
▁عو	-2548
▁امن	-2549
▁برے	-2550
▁میک	-2551
▁تامل	-2552
▁معمولی	-2553
زمین	-2554
▁ناگ	-2555
▁نامی	-2556
▁چینی	-2557
▁معاملہ	-2558
▁رن	-2559
▁غیب	-2560
▁2017	-2561
▁مؤ	-2562
▁2019	-2563
▁قبضہ	-2564
▁دیکھے	-2565
▁ہیر	-2566
▁2012	-2567
▁اسکر	-2568
ونٹ	-2569
▁بنے	-2570
▁ڈیم	-2571
▁سروس	-2572
▁دوسروں	-2573
صول	-2574
▁جوڑ	-2575
▁ندی	-2576
▁ناکام	-2577
▁یافتہ	-2578
▁علامات	-2579
جد	-2580
رز	-2581
لاب	-2582
▁تحقیق	-2583
▁برقرار	-2584
▁زیادتی	-2585
شل	-2586
▁حضور	-2587
▁رفتار	-2588
کام	-2589
▁حمایت	-2590
انت	-2591
سام	-2592
صیل	-2593
▁تاب	-2594
▁عرصے	-2595
▁مسیح	-2596
▁پھینک	-2597
▁ملاقات	-2598
▁کاروبار	-2599
ایک	-2600
▁سرگر	-2601
▁شراب	-2602
▁چلتا	-2603
▁فروری	-2604
▁C	-2605
ہرا	-2606
یوں	-2607
▁سرپر	-2608
▁لایا	-2609
صیبت	-2610
▁اُسے	-2611
▁ملنے	-2612
▁پانے	-2613
▁پوجا	-2614
▁شہروں	-2615
▁یہودی	-2616
▁کرسکتے	-2617
ھرا	-2618
▁زخ	-2619
▁جیتا	-2620
▁سائٹ	-2621
نسی	-2622
▁پاؤں	-2623
▁سیاسی	-2624
▁ریاستی	-2625
ow	-2626
ظر	-2627
▁ذرا	-2628
▁فیس	-2629
▁وآلہ	-2630
▁ہندی	-2631
▁سنتے	-2632
اپنی	-2633
▁پچھلے	-2634
▁مظ	-2635
▁100	-2636
▁ماح	-2637
▁رہنا	-2638
▁شاہی	-2639
▁گمان	-2640
▁ہوگی۔	-2641
▁دستیاب	-2642
غا	-2643
le	-2644
▁درخو	-2645
▁ریاستوں	-2646
گھ	-2647
دانی	-2648
▁آٹھ	-2649
▁نار	-2650
▁رشتہ	-2651
▁تقریبا	-2652
▁پہن	-2653
▁توقع	-2654
▁سفار	-2655
▁کارڈ	-2656
▁گورن	-2657
▁کری	-2658
▁ماہر	-2659
▁تدبیر	-2660
▁ممکنہ	-2661
▁ڈاکٹر	-2662
وش	-2663
▁لفظ	-2664
▁آجائے	-2665
▁اصلاح	-2666
▁فکر	-2667
▁ڈیز	-2668
▁ثواب	-2669
▁آزادی	-2670
▁پھیلا	-2671
▁مہی	-2672
▁مصنو	-2673
▁انتظامی	-2674
▁مہربانی	-2675
▁دارالحکومت	-2676
▁مہارا	-2677
▁کیجئے	-2678
▁پرت	-2679
▁جزیر	-2680
اؤنٹ	-2681
▁تخلی	-2682
▁ناڈو	-2683
▁اسکور	-2684
▁سیل	-2685
▁2018	-2686
▁گیمز	-2687
▁سیدھے	-2688
▁ماحول	-2689
▁مصیبت	-2690
▁انتہائی	-2691
▁چلتے	-2692
▁دیوار	-2693
داری	-2694
▁ٹیلی	-2695
▁کمار	-2696
▁احساس	-2697
▁پیسے	-2698
▁مقدار	-2699
▁ہوجاؤ	-2700
▁احت	-2701
▁ویل	-2702
▁گھا	-2703
▁نوجو	-2704
▁اختتا	-2705
دس	-2706
▁عاج	-2707
▁انہی	-2708
▁ذلیل	-2709
▁اعلیٰ	-2710
▁بائیں	-2711
▁سیریز	-2712
▁اسٹیشن	-2713
کش	-2714
▁بیٹی	-2715
▁کمیون	-2716
▁جادوگر	-2717
طف	-2718
▁مغل	-2719
▁پاؤ	-2720
▁پری	-2721
▁اتنی	-2722
▁آزمائش	-2723
▁بارگاہ	-2724
▁پہاڑوں	-2725
▁چیک	-2726
▁اوسط	-2727
▁دائیں	-2728
▁کنارے	-2729
▁نگ	-2730
▁منافق	-2731
▁دروازے	-2732
▁ك	-2733
دیہ	-2734
▁جز	-2735
▁شے	-2736
▁لمب	-2737
▁2008	-2738
▁بورڈ	-2739
▁تصویر	-2740
▁مخالف	-2741
▁o	-2742
بوں	-2743
▁(1	-2744
ادری	-2745
امنٹ	-2746
▁برط	-2747
▁دکھا	-2748
▁نعمتوں	-2749
▁آسٹریلیا	-2750
▁0	-2751
▁me	-2752
▁آل	-2753
▁حج	-2754
▁خز	-2755
▁مون	-2756
▁بندگی	-2757
▁صلاحیت	-2758
⁄2	-2759
▁ٹورن	-2760
▁خرابی	-2761
ہری	-2762
▁بخشش	-2763
▁وائرس	-2764
▁نقل	-2765
▁درخواست	-2766
ذیب	-2767
▁in	-2768
ریزی	-2769
▁عرض	-2770
▁کھل	-2771
▁سرکش	-2772
▁پہچان	-2773
▁صریح	-2774
▁نمایاں	-2775
▁پہنچنے	-2776
▁ٹورنامنٹ	-2777
ٹرو	-2778
▁تیل	-2779
▁چوت	-2780
▁اخراجات	-2781
▁Y	-2782
▁j	-2783
ماغ	-2784
مبئی	-2785
▁پاب	-2786
▁ٹکڑے	-2787
▁افسوس	-2788
▁فرانس	-2789
▁50	-2790
▁he	-2791
▁دلچ	-2792
▁مہینے	-2793
▁ہوگئی	-2794
ضب	-2795
▁کنٹرول	-2796
ur	-2797
اؤن	-2798
دود	-2799
▁کول	-2800
▁ایئر	-2801
▁لشکر	-2802
▁معاون	-2803
20	-2804
▁193	-2805
▁صالح	-2806
▁پکارتے	-2807
ختی	-2808
شور	-2809
ٹرز	-2810
ھیں	-2811
▁شنا	-2812
ُر	-2813
کشن	-2814
▁بیس	-2815
▁تار	-2816
▁وادی	-2817
▁حقیقی	-2818
▁تمل	-2819
▁محل	-2820
▁پان	-2821
▁کیری	-2822
▁بھاری	-2823
▁کھیلے	-2824
وپ	-2825
▁میس	-2826
▁مرتبہ	-2827
ap	-2828
ain	-2829
▁وقف	-2830
▁دیکھتا	-2831
▁بدتر	-2832
▁بشارت	-2833
وع	-2834
▁آت	-2835
عقوب	-2836
▁فاص	-2837
▁بننے	-2838
▁ڈرام	-2839
▁برباد	-2840
▁قیادت	-2841
▁M	-2842
ارٹ	-2843
ینو	-2844
▁2016	-2845
▁دماغ	-2846
▁کرنی	-2847
▁تھوڑی	-2848
▁روکنے	-2849
ائج	-2850
زیشن	-2851
▁فری	-2852
▁غلطی	-2853
▁قابو	-2854
▁گانے	-2855
▁سنانے	-2856
-1	-2857
▁G	-2858
▁سان	-2859
▁نرم	-2860
▁رہا۔	-2861
▁بھیجی	-2862
▁لگایا	-2863
▁سپر	-2864
▁ناشک	-2865
▁سماجی	-2866
بوت	-2867
▁جھوٹے	-2868
ثیت	-2869
ولوں	-2870
▁سنو	-2871
▁ثمود	-2872
▁ٹائم	-2873
▁آمدنی	-2874
▁سیدھی	-2875
▁معامل	-2876
▁انگریزی	-2877
زم	-2878
جویز	-2879
▁آہستہ	-2880
▁اسلام	-2881
▁جائے۔	-2882
▁ویڈیو	-2883
id	-2884
لیت	-2885
▁ضرب	-2886
▁گلو	-2887
▁بجلی	-2888
▁جنگل	-2889
▁خراب	-2890
▁عالم	-2891
▁الٰہی	-2892
▁طے	-2893
▁چٹ	-2894
▁سسٹ	-2895
▁مجموعی	-2896
▁طرز	-2897
▁سمیت	-2898
▁کتنا	-2899
▁پنجاب	-2900
رات	-2901
شاد	-2902
▁تجویز	-2903
▁عیسوی	-2904
▁مذہبی	-2905
ریت	-2906
▁طبی	-2907
▁بطور	-2908
▁حیات	-2909
▁خطرہ	-2910
▁ہوسکتا	-2911
▁کرم	-2912
▁گجر	-2913
حقیقت	-2914
▁جانور	-2915
▁دیوتا	-2916
؟"	-2917
▁ذہ	-2918
▁باق	-2919
▁حرکت	-2920
▁خواب	-2921
▁اداکاری	-2922
وما	-2923
یرا	-2924
ینس	-2925
▁یوں	-2926
▁فائل	-2927
▁اندازہ	-2928
▁غضب	-2929
▁محر	-2930
▁داری	-2931
▁سفید	-2932
▁پہلو	-2933
▁پاکستان	-2934
بن	-2935
ائشی	-2936
▁راضی	-2937
▁پیشہ	-2938
▁کلام	-2939
▁تاریخی	-2940
▁انگلینڈ	-2941
رس	-2942
▁اٹ	-2943
▁ابتدا	-2944
▁تجارتی	-2945
پال	-2946
▁ڈب	-2947
▁پیس	-2948
▁فائن	-2949
▁منایا	-2950
▁کھج	-2951
▁عورتیں	-2952
▁انفیکشن	-2953
حان	-2954
▁خس	-2955
▁سیدھا	-2956
▁شکریہ	-2957
▁ء	-2958
ion	-2959
ایس	-2960
▁لاکھ	-2961
▁نبیؐ	-2962
▁مومنوں	-2963
▁جے	-2964
▁دیوی	-2965
▁گئیں۔	-2966
کسی	-2967
کوٰ	-2968
▁مربع	-2969
▁تجارت	-2970
▁اختتام	-2971
ینک	-2972
▁جھوٹا	-2973
▁سالانہ	-2974
▁معاملات	-2975
▁چپ	-2976
▁پوج	-2977
▁ڈیزائن	-2978
رل	-2979
زل	-2980
ونک	-2981
▁لگی	-2982
▁2015	-2983
▁تحری	-2984
▁جانچ	-2985
▁قیام	-2986
▁لباس	-2987
▁مجرم	-2988
▁24	-2989
▁رد	-2990
▁حیثیت	-2991
▁قانونی	-2992
▁گھڑ	-2993
▁تسلیم	-2994
دام	-2995
نگی	-2996
▁خوبص	-2997
▁کمائی	-2998
ڈیم	-2999
▁کوچ	-3000
▁تکبر	-3001
▁انعام	-3002
لوے	-3003
▁ڈگری	-3004
▁ہائے	-3005
▁ہوکر	-3006
▁اقسام	-3007
▁اظ	-3008
▁مختصر	-3009
▁نمائندگی	-3010
نف	-3011
▁کٹ	-3012
▁امان	-3013
▁جاپان	-3014
▁شماری	-3015
▁پیغمبروں	-3016
▁ملتی	-3017
▁چاہو	-3018
▁اچانک	-3019
▁تفصیل	-3020
im	-3021
زے	-3022
▁اُسی	-3023
▁علامت	-3024
▁ڈرائی	-3025
▁والدین	-3026
▁کانگری	-3027
ah	-3028
میٹ	-3029
▁بچہ	-3030
▁مکر	-3031
▁ذاتی	-3032
▁مارے	-3033
▁مایوس	-3034
▁پرہیزگاروں	-3035
افر	-3036
ندن	-3037
یلڈ	-3038
▁زکوٰ	-3039
▁مشتر	-3040
▁کرلی	-3041
▁مسلسل	-3042
ٰذا	-3043
▁دفا	-3044
▁ہسپ	-3045
ائیاں	-3046
▁ایشیا	-3047
▁رکھنا	-3048
▁انتخابات	-3049
برگ	-3050
▁جذ	-3051
انچہ	-3052
▁رک	-3053
پوری	-3054
▁مردم	-3055
▁برطانیہ	-3056
کردگی	-3057
▁نگاہ	-3058
▁ہاکی	-3059
▁قسمیں	-3060
▁لگانے	-3061
▁یعقوب	-3062
▁رج	-3063
▁عل	-3064
▁ارد	-3065
▁نفع	-3066
▁واقف	-3067
▁داؤ	-3068
▁چھا	-3069
▁تصور	-3070
▁درگز	-3071
▁صارف	-3072
▁مالی	-3073
▁باغات	-3074
ّہ	-3075
▁احا	-3076
▁2007	-3077
▁چہرے	-3078
▁گائے	-3079
▁منح	-3080
▁چوٹ	-3081
▁کوڈ	-3082
▁پینے	-3083
▁اظہار	-3084
▁معیار	-3085
▁اولمپک	-3086
▁کارکردگی	-3087
ir	-3088
▁لہٰذا	-3089
▁نتیجہ	-3090
مانہ	-3091
▁نگہ	-3092
▁سائنس	-3093
▁چاہیئے	-3094
شیا	-3095
▁باندھ	-3096
▁بچانے	-3097
▁ریلوے	-3098
▁موسیٰؑ	-3099
▁آم	-3100
▁رخ	-3101
وانین	-3102
شنو	-3103
دنیا	-3104
▁افسر	-3105
▁عمارت	-3106
لاق	-3107
▁صح	-3108
▁مانو	-3109
▁فرمانے	-3110
nd	-3111
ٹم	-3112
افل	-3113
ہات	-3114
▁سیر	-3115
▁وضا	-3116
▁کرس	-3117
▁2021	-3118
▁چکھو	-3119
▁تنظیم	-3120
▁گورنر	-3121
▁قوانین	-3122
▁[	-3123
شٹر	-3124
نام	-3125
یا۔	-3126
▁قید	-3127
▁مانا	-3128
▁مسجد	-3129
▁ورنہ	-3130
▁پوائنٹ	-3131
▁پوشیدہ	-3132
اخ	-3133
▁H	-3134
بیت	-3135
▁بحث	-3136
▁واب	-3137
▁کیں	-3138
▁ڈائر	-3139
▁وضاحت	-3140
▁اقتدار	-3141
ak	-3142
▁نت	-3143
▁گم	-3144
▁دائ	-3145
▁خانہ	-3146
▁سسٹم	-3147
▁سنبھ	-3148
▁سکے۔	-3149
▁درگزر	-3150
▁عیسائی	-3151
▁جھٹلانے	-3152
▁کانگریس	-3153
il	-3154
الا	-3155
وریہ	-3156
▁منگ	-3157
▁پھٹ	-3158
▁مذہب	-3159
▁مشور	-3160
▁مجبور	-3161
▁گرفتار	-3162
1⁄4	-3163
ریک	-3164
وصی	-3165
▁آؤٹ	-3166
▁لندن	-3167
▁منظر	-3168
▁میون	-3169
▁جانوں	-3170
▁%	-3171
حکم	-3172
▁جڑ	-3173
▁افت	-3174
▁تمغ	-3175
▁بولی	-3176
▁فائنل	-3177
▁محدود	-3178
▁کیریئر	-3179
اُ	-3180
غاوت	-3181
▁2000	-3182
▁تابع	-3183
ad	-3184
جس	-3185
نڈی	-3186
واع	-3187
▁منع	-3188
▁ڈرتا	-3189
▁رحمان	-3190
▁سلیمان	-3191
▁پیداوار	-3192
ویز	-3193
▁2006	-3194
▁بولا	-3195
▁ہتھی	-3196
▁ہزار	-3197
▁سکو	-3198
▁جہان	-3199
▁لائق	-3200
▁ڈیٹا	-3201
▁کھلے	-3202
▁بغاوت	-3203
▁کینیڈا	-3204
نش	-3205
hat	-3206
ھاڑ	-3207
یکو	-3208
▁قَ	-3209
▁ریز	-3210
▁زمر	-3211
▁سود	-3212
▁سیٹ	-3213
▁موڑ	-3214
▁آرڈر	-3215
▁میوز	-3216
▁کتنے	-3217
واری	-3218
▁قری	-3219
اندھی	-3220
▁مستق	-3221
▁کمان	-3222
▁اطلاع	-3223
▁لاز	-3224
▁پڑتا	-3225
▁اندھی	-3226
▁تخلیق	-3227
▁معافی	-3228
▁گجرات	-3229
▁ایسوسی	-3230
▁دھر	-3231
▁سلو	-3232
▁سڑک	-3233
▁دیجی	-3234
▁مواد	-3235
▁جرمنی	-3236
▁حیران	-3237
▁دکھائی	-3238
▁دکھائے	-3239
انڈ	-3240
▁ایج	-3241
▁ڈیل	-3242
▁سالہ	-3243
▁فعال	-3244
▁کھڑا	-3245
▁روایت	-3246
▁عوامی	-3247
▁مسئلہ	-3248
ئل	-3249
ایوں	-3250
▁خالص	-3251
▁بنانا	-3252
▁حرارت	-3253
▁کاروں	-3254
طن	-3255
زاز	-3256
▁خطے	-3257
▁ونڈ	-3258
▁چلی	-3259
▁2009	-3260
▁پاور	-3261
▁ڈالے	-3262
▁ڈبلیو	-3263
▁کتابوں	-3264
ندری	-3265
▁شیو	-3266
▁کیسی	-3267
▁بناتا	-3268
▁خصوصی	-3269
▁بچھ	-3270
▁واس	-3271
▁جارہ	-3272
▁ارشاد	-3273
فیہ	-3274
▁باس	-3275
▁مہم	-3276
▁گھو	-3277
▁فارم	-3278
▁لڑکے	-3279
▁کروڑ	-3280
▁اعزاز	-3281
▁بہتان	-3282
▁صاحبانِ	-3283
بیا	-3284
▁تاز	-3285
▁قبر	-3286
▁ٹری	-3287
نمائی	-3288
▁بخشی	-3289
▁تشخی	-3290
▁فریب	-3291
▁مقدس	-3292
▁ورژن	-3293
▁اشیاء	-3294
▁مناسب	-3295
▁گھنٹے	-3296
رام	-3297
▁خا	-3298
▁امو	-3299
▁اعظم	-3300
آپ	-3301
چکا	-3302
گاری	-3303
▁مچھ	-3304
▁حملے	-3305
▁ویئر	-3306
▁مارکی	-3307
پہ	-3308
ائٹس	-3309
▁بیٹ	-3310
▁بہار	-3311
▁دفعہ	-3312
▁کپڑے	-3313
▁تجربہ	-3314
▁گاندھی	-3315
50	-3316
شہ	-3317
▁r	-3318
فیق	-3319
▁ایشن	-3320
▁قَسم	-3321
▁منسل	-3322
▁سفارش	-3323
ck	-3324
اء	-3325
تک	-3326
▁سافٹ	-3327
▁گوشت	-3328
▁روکتے	-3329
▁نوجوان	-3330
oo	-3331
ڑھا	-3332
داشت	-3333
▁برف	-3334
▁مرح	-3335
▁ہڈی	-3336
▁دورہ	-3337
▁سیاہ	-3338
▁قصبہ	-3339
▁ٹریک	-3340
▁کرکٹ	-3341
▁احکام	-3342
▁رسائی	-3343
▁شناخت	-3344
▁واقعات	-3345
▁گروہوں	-3346
واج	-3347
اندی	-3348
▁وین	-3349
▁بالا	-3350
▁بھال	-3351
▁خدمت	-3352
▁نسبت	-3353
▁کونسل	-3354
▁ہلاکت	-3355
▁طریقوں	-3356
▁متعارف	-3357
ادے	-3358
▁--	-3359
یریا	-3360
▁ذلت	-3361
▁ميں	-3362
▁جوڑے	-3363
▁آسانی	-3364
▁ہارون	-3365
▁مصنوعات	-3366
یلی	-3367
▁آند	-3368
▁عنا	-3369
▁سوچا	-3370
▁رابطہ	-3371
▁قدرتی	-3372
▁نافرمان	-3373
▁شوٹ	-3374
▁ہٹا	-3375
▁جاسک	-3376
▁ماڈل	-3377
▁مزاح	-3378
▁پیرو	-3379
▁فیصلے	-3380
پٹ	-3381
سپل	-3382
نڈا	-3383
پھر	-3384
▁40	-3385
اویر	-3386
▁باش	-3387
▁ویر	-3388
▁اونٹ	-3389
▁مقدم	-3390
▁گھڑی	-3391
▁اثرات	-3392
▁اشارہ	-3393
▁منسلک	-3394
um	-3395
ابل	-3396
قیا	-3397
▁فاس	-3398
▁رائے	-3399
▁مسافر	-3400
▁سرپرست	-3401
▁سمندری	-3402
برا	-3403
▁آرٹ	-3404
▁اکث	-3405
▁دکان	-3406
▁خاتون	-3407
▁یورپی	-3408
▁مری	-3409
▁سونے	-3410
▁مانتے	-3411
▁پکارا	-3412
▁پریشان	-3413
ذر	-3414
اگر	-3415
جیب	-3416
▁اَ	-3417
ویژن	-3418
▁تال	-3419
▁محب	-3420
▁تیسرے	-3421
ik	-3422
پسی	-3423
▁بص	-3424
▁پلے	-3425
▁کیے۔	-3426
▁مغفرت	-3427
▁نتائج	-3428
▁کھینچ	-3429
▁±	-3430
▁بزر	-3431
▁چمک	-3432
▁بائی	-3433
▁دعوت	-3434
▁تکذیب	-3435
▁نوازا	-3436
▁کھیتی	-3437
ch	-3438
برت	-3439
شین	-3440
ورات	-3441
▁192	-3442
▁بست	-3443
▁یورپ	-3444
▁اوائل	-3445
▁رپورٹ	-3446
اگ	-3447
▁روم	-3448
▁شاع	-3449
▁کیس	-3450
▁بازی	-3451
▁رستے	-3452
▁غافل	-3453
▁مثبت	-3454
گردانی	-3455
▁تربیت	-3456
▁اولمپکس	-3457
ایہ	-3458
غیرہ	-3459
▁ارا	-3460
▁برہ	-3461
▁راک	-3462
▁زاوی	-3463
▁واقعہ	-3464
▁جنگلات	-3465
▁طاقتور	-3466
1⁄2	-3467
▁فرض	-3468
▁پیا	-3469
▁ہری	-3470
▁تھام	-3471
▁ساحل	-3472
▁تحریک	-3473
▁جیتنے	-3474
▁فوراً	-3475
▁e	-3476
ولر	-3477
کوز	-3478
▁ووڈ	-3479
▁پود	-3480
▁کیم	-3481
▁لگیں	-3482
▁تشخیص	-3483
.5	-3484
▁تری	-3485
▁سختی	-3486
▁باقاع	-3487
▁مشترکہ	-3488
وتی	-3489
▁23	-3490
آباد	-3491
▁ریڈ	-3492
▁کنگ	-3493
▁ہاؤ	-3494
▁تحفظ	-3495
▁تعین	-3496
▁توان	-3497
▁احاطہ	-3498
▁بڑھنے	-3499
▁وابستہ	-3500
os	-3501
خط	-3502
ستھ	-3503
صلی	-3504
▁لن	-3505
▁گار	-3506
▁یکس	-3507
▁مراد	-3508
▁پروڈ	-3509
▁کینس	-3510
▁حوالے	-3511
▁دیکھی	-3512
▁ڈویژن	-3513
يا	-3514
یو	-3515
امت	-3516
ووا	-3517
▁22	-3518
میوں	-3519
▁خطرے	-3520
▁کورٹ	-3521
▁خدائے	-3522
▁میڈیا	-3523
▁مشرکوں	-3524
جز	-3525
یے	-3526
حاق	-3527
ذیر	-3528
وسٹ	-3529
چکی	-3530
▁ذر	-3531
نہیں	-3532
▁ہنگ	-3533
قیامت	-3534
▁داروں	-3535
▁دعویٰ	-3536
▁وغیرہ	-3537
▁مستقبل	-3538
▁پابندی	-3539
▁پرندوں	-3540
ئس	-3541
مق	-3542
ائف	-3543
▁ویژن	-3544
▁کھجور	-3545
▁انگریز	-3546
نر	-3547
جرت	-3548
ٹیل	-3549
▁21	-3550
▁اصط	-3551
▁دفت	-3552
▁عرش	-3553
▁جنرل	-3554
▁جنسی	-3555
دل	-3556
▁برکت	-3557
▁نامزد	-3558
▁ٹیموں	-3559
▁ہج	-3560
شیات	-3561
▁چوپ	-3562
▁کلی	-3563
▁حیدر	-3564
▁ڈھان	-3565
▁بھارتی	-3566
▁مخالفت	-3567
ذہ	-3568
سیٰ	-3569
ھوں	-3570
▁اترا	-3571
▁جھٹلاؤ	-3572
▁کرناٹک	-3573
▁نیاز	-3574
▁صاحبِ	-3575
▁پرستش	-3576
ere	-3577
▁آنا	-3578
▁کوئ	-3579
▁سیکھ	-3580
▁باغوں	-3581
▁ئ	-3582
کیل	-3583
یاد	-3584
▁گڑ	-3585
▁سرخ	-3586
▁چیت	-3587
▁حلال	-3588
▁دولت	-3589
▁کفار	-3590
▁اتاری	-3591
▁تباہی	-3592
▁مظاہر	-3593
▁ممبئی	-3594
▁میونسپل	-3595
تاً	-3596
تمہ	-3597
ریٹ	-3598
▁شیر	-3599
▁عقی	-3600
▁سرحد	-3601
▁چاہا	-3602
▁بلدیہ	-3603
▁ثقافت	-3604
▁قریبی	-3605
▁مرکوز	-3606
▁چونکہ	-3607
▁اصطلاح	-3608
▁بالآخر	-3609
▁لوٹائے	-3610
▁مہاراشٹر	-3611
▁ye	-3612
▁مچ	-3613
▁سرو	-3614
▁ہال	-3615
ایمان	-3616
بردار	-3617
▁تعلقات	-3618
ختہ	-3619
شار	-3620
ینگ	-3621
▁اوہ	-3622
▁جدا	-3623
▁راگ	-3624
▁سون	-3625
▁غصہ	-3626
لوگوں	-3627
▁برحق	-3628
▁ترجی	-3629
▁دوستی	-3630
▁دھوکہ	-3631
▁P	-3632
▁صنعت	-3633
▁ثقافتی	-3634
ثرت	-3635
ریس	-3636
ریقہ	-3637
▁ناپ	-3638
▁داؤد	-3639
▁روپے	-3640
▁شائع	-3641
▁پیشک	-3642
▁انڈین	-3643
▁متوجہ	-3644
▁محبوب	-3645
بری	-3646
فاق	-3647
نڈر	-3648
ولی	-3649
▁ناحق	-3650
▁گئیں	-3651
آمد	-3652
باع	-3653
ساز	-3654
▁حمد	-3655
▁ریٹ	-3656
▁فیڈ	-3657
▁مسلم	-3658
▁پیچی	-3659
▁اینٹی	-3660
▁طب	-3661
▁پہنچی	-3662
▁کرایا	-3663
▁بدترین	-3664
▁بستیوں	-3665
▁دکھاتا	-3666
الے	-3667
کھا	-3668
▁عی	-3669
▁وف	-3670
▁وے	-3671
▁بشر	-3672
▁حقوق	-3673
▁عاجز	-3674
▁لینا	-3675
▁مجسم	-3676
عالمین	-3677
▁نکلنے	-3678
▁پیشکش	-3679
▁بادشاہی	-3680
ھم	-3681
ورو	-3682
▁بیش	-3683
▁صفح	-3684
▁عار	-3685
▁دودھ	-3686
▁عجیب	-3687
▁عدالت	-3688
▁انٹرنیشنل	-3689
▁جھک	-3690
▁آئے۔	-3691
▁سنتا	-3692
▁پڑھتے	-3693
▁العالمین	-3694
اہل	-3695
▁انح	-3696
▁بچت	-3697
▁پلا	-3698
▁یتی	-3699
▁یوم	-3700
▁سلسلہ	-3701
▁خوبصورت	-3702
▁قد	-3703
▁پچ	-3704
▁بجٹ	-3705
▁شطر	-3706
▁ٹوٹ	-3707
▁تازہ	-3708
▁خانے	-3709
▁لگتے	-3710
انسیسی	-3711
▁کلاسیکی	-3712
▁وق	-3713
▁جنس	-3714
▁راز	-3715
▁زدہ	-3716
▁مدا	-3717
▁2001	-3718
▁2005	-3719
▁آگاہ	-3720
▁بالی	-3721
▁شوہر	-3722
▁ٹیکن	-3723
▁پسندی	-3724
ینڈر	-3725
▁hai	-3726
▁قول	-3727
▁دفتر	-3728
▁ناپس	-3729
▁گھری	-3730
▁شطرنج	-3731
پک	-3732
راج	-3733
سپی	-3734
▁نچ	-3735
▁خاطر	-3736
▁وشنو	-3737
▁وعده	-3738
▁کرلیا	-3739
زش	-3740
▁فاصلے	-3741
▁واپسی	-3742
▁پوجتے	-3743
انٹ	-3744
ونڈ	-3745
▁60	-3746
بادل	-3747
▁سمت	-3748
▁محک	-3749
▁فوری	-3750
▁لکھی	-3751
▁مشرک	-3752
▁مکان	-3753
▁پالی	-3754
▁گزشتہ	-3755
کچھ	-3756
▁ون	-3757
▁فال	-3758
▁گنہ	-3759
▁اقدام	-3760
▁پوچھا	-3761
▁اکثریت	-3762
▁درحقیقت	-3763
▁عص	-3764
▁جنا	-3765
پورٹس	-3766
▁شرکت	-3767
▁غلام	-3768
▁منزل	-3769
▁پروٹ	-3770
▁کینسر	-3771
▁عمدہ	-3772
▁چھپا	-3773
▁سنائی	-3774
▁لگائے	-3775
▁راجستھ	-3776
▁بھائیوں	-3777
فہ	-3778
▁صد	-3779
▁جلا	-3780
▁راؤ	-3781
▁بندر	-3782
▁ثبوت	-3783
▁جتنا	-3784
▁سیاح	-3785
▁بیویوں	-3786
▁جھٹلاتے	-3787
▁فرانسیسی	-3788
اش	-3789
زو	-3790
قا	-3791
نیک	-3792
ڈیوس	-3793
▁اعتم	-3794
▁رسوا	-3795
▁اوران	-3796
▁جگہوں	-3797
▁سردار	-3798
▁مہمان	-3799
▁انٹرنیٹ	-3800
ut	-3801
ٹھے	-3802
▁26	-3803
تمام	-3804
▁بہشت	-3805
▁روکا	-3806
▁پردہ	-3807
▁زبانوں	-3808
▁پہنچتی	-3809
▁ادب	-3810
▁صلہ	-3811
▁لاگ	-3812
▁جھگڑا	-3813
▁زمانے	-3814
▁سائیکل	-3815
دہی	-3816
▁191	-3817
▁رکو	-3818
▁سبز	-3819
▁سیکن	-3820
▁ضائع	-3821
▁فیلڈ	-3822
▁اتباع	-3823
▁الفاظ	-3824
▁بیٹوں	-3825
▁نکالا	-3826
▁برادری	-3827
▁کارساز	-3828
تیں	-3829
ولو	-3830
▁نوع	-3831
▁آلات	-3832
▁آئیووا	-3833
▁گنہگار	-3834
امین	-3835
▁شری	-3836
▁متن	-3837
▁وسط	-3838
▁بتاؤ	-3839
▁اسٹاک	-3840
▁عیسیٰ	-3841
▁ملکیت	-3842
▁مندروں	-3843
ag	-3844
ce	-3845
چل	-3846
▁O	-3847
▁رش	-3848
▁ترا	-3849
▁دے۔	-3850
▁ماس	-3851
▁2004	-3852
▁ترجیح	-3853
▁نکالے	-3854
▁بنایا۔	-3855
▁شاندار	-3856
▁,	-3857
ذکر	-3858
رونی	-3859
▁بہر	-3860
▁مدھی	-3861
▁پیری	-3862
▁ہاؤس	-3863
▁اسٹیٹ	-3864
▁مقررہ	-3865
▁سلامتی	-3866
iz	-3867
لح	-3868
▁غائب	-3869
▁رکھتی	-3870
▁سکیں۔	-3871
▁اکاؤنٹ	-3872
▁رہائشی	-3873
▁کردیتا	-3874
▁کھیلنے	-3875
▁1,	-3876
▁27	-3877
▁غف	-3878
▁آتش	-3879
▁دھی	-3880
▁لوک	-3881
▁کلک	-3882
▁ذخیر	-3883
▁فلاح	-3884
▁قلعے	-3885
▁مریض	-3886
▁سینٹر	-3887
▁معاہدے	-3888
راض	-3889
گان	-3890
▁رسی	-3891
▁شاخ	-3892
▁ٹیک	-3893
لیمنٹ	-3894
▁منظم	-3895
▁ہنسی	-3896
▁سیلاب	-3897
▁مشورہ	-3898
▁اسکرین	-3899
▁صلی	-3900
▁آیا۔	-3901
▁عربی	-3902
▁میں۔	-3903
▁دراصل	-3904
▁سیکنڈ	-3905
▁آجائیں	-3906
▁اعتماد	-3907
▁جسمانی	-3908
▁دیکھنا	-3909
▁مجرموں	-3910
▁معاملے	-3911
▁گھریلو	-3912
يه	-3913
ent	-3914
اکر	-3915
▁نوٹ	-3916
▁پذیر	-3917
▁خبریں	-3918
▁پرفار	-3919
▁نگہبان	-3920
▁رہنمائی	-3921
نز	-3922
ادث	-3923
یکروس	-3924
▁روزہ	-3925
▁پڑھا	-3926
▁ذرائع	-3927
▁ڈالیں	-3928
▁دوستوں	-3929
▁توانائی	-3930
▁خصوصیات	-3931
▁نشاندہی	-3932
پت	-3933
▁L	-3934
▁سٹ	-3935
▁قبض	-3936
▁مشق	-3937
▁گرا	-3938
▁ٹرین	-3939
▁چوری	-3940
▁ہجرت	-3941
▁ٹرانس	-3942
▁افریقہ	-3943
▁خریدنے	-3944
▁معبودوں	-3945
دیا	-3946
▁عق	-3947
▁سنس	-3948
▁اسکی	-3949
▁غلبہ	-3950
▁مردہ	-3951
▁گردن	-3952
▁سلسلے	-3953
▁چاندی	-3954
▁یونین	-3955
▁دلچسپی	-3956
▁پروڈیوس	-3957
صال	-3958
▁do	-3959
▁رے	-3960
▁آفس	-3961
▁اوپ	-3962
▁بیو	-3963
▁کشی	-3964
▁گفت	-3965
▁بناؤ	-3966
▁طالب	-3967
▁مصنف	-3968
▁خوراک	-3969
▁مخلوق	-3970
ct	-3971
ھار	-3972
▁وائ	-3973
▁اگلی	-3974
▁تناز	-3975
▁نارا	-3976
▁مدھیہ	-3977
ءِ	-3978
تیہ	-3979
یلت	-3980
▁it	-3981
کاوٹ	-3982
▁بہہ	-3983
▁رہن	-3984
▁نجی	-3985
▁آگیا	-3986
▁بخار	-3987
▁ذیلی	-3988
▁سینٹ	-3989
▁عبرت	-3990
▁ملکی	-3991
▁اعداد	-3992
▁اہمیت	-3993
▁زیاده	-3994
▁اٹھایا	-3995
▁کاروباری	-3996
لک	-3997
اون	-3998
چکے	-3999
▁دم	-4000
اہمی	-4001
▁لال	-4002
▁تیسری	-4003
▁ماننے	-4004
▁کرسکتا	-4005
سٹری	-4006
▁اتح	-4007
▁الٹ	-4008
▁منھ	-4009
ورنیا	-4010
▁عملی	-4011
▁چلتی	-4012
▁لگاتے	-4013
▁پکارو	-4014
▁متبادل	-4015
▁ہوئیں۔	-4016
یروں	-4017
▁معذ	-4018
▁بھی۔	-4019
▁رہتی	-4020
دھر	-4021
شنا	-4022
الیا	-4023
▁زین	-4024
▁مفت	-4025
▁گوا	-4026
▁اسمب	-4027
▁باری	-4028
▁مرنے	-4029
▁نکلتا	-4030
▁پرہیزگاری	-4031
ّر	-4032
▁N	-4033
▁28	-4034
▁be	-4035
▁رگ	-4036
▁لطف	-4037
تاویز	-4038
مینان	-4039
▁1980	-4040
▁پاتے	-4041
▁گنگا	-4042
▁سیاست	-4043
▁پرواز	-4044
▁امیدوار	-4045
▁ڈائریکٹر	-4046
ht	-4047
ائیو	-4048
▁kar	-4049
▁بہن	-4050
▁پڑی	-4051
▁کريں	-4052
▁گولی	-4053
▁ایونٹ	-4054
▁ٹھکانہ	-4055
▁یونانی	-4056
▁دستاویز	-4057
▁خی	-4058
▁گل	-4059
نگٹن	-4060
▁شبہ	-4061
▁شرم	-4062
▁لین	-4063
▁1990	-4064
▁تصاویر	-4065
▁دریاؤں	-4066
▁منشیات	-4067
▁رسم	-4068
▁لی۔	-4069
▁ٹور	-4070
▁فضیلت	-4071
▁معروف	-4072
▁ٹھہرا	-4073
▁راجستھان	-4074
افی	-4075
فری	-4076
▁ارے	-4077
▁روڈ	-4078
▁ڈوب	-4079
▁ہنس	-4080
▁میکس	-4081
▁پیسہ	-4082
▁آبشار	-4083
▁اونچی	-4084
▁گور	-4085
▁حادث	-4086
▁چھٹی	-4087
▁یوگا	-4088
▁منحصر	-4089
▁کیلیف	-4090
▁امتحان	-4091
▁چنانچہ	-4092
▁ہسپتال	-4093
▁انگریزوں	-4094
▁کیلیفورنیا	-4095
▁x	-4096
ئیے	-4097
اسے	-4098
لوب	-4099
مون	-4100
▁اذ	-4101
▁وٹ	-4102
وائی	-4103
▁جشن	-4104
▁مصر	-4105
▁موض	-4106
▁وزن	-4107
▁ایسٹ	-4108
▁ویسے	-4109
▁پاکی	-4110
▁اندھے	-4111
▁اسٹیڈیم	-4112
ig	-4113
▁ادو	-4114
▁تنقی	-4115
▁جاؤں	-4116
▁دباؤ	-4117
▁لمبی	-4118
▁نقطہ	-4119
▁ٹائی	-4120
▁پکڑا	-4121
▁چندر	-4122
▁ہفتہ	-4123
▁سمجھو	-4124
▁مارشل	-4125
▁پرانے	-4126
ٹڈ	-4127
ینج	-4128
▁رض	-4129
الیں	-4130
دیوں	-4131
▁بلی	-4132
▁ترک	-4133
▁سے۔	-4134
▁میڈ	-4135
▁نصف	-4136
▁وجو	-4137
▁پتنگ	-4138
▁اسحاق	-4139
▁اضلاع	-4140
▁بیشتر	-4141
▁اسمبلی	-4142
▁حکمران	-4143
▁لي	-4144
گوان	-4145
▁شہز	-4146
▁ناف	-4147
▁ڈین	-4148
▁سکون	-4149
▁نیوی	-4150
▁فائدے	-4151
▁یکساں	-4152
▁مانگتا	-4153
▁μ	-4154
▁of	-4155
▁جام	-4156
▁سانس	-4157
▁قصبے	-4158
▁پولو	-4159
▁اونچے	-4160
▁مثالیں	-4161
▁منصوبے	-4162
▁ٹیکنالو	-4163
فع	-4164
ہج	-4165
عکس	-4166
ونا	-4167
ّنم	-4168
▁بحر	-4169
▁چیل	-4170
▁2022	-4171
▁اشوک	-4172
▁دفاع	-4173
▁برعکس	-4174
▁بشمول	-4175
▁واسطے	-4176
▁پھرتے	-4177
▁صارفین	-4178
▁ایوارڈز	-4179
▁کمیونٹی	-4180
جوں	-4181
▁پٹ	-4182
▁lab	-4183
▁عرب	-4184
▁نیز	-4185
▁اتنے	-4186
▁بازو	-4187
▁جیتے	-4188
▁خفیہ	-4189
▁دراز	-4190
▁انگیز	-4191
▁اکٹھا	-4192
▁تقویٰ	-4193
▁تیاری	-4194
▁جزیرے	-4195
▁رکھا۔	-4196
▁پڑھنے	-4197
▁کارپوری	-4198
روک	-4199
پیٹ	-4200
▁ki	-4201
▁ترج	-4202
▁ناد	-4203
▁انفر	-4204
▁اکبر	-4205
▁حکام	-4206
▁خالی	-4207
▁سائز	-4208
▁فاسق	-4209
▁ملتے	-4210
▁موٹر	-4211
▁کرے۔	-4212
▁گناه	-4213
▁بینڈی	-4214
▁شوٹنگ	-4215
▁پہاڑیوں	-4216
ّا	-4217
پھ	-4218
وسس	-4219
▁un	-4220
ٹھوں	-4221
▁اڈے	-4222
▁تجا	-4223
▁دوم	-4224
▁مارا	-4225
▁موجودگی	-4226
▁آٹ	-4227
▁فق	-4228
اتھی	-4229
▁جمہ	-4230
▁خلی	-4231
▁نسب	-4232
▁کما	-4233
▁بھڑک	-4234
▁جانی	-4235
▁زخمی	-4236
▁وسعت	-4237
▁چٹان	-4238
▁حوالہ	-4239
▁جھگڑتے	-4240
▁سمجھنے	-4241
▁نگرانی	-4242
ol	-4243
ver	-4244
▁کي	-4245
ایات	-4246
▁غرق	-4247
▁2003	-4248
▁بچنے	-4249
▁label	-4250
▁الحال	-4251
▁ساتھیوں	-4252
راہ	-4253
▁بگ	-4254
عتوں	-4255
ائیوں	-4256
▁آنند	-4257
▁براز	-4258
▁مارکیٹ	-4259
▁اطمینان	-4260
بد	-4261
شبہ	-4262
ڑھے	-4263
کٹر	-4264
کتاب	-4265
▁خام	-4266
▁ذیل	-4267
▁فنڈ	-4268
▁جارج	-4269
▁وعدے	-4270
▁گزرے	-4271
▁کرلیں	-4272
▁کشمیر	-4273
▁جائیں۔	-4274
▁میونسپلٹی	-4275
تب	-4276
ڑھی	-4277
▁بُ	-4278
▁چھی	-4279
▁کوہ	-4280
▁ایڈی	-4281
▁ترکی	-4282
▁تمغہ	-4283
▁نامہ	-4284
▁بیمار	-4285
▁مارنے	-4286
▁مراٹھا	-4287
گرہ	-4288
▁ko	-4289
▁مات	-4290
▁موا	-4291
▁غریب	-4292
▁ویکس	-4293
▁مستحکم	-4294
▁فیڈریشن	-4295
▁مالیاتی	-4296
صار	-4297
واں	-4298
▁You	-4299
▁دو۔	-4300
▁البم	-4301
▁رہی۔	-4302
▁سینی	-4303
▁مانیں	-4304
▁ڈالنے	-4305
▁اعتبار	-4306
▁مشرکین	-4307
▁چھپاتے	-4308
▁سرداروں	-4309
ائس	-4310
▁افغ	-4311
▁بلیک	-4312
▁فروغ	-4313
▁لکڑی	-4314
▁معنی	-4315
▁نفرت	-4316
▁اسٹار	-4317
▁اندھا	-4318
▁تھوڑے	-4319
▁مستقل	-4320
▁اداکارہ	-4321
▁اندرونی	-4322
▁پسندیدہ	-4323
فٹ	-4324
▁طلاق	-4325
▁بلایا	-4326
▁گفتگو	-4327
▁مطالعہ	-4328
▁علاقائی	-4329
▁فرمانبردار	-4330
ثار	-4331
جین	-4332
ونس	-4333
▁se	-4334
▁هے	-4335
ابطہ	-4336
▁سکا	-4337
▁وطن	-4338
▁چہر	-4339
▁جائز	-4340
▁وصول	-4341
▁بلندی	-4342
▁تقریبات	-4343
فے	-4344
▁E	-4345
ize	-4346
▁معیش	-4347
▁گھیر	-4348
▁جزائر	-4349
▁مانگتے	-4350
▁معاہدہ	-4351
▁پوزیشن	-4352
میل	-4353
نگے	-4354
وتھ	-4355
ffff	-4356
انوی	-4357
▁دیش	-4358
▁ٹاپ	-4359
▁پنچ	-4360
▁بھٹک	-4361
▁جوڑا	-4362
▁پروج	-4363
▁ہینڈ	-4364
▁جیتا۔	-4365
▁ناراض	-4366
▁وجوہات	-4367
°،	-4368
ڈٹ	-4369
her	-4370
....	-4371
ریوں	-4372
▁کرن	-4373
ائنات	-4374
▁1999	-4375
▁فتنہ	-4376
▁نکلے	-4377
▁وبال	-4378
▁بنگلہ	-4379
▁محروم	-4380
▁بھیجتے	-4381
▁ہوجاتا	-4382
اضی	-4383
جان	-4384
aper	-4385
▁الہ	-4386
▁بہک	-4387
▁جائ	-4388
▁سچی	-4389
▁لدا	-4390
▁کرلے	-4391
▁رکاوٹ	-4392
▁کرداروں	-4393
▁31	-4394
▁re	-4395
ونکا	-4396
▁بوٹ	-4397
▁نقش	-4398
▁صوبہ	-4399
▁وٹامن	-4400
▁مطالبہ	-4401
▁کتابیں	-4402
▁؛	-4403
▁کرا	-4404
▁گھٹ	-4405
▁1970	-4406
▁تعجب	-4407
▁جنگی	-4408
▁لکھے	-4409
▁ملاز	-4410
▁مہیا	-4411
▁پڑھی	-4412
▁جہّنم	-4413
▁پوائنٹس	-4414
اط	-4415
ڈین	-4416
▁ہز	-4417
ائکہ	-4418
شتوں	-4419
▁are	-4420
▁پرس	-4421
▁چرچ	-4422
▁سازی	-4423
▁اندیش	-4424
▁رہیں۔	-4425
▁جاسکتا	-4426
▁جہانوں	-4427
▁ناقابل	-4428
▁پوچھیں	-4429
▁کھائیں	-4430
ٹیو	-4431
▁آئر	-4432
▁آور	-4433
▁ریش	-4434
▁پون	-4435
▁احمد	-4436
▁سندھ	-4437
▁ماہی	-4438
▁پلیٹ	-4439
▁چلیں	-4440
▁چپکے	-4441
▁کردو	-4442
▁شروعات	-4443
▁مہینوں	-4444
▁انتظامیہ	-4445
واہ	-4446
▁برگ	-4447
▁داخ	-4448
▁پیک	-4449
▁سلوک	-4450
▁ویسٹ	-4451
▁تاخیر	-4452
▁سکتا۔	-4453
▁مچھلی	-4454
▁جانشین	-4455
ماع	-4456
یاط	-4457
▁رت	-4458
رسول	-4459
▁شفا	-4460
▁لکش	-4461
▁2002	-4462
▁ادھر	-4463
▁بتوں	-4464
▁مہارت	-4465
▁کھاتا	-4466
▁برازیل	-4467
▁پوچھتے	-4468
ِل	-4469
عمل	-4470
واس	-4471
کھنڈ	-4472
▁وید	-4473
▁کلم	-4474
▁ہیڈ	-4475
▁جرمن	-4476
▁کمرے	-4477
▁کپور	-4478
▁اموات	-4479
▁بتاتا	-4480
▁چاہتی	-4481
▁باقاعدہ	-4482
ّم	-4483
بیب	-4484
ودھ	-4485
کرم	-4486
▁قی	-4487
▁for	-4488
▁لمح	-4489
▁ہول	-4490
▁داست	-4491
▁ویکی	-4492
▁افترا	-4493
▁امانت	-4494
▁توسیع	-4495
▁معیشت	-4496
▁پاکیز	-4497
▁ہفتوں	-4498
▁سنبھال	-4499
▁متاثرہ	-4500
▁مظاہرہ	-4501
▁ناپسند	-4502
تاد	-4503
دھن	-4504
▁±×	-4505
▁جیل	-4506
▁مہا	-4507
▁میم	-4508
▁چکر	-4509
▁کنڈ	-4510
▁آثار	-4511
▁معاو	-4512
▁ڈالو	-4513
▁مرحلے	-4514
▁نوشتہ	-4515
▁یادگار	-4516
▁میزبانی	-4517
▁پہنچانے	-4518
خود	-4519
یسر	-4520
▁بم	-4521
▁چک	-4522
ایکس	-4523
جنسی	-4524
▁شعیب	-4525
▁افواج	-4526
▁ریڈیو	-4527
▁لڑکیوں	-4528
▁گلوکار	-4529
ائپ	-4530
برو	-4531
ندا	-4532
▁29	-4533
▁ڈو	-4534
نشاہ	-4535
▁size	-4536
▁رستہ	-4537
▁سنیں	-4538
▁نہيں	-4539
▁ہلکا	-4540
▁ہیرو	-4541
▁سکتے۔	-4542
▁لکھنے	-4543
▁بھگوان	-4544
▁بہرحال	-4545
▁ریٹائر	-4546
▁حکمرانی	-4547
نگز	-4548
▁́ظ	-4549
▁باب	-4550
▁جنم	-4551
▁فصل	-4552
▁لہر	-4553
▁محی	-4554
▁ٹرا	-4555
▁دھما	-4556
▁اورنگ	-4557
▁اگلوں	-4558
▁خسارہ	-4559
▁دائمی	-4560
▁رہنما	-4561
▁کانوں	-4562
▁کمیٹی	-4563
▁آدمیوں	-4564
▁شہنشاہ	-4565
▁ہتھیار	-4566
▁روگردانی	-4567
اِ	-4568
رک	-4569
اسر	-4570
تھو	-4571
لنگ	-4572
واقع	-4573
کافر	-4574
▁بھٹ	-4575
▁قبی	-4576
▁آرٹس	-4577
▁زینت	-4578
▁افغان	-4579
▁الینو	-4580
▁ہواؤں	-4581
▁برداشت	-4582
▁بستیاں	-4583
▁سربراہ	-4584
ta	-4585
جنگ	-4586
▁on	-4587
کوئی	-4588
▁ریل	-4589
▁کیپ	-4590
▁بنتا	-4591
▁ناتھ	-4592
▁پڑا۔	-4593
▁انواع	-4594
▁تیلگو	-4595
▁ہاتھی	-4596
▁دکھانے	-4597
▁سکھایا	-4598
ڈروم	-4599
▁رنج	-4600
▁زیب	-4601
▁سوئ	-4602
▁سول	-4603
▁hain	-4604
▁بخشے	-4605
▁برپا	-4606
▁زندگ	-4607
▁ماضی	-4608
▁محتا	-4609
▁پوسٹ	-4610
▁چاول	-4611
▁کثرت	-4612
▁گرین	-4613
▁اخبار	-4614
▁الدین	-4615
▁تلاوت	-4616
▁خیانت	-4617
▁ذخیرہ	-4618
▁ادویات	-4619
▁دیجیئے	-4620
▁ہوسکتی	-4621
▁ابراہیمؑ	-4622
to	-4623
▁کث	-4624
▁and	-4625
▁بجز	-4626
▁ہوم	-4627
▁تشدد	-4628
▁عوام	-4629
▁لکیر	-4630
▁محنت	-4631
▁کرلو	-4632
▁راؤنڈ	-4633
▁رہائش	-4634
▁سلطان	-4635
▁مصروف	-4636
▁چلانے	-4637
▁ڈالتے	-4638
▁کرشنا	-4639
▁کشادہ	-4640
▁ملائکہ	-4641
▁ملازمت	-4642
▁اسپورٹس	-4643
لر	-4644
میم	-4645
▁ریپ	-4646
▁موب	-4647
▁وکٹ	-4648
انہیں	-4649
▁سادہ	-4650
▁لاتا	-4651
▁معین	-4652
▁پھول	-4653
▁سپاہی	-4654
▁خیالات	-4655
▁ٹیکنالوجی	-4656
▁key	-4657
▁اچھ	-4658
▁گیس	-4659
▁امور	-4660
▁پروف	-4661
▁چوٹی	-4662
▁معمول	-4663
▁کمپنیوں	-4664
کرت	-4665
▁de	-4666
استہ	-4667
▁دلی	-4668
▁بندہ	-4669
▁ونڈوز	-4670
▁کاررو	-4671
▁پہنچتا	-4672
▁کھیلتے	-4673
فرد	-4674
نوع	-4675
گنا	-4676
▁مُ	-4677
ادوں	-4678
▁جوش	-4679
▁نصر	-4680
▁نکا	-4681
▁چول	-4682
▁عزیز	-4683
▁میوے	-4684
▁یونہی	-4685
▁الینوائے	-4686
نبی	-4687
▁80	-4688
▁قس	-4689
▁چرا	-4690
▁فریق	-4691
▁محیط	-4692
▁ورزی	-4693
▁گانا	-4694
▁سواری	-4695
▁مسکین	-4696
▁نشانہ	-4697
▁اندیشہ	-4698
▁روایات	-4699
چن	-4700
اما	-4701
تھر	-4702
قیہ	-4703
یشی	-4704
▁دُ	-4705
خواہ	-4706
▁اڈہ	-4707
▁زرا	-4708
▁مزے	-4709
▁چھت	-4710
▁1998	-4711
▁بابر	-4712
▁حامل	-4713
▁دائر	-4714
▁رحمٰ	-4715
تمہارے	-4716
▁بتائے	-4717
▁ستارے	-4718
▁محمدؐ	-4719
▁منظور	-4720
▁کارکن	-4721
▁بھرپور	-4722
▁پالیسی	-4723
▁صورتحال	-4724
ill	-4725
▁ہڈ	-4726
▁190	-4727
▁اعص	-4728
▁تقو	-4729
▁لاس	-4730
▁ووٹ	-4731
مولیت	-4732
▁حامی	-4733
▁شعور	-4734
▁لڑکا	-4735
▁چلنا	-4736
▁دستخط	-4737
▁شریکوں	-4738
▁نیویارک	-4739
اصد	-4740
منس	-4741
کری	-4742
▁بیگ	-4743
▁وجے	-4744
▁بادل	-4745
▁بھری	-4746
▁روزِ	-4747
▁رہوں	-4748
▁لیتی	-4749
▁رحمٰن	-4750
▁فرشتہ	-4751
▁پرانی	-4752
▁کنارہ	-4753
▁امریکا	-4754
▁موبائل	-4755
▁خواہشات	-4756
▁مخلوقات	-4757
ثی	-4758
▁R	-4759
▁پے	-4760
▁غنی	-4761
▁پنڈ	-4762
▁ہیل	-4763
انیاں	-4764
▁بارہ	-4765
▁حبیب	-4766
▁سارا	-4767
▁قومِ	-4768
▁مائل	-4769
▁چشمے	-4770
▁پیشوا	-4771
▁بڑھانے	-4772
▁شمولیت	-4773
▁مجموعہ	-4774
▁کارپوریشن	-4775
60	-4776
کم	-4777
تیس	-4778
▁سف	-4779
اؤتھ	-4780
▁حوص	-4781
▁روس	-4782
▁عدم	-4783
▁نشر	-4784
▁your	-4785
▁پراگ	-4786
▁بڑھتی	-4787
▁تھائی	-4788
▁جھوٹی	-4789
▁حالیہ	-4790
▁موسیق	-4791
▁ہوسکتے	-4792
بہت	-4793
▁انق	-4794
▁فلس	-4795
▁تباد	-4796
▁جاؤ۔	-4797
▁نافذ	-4798
▁اطراف	-4799
▁اکیلے	-4800
▁سمجھے	-4801
▁نمائش	-4802
▁ڈیلٹا	-4803
▁چھوڑنے	-4804
ha	-4805
چک	-4806
اہو	-4807
ہنچ	-4808
یرہ	-4809
▁مُر	-4810
▁پھو	-4811
▁راہِ	-4812
▁لداخ	-4813
▁پھین	-4814
▁یارک	-4815
▁میوزک	-4816
▁کریڈٹ	-4817
▁اندازے	-4818
▁بلاشبہ	-4819
▁انفرادی	-4820
حل	-4821
▁!	-4822
ورم	-4823
▁وص	-4824
تیوں	-4825
▁تان	-4826
▁گلی	-4827
▁گھی	-4828
▁صوبے	-4829
▁آپہنچ	-4830
▁زراعت	-4831
▁وسائل	-4832
▁پودوں	-4833
▁ہزاروں	-4834
▁پارلیمنٹ	-4835
▁z	-4836
اتر	-4837
روج	-4838
▁آبی	-4839
▁ایپ	-4840
▁حلق	-4841
▁ریم	-4842
▁ٹال	-4843
▁1960	-4844
▁ٹائٹ	-4845
▁کیں۔	-4846
▁اوراس	-4847
▁تحریر	-4848
▁راتوں	-4849
▁زندگانی	-4850
▁مقابلوں	-4851
▁پرفارمنس	-4852
انو	-4853
ٹرن	-4854
▁بٹ	-4855
▁باض	-4856
ائیں۔	-4857
▁اسات	-4858
▁بہکا	-4859
▁حیرت	-4860
▁زائد	-4861
▁منسو	-4862
▁میگھ	-4863
▁وجود	-4864
▁کولم	-4865
ارٹمنٹ	-4866
▁تفریق	-4867
▁مویشی	-4868
▁بیویاں	-4869
▁سنڈروم	-4870
▁نکالنے	-4871
▁کائنات	-4872
▁کھیلا۔	-4873
▁پروجیکٹ	-4874
اه	-4875
افظ	-4876
▁خطر	-4877
▁چیر	-4878
▁گون	-4879
▁امیر	-4880
▁ایتھ	-4881
▁بہتی	-4882
▁سورت	-4883
▁وہیں	-4884
▁آفتاب	-4885
▁اتصال	-4886
▁بولتے	-4887
▁تعاون	-4888
▁تھیٹر	-4889
▁جنگلی	-4890
▁دربار	-4891
▁ورانہ	-4892
▁اقدامات	-4893
▁ایشیائی	-4894
بھا	-4895
ینٹ	-4896
▁ho	-4897
▁́آ	-4898
ارتھ	-4899
امان	-4900
▁بجا	-4901
▁زرد	-4902
▁ریزہ	-4903
▁کاسٹ	-4904
▁گیری	-4905
▁اتحاد	-4906
▁سنیما	-4907
▁قوموں	-4908
▁محکمہ	-4909
▁سرزمین	-4910
▁ناشکری	-4911
▁ماحولیاتی	-4912
ard	-4913
سکو	-4914
مئن	-4915
▁70	-4916
▁شب	-4917
▁ول	-4918
اریہ	-4919
▁جرم	-4920
▁خلا	-4921
▁سرے	-4922
▁لوڈ	-4923
▁نیم	-4924
▁بالغ	-4925
▁جناب	-4926
▁عليه	-4927
▁مانس	-4928
▁مسٹر	-4929
▁نمون	-4930
▁پڑیں	-4931
▁paper	-4932
▁انھیں	-4933
▁بیزار	-4934
▁فلمیں	-4935
▁مطمئن	-4936
▁گھنٹہ	-4937
▁اسٹروک	-4938
ho	-4939
شو	-4940
▁اث	-4941
▁کِ	-4942
▁آئس	-4943
▁رضا	-4944
▁سکم	-4945
▁سیم	-4946
ation	-4947
▁اصول	-4948
▁بھیم	-4949
▁حدود	-4950
▁رحیم	-4951
▁سینک	-4952
▁فیئر	-4953
▁گردش	-4954
▁بڑائی	-4955
▁مناتے	-4956
▁بنگالی	-4957
▁معاوضہ	-4958
▁باضابطہ	-4959
--	-4960
th	-4961
▁*	-4962
خاص	-4963
عاد	-4964
پتا	-4965
پتی	-4966
ڈول	-4967
▁ka	-4968
▁ڈپ	-4969
▁بخل	-4970
▁خوشن	-4971
▁دیہی	-4972
▁رفیق	-4973
▁دستور	-4974
▁رابطے	-4975
▁حفاظتی	-4976
▁مسافروں	-4977
▁پہنچایا	-4978
وہی	-4979
گین	-4980
ٹیول	-4981
▁جاگ	-4982
▁ہيں	-4983
▁دانا	-4984
▁رحمن	-4985
▁شاعر	-4986
▁لوٹا	-4987
▁ملیا	-4988
▁ممبر	-4989
▁ڈیلی	-4990
▁کینٹ	-4991
▁ادارے	-4992
▁جائزہ	-4993
▁جنتوں	-4994
▁اراکین	-4995
▁تاریکی	-4996
▁فوجیوں	-4997
▁ہوگیا۔	-4998
▁اسکولوں	-4999
▁جمہوریہ	-5000
and	-5001
دوز	-5002
چار	-5003
▁عظ	-5004
▁ھے	-5005
▁کین	-5006
ماعیل	-5007
▁دورے	-5008
▁ہوشی	-5009
▁ہولی	-5010
▁برسوں	-5011
▁تکنیک	-5012
▁ساحلی	-5013
▁سینوں	-5014
▁فرمائیں	-5015
▁سرگرمیوں	-5016
pp	-5017
ter	-5018
تمی	-5019
صلى	-5020
▁افز	-5021
▁ذبح	-5022
▁ریت	-5023
▁صلح	-5024
▁ڈیو	-5025
▁لڑنے	-5026
▁پرتگ	-5027
▁کیمپ	-5028
▁گرمی	-5029
▁یتیم	-5030
▁متوقع	-5031
▁ٹیمیں	-5032
▁چھوڑا	-5033
▁گزرنے	-5034
▁جاپانی	-5035
▁برائیوں	-5036
غذ	-5037
۔۔۔	-5038
▁داہ	-5039
سانوں	-5040
▁آرزو	-5041
▁اقتص	-5042
▁پختہ	-5043
▁ڈاؤن	-5044
▁کاشت	-5045
▁کرشن	-5046
▁اوپری	-5047
▁تنقید	-5048
▁خیرات	-5049
▁پرورش	-5050
▁چھوڑے	-5051
▁اساتذہ	-5052
▁انحصار	-5053
▁اہتمام	-5054
▁بیرونی	-5055
اہے	-5056
▁اي	-5057
▁رع	-5058
اپور	-5059
▁فرد	-5060
▁1996	-5061
▁بنتی	-5062
▁لپیٹ	-5063
▁مواز	-5064
▁بازار	-5065
▁پیچھا	-5066
▁احترام	-5067
▁الیکٹر	-5068
▁بھیجنے	-5069
▁خصوصیت	-5070
▁ضروریات	-5071
▁فیسٹیول	-5072
ائیک	-5073
ایسا	-5074
▁برص	-5075
▁سست	-5076
▁شرا	-5077
▁لاش	-5078
▁اسکا	-5079
▁تائی	-5080
▁جایا	-5081
▁مشاہ	-5082
▁ہونی	-5083
▁استاد	-5084
▁بڑھتے	-5085
▁منفرد	-5086
▁موضوع	-5087
▁آراستہ	-5088
اکو	-5089
ترا	-5090
سوب	-5091
پوت	-5092
یرے	-5093
▁90	-5094
▁سُ	-5095
▁طی	-5096
▁بوس	-5097
▁تلو	-5098
▁مثل	-5099
▁رانی	-5100
▁غفلت	-5101
▁تیسرا	-5102
:)	-5103
ائڈ	-5104
کور	-5105
▁35	-5106
▁ہد	-5107
کیشن	-5108
▁معز	-5109
▁واش	-5110
▁چنگ	-5111
▁یکم	-5112
▁رسمی	-5113
▁لاگت	-5114
▁وکیل	-5115
▁گرما	-5116
▁تجاوز	-5117
▁عقیدت	-5118
▁مقدمہ	-5119
▁ہوتا۔	-5120
▁سمجھتا	-5121
ّے	-5122
▁ے	-5123
out	-5124
بیو	-5125
▁not	-5126
▁انچ	-5127
▁صور	-5128
ندگان	-5129
▁اوند	-5130
▁معاش	-5131
▁کیپر	-5132
▁گھوم	-5133
▁خزانے	-5134
▁ہوئیں	-5135
▁بتائیں	-5136
▁خاندانی	-5137
ee	-5138
ome	-5139
▁سڑ	-5140
الیف	-5141
▁اسل	-5142
▁بان	-5143
▁گنی	-5144
▁بلاک	-5145
▁بنتے	-5146
▁روسی	-5147
▁ملیں	-5148
برداری	-5149
▁جنگجو	-5150
▁حوصلہ	-5151
▁ملامت	-5152
▁ناموں	-5153
▁ڈرامہ	-5154
▁ہموار	-5155
▁سنسکرت	-5156
ey	-5157
عے	-5158
دیک	-5159
روی	-5160
ینز	-5161
▁بلو	-5162
▁بگا	-5163
▁آسام	-5164
▁ایکٹ	-5165
▁برتر	-5166
▁بھلے	-5167
▁خارج	-5168
▁عہدے	-5169
▁لنکا	-5170
▁مشین	-5171
▁نائب	-5172
▁نکاح	-5173
▁ہوٹل	-5174
▁ترمیم	-5175
▁جزیرہ	-5176
▁دلچسپ	-5177
▁زاویہ	-5178
▁صفائی	-5179
▁ہدایات	-5180
ul	-5181
رد	-5182
جھے	-5183
باتی	-5184
نیوی	-5185
یکچر	-5186
▁برو	-5187
▁جیم	-5188
▁مرے	-5189
▁ڈوم	-5190
▁کشت	-5191
گاہیں	-5192
▁1992	-5193
▁باہم	-5194
▁رسوم	-5195
▁زنده	-5196
▁پکڑے	-5197
▁کاغذ	-5198
▁بیٹیاں	-5199
▁دروازہ	-5200
▁موازنہ	-5201
▁کردیتے	-5202
30	-5203
ڈے	-5204
▁:	-5205
غیب	-5206
لیغ	-5207
واجی	-5208
▁جار	-5209
▁جاس	-5210
▁شاپ	-5211
▁نیل	-5212
▁ادار	-5213
▁جتنی	-5214
▁خطاب	-5215
▁فرار	-5216
▁مادہ	-5217
▁نہرو	-5218
▁ٹھیر	-5219
▁پلٹا	-5220
▁پیار	-5221
▁درکار	-5222
▁دھیان	-5223
▁ڈھونڈ	-5224
▁کوریا	-5225
▁اداروں	-5226
▁زبانیں	-5227
▁قربانی	-5228
▁لمبائی	-5229
▁کوششوں	-5230
▁پاکیزگی	-5231
ic	-5232
بط	-5233
ell	-5234
ستا	-5235
▁جاہ	-5236
▁طاس	-5237
▁خشکی	-5238
▁سبھا	-5239
▁پھنس	-5240
▁گوئی	-5241
▁گولڈ	-5242
▁عارضی	-5243
▁فارسی	-5244
▁آخرکار	-5245
▁راستوں	-5246
▁اختیارات	-5247
if	-5248
اده	-5249
سیس	-5250
ہاں	-5251
▁ab	-5252
▁شم	-5253
▁مَ	-5254
ستور	-5255
▁تبص	-5256
▁خیز	-5257
▁ستر	-5258
▁ليے	-5259
▁کے۔	-5260
▁مؤثر	-5261
▁پھرو	-5262
▁کورس	-5263
▁ارکان	-5264
▁بتانے	-5265
▁بولنے	-5266
▁رومان	-5267
▁سابقہ	-5268
▁پوچھو	-5269
▁داستان	-5270
▁پھونکا	-5271
▁ہنگامی	-5272
-0	-5273
تان	-5274
قلی	-5275
قوم	-5276
ولک	-5277
▁چیخ	-5278
▁اجرت	-5279
▁زرعی	-5280
▁کالی	-5281
▁غاروں	-5282
▁مسئلے	-5283
▁کرتے۔	-5284
▁ہڈیاں	-5285
▁ناگوار	-5286
▁کہانیاں	-5287
ضر	-5288
ہن	-5289
باب	-5290
میز	-5291
وٹو	-5292
پیغ	-5293
▁ھو	-5294
▁حام	-5295
▁حاک	-5296
▁ولی	-5297
▁گنج	-5298
▁1947	-5299
▁لیں۔	-5300
▁مارک	-5301
▁مینی	-5302
▁قبروں	-5303
▁لڑکوں	-5304
▁باکسنگ	-5305
▁بھیجتا	-5306
▁پیچیدہ	-5307
▁میکسیکو	-5308
کز	-5309
▁ره	-5310
▁الی	-5311
▁تول	-5312
▁نطف	-5313
▁اسٹر	-5314
▁بہرے	-5315
▁دہشت	-5316
▁دیے۔	-5317
▁فائر	-5318
▁چنئی	-5319
▁برتری	-5320
▁قرابت	-5321
▁پھیرے	-5322
عل	-5323
▁ڈے	-5324
جیدہ	-5325
لیمی	-5326
ورٹی	-5327
▁ناب	-5328
▁وفا	-5329
▁کلا	-5330
▁ہاس	-5331
▁انگل	-5332
▁حکیم	-5333
▁ذہنی	-5334
▁غرور	-5335
▁لمبے	-5336
▁مؤمن	-5337
▁واٹر	-5338
▁پاگل	-5339
▁کیمر	-5340
▁بہتری	-5341
▁محافظ	-5342
▁ٹائٹل	-5343
▁درختوں	-5344
▁ویکسین	-5345
▁بچو	-5346
▁تہہ	-5347
▁زلز	-5348
▁سمر	-5349
▁گیر	-5350
▁ہوش	-5351
▁آئٹم	-5352
▁بانی	-5353
▁مفید	-5354
▁نشست	-5355
▁نیوز	-5356
▁ڈالی	-5357
▁ابلیس	-5358
▁مستحق	-5359
▁منسوب	-5360
▁منسوخ	-5361
▁ایندھن	-5362
▁ماہانہ	-5363
ang	-5364
نکر	-5365
اوات	-5366
دازی	-5367
ڑیوں	-5368
▁بھگ	-5369
▁خاک	-5370
▁ہمت	-5371
▁الٹے	-5372
▁بحال	-5373
▁جائی	-5374
▁جنوں	-5375
▁راحت	-5376
▁سرور	-5377
▁عائد	-5378
▁قطار	-5379
▁مسخر	-5380
▁نصیب	-5381
▁پھاڑ	-5382
▁کامل	-5383
▁چشموں	-5384
▁آندھرا	-5385
▁راجپوت	-5386
▁مانسون	-5387
▁متعلقہ	-5388
▁منتقلی	-5389
بس	-5390
تاؤ	-5391
روب	-5392
فوں	-5393
یاس	-5394
▁go	-5395
▁زد	-5396
▁ضم	-5397
▁چم	-5398
▁کک	-5399
اتار	-5400
الوں	-5401
▁انو	-5402
▁رون	-5403
▁مشن	-5404
▁موم	-5405
▁1995	-5406
▁that	-5407
▁زمرہ	-5408
▁سکوں	-5409
▁ناخو	-5410
▁وائی	-5411
▁پورٹ	-5412
▁اندوز	-5413
▁بتاتے	-5414
▁برانڈ	-5415
▁سڑکوں	-5416
▁مانند	-5417
▁مواقع	-5418
▁پڑوسی	-5419
▁برسایا	-5420
▁ناکامی	-5421
▁کردیا۔	-5422
▁میگھالیہ	-5423
▁نیکوکاروں	-5424
,5	-5425
راد	-5426
رار	-5427
بارک	-5428
وکری	-5429
▁بنو	-5430
▁تاک	-5431
▁مول	-5432
▁کنی	-5433
▁اوکل	-5434
▁اکیڈ	-5435
▁بزرگ	-5436
▁جتنے	-5437
▁خلیج	-5438
▁لائی	-5439
▁مواف	-5440
▁وصیت	-5441
▁چشمہ	-5442
▁گنتی	-5443
▁برصغیر	-5444
▁مساوات	-5445
-2	-5446
رب	-5447
فق	-5448
تاز	-5449
شتے	-5450
یما	-5451
▁ہا	-5452
دوزخ	-5453
مائی	-5454
▁منق	-5455
▁تنگی	-5456
▁حروف	-5457
▁عملے	-5458
▁چڑھا	-5459
▁چینل	-5460
▁ہجوم	-5461
▁بناتی	-5462
▁حیائی	-5463
▁شیڈول	-5464
▁عنایت	-5465
▁میٹرو	-5466
▁واقعے	-5467
▁پریمی	-5468
▁کرتا۔	-5469
▁بادشاہت	-5470
▁ڈرائیور	-5471
▁بادشاہوں	-5472
▁افغانستان	-5473
دن	-5474
مح	-5475
وط	-5476
ant	-5477
عین	-5478
ینر	-5479
▁or	-5480
ینئر	-5481
▁بور	-5482
▁تُو	-5483
▁پدم	-5484
▁پکو	-5485
▁گلے	-5486
▁یار	-5487
▁اسکے	-5488
▁عروج	-5489
▁فالج	-5490
▁مقبو	-5491
▁گرنے	-5492
▁مائیک	-5493
▁مقاصد	-5494
▁معیاری	-5495
▁نارائن	-5496
▁ٹیکساس	-5497
▁ہوشیار	-5498
▁پروڈکشن	-5499
▁تبدیلیاں	-5500
زن	-5501
گشت	-5502
▁خن	-5503
پورہ	-5504
▁wit	-5505
▁بٹن	-5506
▁مزد	-5507
▁1950	-5508
▁برہم	-5509
▁تذکر	-5510
▁دھنس	-5511
▁راجی	-5512
▁کہئے	-5513
▁احتجا	-5514
▁سماعت	-5515
▁منتظر	-5516
▁بازگشت	-5517
▁روحانی	-5518
▁اسماعیل	-5519
▁اقتصادی	-5520
ين	-5521
سیل	-5522
عقاد	-5523
میرے	-5524
پیئن	-5525
▁پلی	-5526
▁کہی	-5527
▁اونچ	-5528
▁بھیڑ	-5529
▁رہو۔	-5530
▁مانی	-5531
▁مرکب	-5532
▁ٹانگ	-5533
▁کھیت	-5534
▁اڑاتے	-5535
▁ردعمل	-5536
▁روانہ	-5537
▁سچائی	-5538
▁شکلوں	-5539
▁لکھتے	-5540
▁چیلنج	-5541
▁رسوائی	-5542
▁کیلنڈر	-5543
▁ملازمین	-5544
90	-5545
ِن	-5546
منڈ	-5547
▁pr	-5548
▁sa	-5549
▁کف	-5550
▁افس	-5551
▁سرج	-5552
▁معج	-5553
▁مکہ	-5554
▁نمو	-5555
▁ایپل	-5556
▁وقفے	-5557
▁وکرم	-5558
▁ڈیجی	-5559
▁گاہک	-5560
▁اتفاق	-5561
▁اجداد	-5562
▁ادارہ	-5563
▁رنگوں	-5564
▁لازمی	-5565
▁خطرناک	-5566
▁باشندوں	-5567
▁مسلمانو	-5568
80	-5569
hi	-5570
قے	-5571
▁ي	-5572
اصر	-5573
شنز	-5574
▁تپ	-5575
▁عط	-5576
▁185	-5577
▁جال	-5578
▁جرا	-5579
▁زون	-5580
▁لڑو	-5581
▁پشت	-5582
▁گیت	-5583
other	-5584
ارتوں	-5585
▁اوور	-5586
▁سایہ	-5587
▁ٹکڑا	-5588
▁پریس	-5589
▁کیتھ	-5590
▁کیون	-5591
▁گھاٹ	-5592
▁ہلکے	-5593
▁بحیرہ	-5594
▁متواز	-5595
▁موصول	-5596
▁ڈرائے	-5597
▁کنندہ	-5598
▁انعقاد	-5599
▁رسومات	-5600
▁صورتوں	-5601
▁کمزوری	-5602
10	-5603
40	-5604
اگو	-5605
زیہ	-5606
ادیا	-5607
▁اوڈ	-5608
▁دہی	-5609
▁فلا	-5610
▁نمٹ	-5611
▁پتا	-5612
▁گھس	-5613
▁عظمت	-5614
▁لازم	-5615
▁متقی	-5616
▁ملا۔	-5617
▁ملکہ	-5618
▁انسٹی	-5619
▁ایریا	-5620
▁زمانہ	-5621
▁مبارک	-5622
▁مغلوں	-5623
▁میعاد	-5624
▁نسلوں	-5625
▁اوکلاہ	-5626
▁تعلیمی	-5627
▁ماہرین	-5628
▁مقبولیت	-5629
▁پانچویں	-5630
▁حکمرانوں	-5631
اچ	-5632
ame	-5633
اہا	-5634
دوس	-5635
زدہ	-5636
زوں	-5637
گے۔	-5638
بیوں	-5639
ورتی	-5640
▁بیج	-5641
▁خطہ	-5642
▁رول	-5643
▁غصے	-5644
▁ڈسک	-5645
ولیات	-5646
▁اشتہ	-5647
▁بھوک	-5648
▁شہاد	-5649
▁لڑتے	-5650
▁پاتا	-5651
▁ہلکی	-5652
▁تخمین	-5653
▁دھوکے	-5654
▁مختار	-5655
▁پکارے	-5656
▁اکیڈمی	-5657
▁دشمنوں	-5658
▁رکھیں۔	-5659
▁ریستور	-5660
▁یونائی	-5661
▁انجینئر	-5662
▁برائیاں	-5663
bo	-5664
داش	-5665
لہن	-5666
یرو	-5667
▁32	-5668
▁us	-5669
▁غذ	-5670
میری	-5671
کیوں	-5672
▁180	-5673
▁الم	-5674
▁تنہ	-5675
▁دکن	-5676
▁ذہن	-5677
▁سکی	-5678
▁عوض	-5679
▁کتا	-5680
▁گیل	-5681
▁اوپن	-5682
▁سناتے	-5683
▁فنکار	-5684
▁منافع	-5685
▁سزاوار	-5686
▁مضامین	-5687
▁ملیالم	-5688
▁ناشکرا	-5689
▁ڈیجیٹل	-5690
70	-5691
دیو	-5692
سکون	-5693
ڑیاں	-5694
▁آفت	-5695
▁بجے	-5696
▁رُو	-5697
▁شاٹ	-5698
▁شدت	-5699
▁عیب	-5700
▁ٹکٹ	-5701
▁ٹھی	-5702
▁پٹی	-5703
▁بہتا	-5704
▁زوال	-5705
▁سرگو	-5706
▁لگتی	-5707
▁لگنے	-5708
▁چیئر	-5709
▁گارڈ	-5710
▁اضافے	-5711
▁امداد	-5712
▁تعبیر	-5713
▁سنگین	-5714
▁معذرت	-5715
▁پھیپھ	-5716
▁گاہوں	-5717
▁ہڈیوں	-5718
▁اُنہوں	-5719
▁بھڑکتی	-5720
▁نکالتا	-5721
▁بندرگاہ	-5722
▁یونائیٹڈ	-5723
اث	-5724
اکس	-5725
کاش	-5726
▁(2	-5727
لابی	-5728
نوان	-5729
▁bar	-5730
▁hay	-5731
▁اجت	-5732
▁الت	-5733
▁تھر	-5734
▁کرت	-5735
▁اسٹو	-5736
▁الٰہ	-5737
▁تھرا	-5738
▁جنّت	-5739
▁خلقت	-5740
▁رقاص	-5741
▁ولیم	-5742
▁ٹیوٹ	-5743
▁کمپن	-5744
▁گپتا	-5745
▁برآمد	-5746
▁برائے	-5747
▁خداؤں	-5748
▁عاجزی	-5749
▁ٹائمز	-5750
▁تحقیقات	-5751
▁ؤ	-5752
انِ	-5753
لور	-5754
پہر	-5755
کات	-5756
فرنس	-5757
یندر	-5758
▁300	-5759
▁آرک	-5760
▁ڈبو	-5761
▁1993	-5762
▁with	-5763
▁انجن	-5764
▁ناقص	-5765
▁ڈرنے	-5766
▁کہا۔	-5767
▁حملوں	-5768
▁مانگو	-5769
▁پھلوں	-5770
▁مزاحمت	-5771
▁مکانات	-5772
▁کردیئے	-5773
▁اونچائی	-5774
▁نیکوکار	-5775
▁واشنگٹن	-5776
▁چکھائیں	-5777
▁فرمانبرداری	-5778
ry	-5779
ine	-5780
تھک	-5781
حدہ	-5782
ڈنگ	-5783
کشی	-5784
▁ذخ	-5785
▁وو	-5786
اہری	-5787
▁1997	-5788
▁آپری	-5789
▁اِسی	-5790
▁دامن	-5791
▁نگار	-5792
▁پہنا	-5793
▁کارٹ	-5794
▁کثیر	-5795
▁دوڑتے	-5796
▁شخصیت	-5797
▁عناصر	-5798
▁پاداش	-5799
▁پھیلی	-5800
▁انقلاب	-5801
▁لگاتار	-5802
▁نعمتیں	-5803
▁ہمالیہ	-5804
▁سرپرستی	-5805
▁مائیکروس	-5806
؟)	-5807
▁ّ	-5808
اتح	-5809
انج	-5810
سٹک	-5811
▁st	-5812
ارات	-5813
لوبہ	-5814
▁عیش	-5815
▁ہوس	-5816
▁اینج	-5817
▁روئے	-5818
▁ٹاؤن	-5819
▁ایسٹر	-5820
▁دوپہر	-5821
▁نیوزی	-5822
▁گزرتے	-5823
▁سوالات	-5824
▁ہریانہ	-5825
▁تریپورہ	-5826
▁منافقوں	-5827
▁کمپنیاں	-5828
▁جھٹلائیں	-5829
ویٹ	-5830
اریو	-5831
اپنا	-5832
فورڈ	-5833
ھویں	-5834
▁500	-5835
▁ارو	-5836
▁فیم	-5837
▁کاف	-5838
االله	-5839
دانوں	-5840
▁What	-5841
▁اذیت	-5842
▁بنے۔	-5843
▁فلور	-5844
▁موثر	-5845
▁مینڈ	-5846
▁پڑتے	-5847
پیغمبر	-5848
▁باسکٹ	-5849
▁دنیوی	-5850
▁ممتاز	-5851
▁پچھلی	-5852
▁چوتھے	-5853
▁اسلامی	-5854
▁بابرکت	-5855
▁جماعتوں	-5856
▁پریشانی	-5857
▁کہانیوں	-5858
▁خاندانوں	-5859
ئم	-5860
ٹش	-5861
▁تے	-5862
▁شف	-5863
▁پُ	-5864
طینی	-5865
ولکر	-5866
▁شور	-5867
▁متک	-5868
▁وبا	-5869
▁کنٹ	-5870
▁this	-5871
▁ابھر	-5872
▁حریف	-5873
▁دانش	-5874
▁راجا	-5875
▁سروں	-5876
▁فاتح	-5877
▁پیرس	-5878
▁اقرار	-5879
▁تذکرہ	-5880
▁دفاعی	-5881
▁ذخائر	-5882
▁ریپبل	-5883
▁غمگین	-5884
▁فاصلہ	-5885
▁چھتیس	-5886
▁بنادیا	-5887
▁مریضوں	-5888
▁پہنچائے	-5889
▁چیمپیئن	-5890
مری	-5891
کیو	-5892
▁دھم	-5893
▁ڈبل	-5894
▁ڈور	-5895
▁کنڑ	-5896
▁main	-5897
▁اسکو	-5898
▁اعضا	-5899
▁جموں	-5900
▁دلہن	-5901
▁زمرے	-5902
▁سالی	-5903
▁قسمت	-5904
▁مرنا	-5905
▁اسکوا	-5906
▁باہمی	-5907
▁بڑھتا	-5908
▁تلوار	-5909
▁جھگڑے	-5910
▁حاملہ	-5911
▁شہادت	-5912
▁مضمون	-5913
▁ستاروں	-5914
▁مینیجر	-5915
▁کشتیاں	-5916
▁کوالیف	-5917
▁ٹھہراتے	-5918
▁مائیکروسافٹ	-5919
آس	-5920
فل	-5921
ِ)	-5922
جنٹ	-5923
دوب	-5924
▁an	-5925
▁ڈچ	-5926
واعد	-5927
▁سار	-5928
▁کلو	-5929
▁بگاڑ	-5930
▁سودا	-5931
▁قرون	-5932
▁محتر	-5933
▁نبات	-5934
▁نکلا	-5935
▁چھپے	-5936
▁آندھی	-5937
▁ایجنٹ	-5938
▁بناکر	-5939
▁تجربے	-5940
▁جاننا	-5941
▁فلوری	-5942
▁میچوں	-5943
▁چہروں	-5944
▁ڈھانپ	-5945
▁سمجھیں	-5946
▁پکارنے	-5947
▁پھیلاؤ	-5948
▁ڈھانچے	-5949
▁سہولیات	-5950
▁محمدصلى	-5951
▁کارروائی	-5952
ess	-5953
خصت	-5954
مکن	-5955
گوار	-5956
▁تاج	-5957
▁تلے	-5958
▁ذائ	-5959
▁شیل	-5960
▁صفر	-5961
▁عدل	-5962
▁لات	-5963
▁میت	-5964
▁پست	-5965
▁کوٹ	-5966
اہراہ	-5967
▁آئین	-5968
▁تاجر	-5969
▁راسِ	-5970
▁ساخت	-5971
▁ڈانس	-5972
▁گریز	-5973
▁بندوق	-5974
▁سہولت	-5975
▁شاہراہ	-5976
▁شیواجی	-5977
▁مشاہدہ	-5978
▁دیوتاؤں	-5979
99	-5980
وث	-5981
سنس	-5982
طیل	-5983
ویت	-5984
ٹزر	-5985
ادیں	-5986
الوی	-5987
ایسے	-5988
طیکہ	-5989
▁سرا	-5990
▁مدر	-5991
▁اٹلی	-5992
▁اینی	-5993
▁بہاؤ	-5994
▁حاری	-5995
▁شیئر	-5996
▁ملی۔	-5997
دوبارہ	-5998
▁اونچا	-5999
▁عوامل	-6000
▁فریاد	-6001
▁مراکز	-6002
▁گھوڑے	-6003
▁اطالوی	-6004
▁سیکھنے	-6005
▁مطلوبہ	-6006
▁ناقدین	-6007
▁ہوجاتے	-6008
▁حیدرآباد	-6009
ive	-6010
درا	-6011
دری	-6012
▁1.	-6013
▁45	-6014
▁زو	-6015
▁مڈ	-6016
▁خار	-6017
▁شائ	-6018
▁غرض	-6019
▁کمر	-6020
تمہیں	-6021
▁have	-6022
▁اجزا	-6023
▁حتمی	-6024
▁رخصت	-6025
▁روکے	-6026
▁آئیں۔	-6027
▁افتتا	-6028
▁بالوں	-6029
▁تورات	-6030
▁جوڑنے	-6031
▁دیجیے	-6032
▁قسموں	-6033
▁پھرنا	-6034
▁چلائے	-6035
▁کھولا	-6036
▁اوڈیشہ	-6037
▁دیوانہ	-6038
▁ہوجاتی	-6039
▁کانفرنس	-6040
▁اوکلاہوما	-6041
em	-6042
iy	-6043
قدر	-6044
لیے	-6045
▁as	-6046
▁ch	-6047
پہلے	-6048
کریا	-6049
▁جیک	-6050
▁روی	-6051
▁زخم	-6052
▁نصب	-6053
▁چیف	-6054
▁ہور	-6055
ستانی	-6056
▁1994	-6057
▁تلسی	-6058
▁تلنگ	-6059
▁قصور	-6060
▁پرنٹ	-6061
▁پڑنے	-6062
▁چھوٹ	-6063
▁چھپی	-6064
▁ایجاد	-6065
▁ایران	-6066
▁ایکسپ	-6067
▁ساؤتھ	-6068
▁قواعد	-6069
▁مرتفع	-6070
▁نوعیت	-6071
▁پرانا	-6072
▁باشندے	-6073
▁دلیلیں	-6074
▁دہائیوں	-6075
▁مہمانوں	-6076
خد	-6077
ئنگ	-6078
اؤل	-6079
بیہ	-6080
جہد	-6081
زند	-6082
مگر	-6083
ھیم	-6084
بتوں	-6085
ودگی	-6086
یابی	-6087
▁aur	-6088
▁جدو	-6089
▁ورث	-6090
▁ٹکر	-6091
▁گند	-6092
ترتیب	-6093
▁فلمی	-6094
▁قبضے	-6095
▁نوحؑ	-6096
▁نچلے	-6097
▁ایوان	-6098
▁ایکشن	-6099
▁تفریح	-6100
▁سرگرم	-6101
▁سوچتے	-6102
▁مسترد	-6103
▁اعتراف	-6104
▁جاندار	-6105
▁خوفناک	-6106
▁سامعین	-6107
▁تفصیلات	-6108
▁پھیپھڑوں	-6109
شپ	-6110
now	-6111
ازی	-6112
▁my	-6113
▁سز	-6114
تاکہ	-6115
▁ابن	-6116
▁بیت	-6117
▁حسن	-6118
▁سرد	-6119
▁ٹیپ	-6120
▁پیڈ	-6121
یاطین	-6122
▁....	-6123
▁بچپن	-6124
▁سروے	-6125
▁سستی	-6126
▁میلے	-6127
▁اتوار	-6128
▁ایشین	-6129
▁ترجمہ	-6130
▁داہنے	-6131
▁شاپنگ	-6132
▁ماؤنٹ	-6133
▁نارتھ	-6134
▁ندیوں	-6135
▁نمونہ	-6136
▁پکڑنے	-6137
▁گیارہ	-6138
▁شیاطین	-6139
▁بشرطیکہ	-6140
▁پریمیئر	-6141
▁عج	-6142
▁کچ	-6143
گیری	-6144
▁برج	-6145
▁نشو	-6146
▁ٹول	-6147
الدین	-6148
▁اٹھے	-6149
▁برتن	-6150
▁جمنا	-6151
▁جنات	-6152
▁ریشم	-6153
▁سجدے	-6154
▁شعبے	-6155
▁چالو	-6156
▁کوری	-6157
▁کیجی	-6158
▁کیوب	-6159
▁بہادر	-6160
▁تختوں	-6161
▁ترغیب	-6162
▁ریزرو	-6163
▁قبیلے	-6164
▁مہاجر	-6165
▁میسور	-6166
▁پٹھوں	-6167
▁اونٹنی	-6168
▁اِنہیں	-6169
▁جدوجہد	-6170
▁مضبوطی	-6171
▁نوآباد	-6172
▁ہندوؤں	-6173
se	-6174
سٹی	-6175
کیہ	-6176
گنی	-6177
یتی	-6178
یرت	-6179
▁۔۔	-6180
ight	-6181
نیئر	-6182
▁him	-6183
▁حجت	-6184
▁داغ	-6185
▁قصہ	-6186
▁ملت	-6187
الینڈ	-6188
پیڈیا	-6189
▁لاگو	-6190
▁مسلح	-6191
▁مہاب	-6192
▁نسلی	-6193
▁کاپی	-6194
▁کبڈی	-6195
▁کہتی	-6196
▁انجیل	-6197
▁برہمن	-6198
▁تینوں	-6199
▁جہنمّ	-6200
▁خریدا	-6201
▁خسارے	-6202
▁طلباء	-6203
▁فوائد	-6204
▁پرندے	-6205
▁ڈالتا	-6206
▁ڈرایا	-6207
▁باندھے	-6208
▁اٹھائیں	-6209
▁فلوریڈا	-6210
▁بالترتیب	-6211
"،	-6212
شے	-6213
▁sh	-6214
▁وش	-6215
▁150	-6216
▁1⁄4	-6217
▁مشغ	-6218
▁پیم	-6219
▁1991	-6220
▁آئی۔	-6221
▁ایذا	-6222
▁دئیے	-6223
▁ریڑھ	-6224
▁سنگم	-6225
▁سوشل	-6226
▁مجلس	-6227
▁نکلو	-6228
▁کوار	-6229
▁کھڑی	-6230
▁گہرا	-6231
▁بخوبی	-6232
▁معاشی	-6233
▁ناپاک	-6234
▁چلاتا	-6235
▁کاربن	-6236
ٹزرلینڈ	-6237
▁اسٹورز	-6238
▁تھراپی	-6239
▁مومنین	-6240
▁تلنگانہ	-6241
▁پروفیسر	-6242
▁ہسپانوی	-6243
این	-6244
راه	-6245
علی	-6246
▁جغ	-6247
▁کُ	-6248
باری	-6249
۔۔۔۔	-6250
▁آکر	-6251
▁سوم	-6252
▁ظال	-6253
▁چور	-6254
▁کاپ	-6255
▁کجی	-6256
▁ہان	-6257
▁آگئی	-6258
▁حساس	-6259
▁دھوپ	-6260
▁رواں	-6261
▁علاؤ	-6262
▁پھرے	-6263
▁گوگل	-6264
▁گھاس	-6265
▁آمادہ	-6266
▁اسباب	-6267
▁انبیا	-6268
▁بتائی	-6269
▁بدکار	-6270
▁دشمنی	-6271
▁ساؤنڈ	-6272
▁سیاحت	-6273
▁شفاعت	-6274
▁ماتحت	-6275
▁نکلتے	-6276
▁وفاقی	-6277
▁احتجاج	-6278
▁اُنہیں	-6279
▁روزانہ	-6280
▁علیحدہ	-6281
▁پروڈکٹ	-6282
,2	-6283
ld	-6284
st	-6285
غل	-6286
ئیر	-6287
راک	-6288
عتی	-6289
▁ئے	-6290
▁شگ	-6291
▁گڈ	-6292
▁aik	-6293
▁اڑا	-6294
▁بائ	-6295
▁بلے	-6296
▁ذمے	-6297
▁لیف	-6298
▁تفری	-6299
▁جزوی	-6300
▁لگے۔	-6301
▁نیند	-6302
▁پیٹر	-6303
▁اورجب	-6304
▁بلائے	-6305
▁ترکیب	-6306
▁شراکت	-6307
▁مداخل	-6308
▁کمایا	-6309
▁آپریشن	-6310
▁خوفزدہ	-6311
▁میزبان	-6312
▁پانڈیا	-6313
▁پتھروں	-6314
▁پنجابی	-6315
hy	-6316
for	-6317
خوذ	-6318
مسل	-6319
موس	-6320
▁36	-6321
علوم	-6322
کفار	-6323
▁don	-6324
▁الا	-6325
▁برآ	-6326
▁زنج	-6327
▁قطع	-6328
▁مٹا	-6329
▁میٹ	-6330
▁نظم	-6331
▁انڈو	-6332
▁اپیل	-6333
▁بھرا	-6334
▁دھرم	-6335
▁رقبہ	-6336
▁سیلز	-6337
▁صدار	-6338
▁صفحہ	-6339
▁نادر	-6340
▁اوروہ	-6341
▁زکریا	-6342
▁سرجری	-6343
▁سوراخ	-6344
▁مارتا	-6345
▁ماننا	-6346
▁مقابل	-6347
▁کپتان	-6348
▁کھایا	-6349
▁اصولوں	-6350
▁زیورات	-6351
▁مصنوعی	-6352
▁معاشرے	-6353
▁ہوائیں	-6354
▁امکانات	-6355
▁ہتھیاروں	-6356
ly	-6357
تیش	-6358
وام	-6359
ووں	-6360
پول	-6361
▁اغ	-6362
▁دت	-6363
بھار	-6364
نیکی	-6365
ونگا	-6366
ڈیوز	-6367
▁400	-6368
▁ترو	-6369
▁مدع	-6370
▁پبل	-6371
▁پیو	-6372
ہرائی	-6373
▁آسٹر	-6374
▁آچکا	-6375
▁الجھ	-6376
▁اگلا	-6377
▁بچاؤ	-6378
▁بہکے	-6379
▁رقبے	-6380
▁سبزی	-6381
▁ویدک	-6382
▁پڑتی	-6383
▁ڈھیر	-6384
▁گراف	-6385
▁گہری	-6386
▁ہیلی	-6387
▁اورجو	-6388
▁اکٹھے	-6389
▁سراسر	-6390
▁قبائل	-6391
▁ماخوذ	-6392
▁مغلوب	-6393
▁مومنو	-6394
▁چوتھی	-6395
▁انتقام	-6396
▁اوندھے	-6397
▁تبادلہ	-6398
▁میزورم	-6399
▁نکالیں	-6400
▁پروٹین	-6401
▁پرتگالی	-6402
▁اتراکھنڈ	-6403
,1	-6404
چو	-6405
▁v	-6406
سار	-6407
مخت	-6408
آخرت	-6409
غفار	-6410
پاشی	-6411
▁1⁄2	-6412
▁آکس	-6413
▁فلپ	-6414
▁کیو	-6415
▁گود	-6416
▁ہود	-6417
ہمارے	-6418
▁افری	-6419
▁راجہ	-6420
▁متنا	-6421
▁میئر	-6422
▁کانگ	-6423
▁جذبات	-6424
▁سائیڈ	-6425
▁عنوان	-6426
▁غنیمت	-6427
▁پھونک	-6428
▁ہوچکا	-6429
▁ہوچکی	-6430
▁سالگرہ	-6431
▁میدانی	-6432
▁پکاریں	-6433
▁چڑھائی	-6434
▁ہوگئے۔	-6435
▁پروگراموں	-6436
ّی	-6437
وسا	-6438
کفر	-6439
▁'%	-6440
▁ag	-6441
▁بز	-6442
▁مز	-6443
▁بعید	-6444
▁جیمز	-6445
▁رینج	-6446
▁یہیں	-6447
▁اندرا	-6448
▁انٹرو	-6449
▁بدلنے	-6450
▁حادثے	-6451
▁خزانہ	-6452
▁سائٹس	-6453
▁شکایت	-6454
▁نکلیں	-6455
▁نیپال	-6456
▁پابند	-6457
▁چلائی	-6458
▁کرتوت	-6459
▁کمیشن	-6460
▁گھیرے	-6461
یکٹیریا	-6462
▁آبپاشی	-6463
▁افریقی	-6464
▁ایجنسی	-6465
▁بدکاری	-6466
▁تخمینہ	-6467
▁تنخواہ	-6468
▁لائسنس	-6469
▁ناممکن	-6470
▁هایمان	-6471
▁استغفار	-6472
▁عمارتوں	-6473
▁یہودیوں	-6474
▁آسٹریلوی	-6475
ضع	-6476
▁لغ	-6477
زیدہ	-6478
▁186	-6479
▁اشت	-6480
▁بدب	-6481
▁دلا	-6482
▁عرا	-6483
▁پر۔	-6484
▁ہدف	-6485
▁یوگ	-6486
فرمان	-6487
▁1971	-6488
▁انسٹ	-6489
▁بیمہ	-6490
▁جاہل	-6491
▁خالق	-6492
▁عنصر	-6493
▁مقرب	-6494
▁پردے	-6495
▁پودے	-6496
▁گہرے	-6497
▁اجلاس	-6498
▁انگور	-6499
▁بتاؤں	-6500
▁بمبئی	-6501
▁تقوٰی	-6502
▁قدیمہ	-6503
▁قیمتی	-6504
▁تفریحی	-6505
▁چوپایوں	-6506
▁سوئٹزرلینڈ	-6507
واڑ	-6508
ڈیل	-6509
▁ہن	-6510
ورین	-6511
▁بیڈ	-6512
▁عذر	-6513
▁قار	-6514
▁لوں	-6515
▁ہاف	-6516
▁اغوا	-6517
▁اناج	-6518
▁رائل	-6519
▁رکوع	-6520
▁فارغ	-6521
▁قبائ	-6522
▁چراغ	-6523
▁برادر	-6524
▁بیٹھا	-6525
▁مانگا	-6526
▁وائیر	-6527
▁ڈالا۔	-6528
▁ابتداء	-6529
▁اعصابی	-6530
▁افسران	-6531
▁سرگرمی	-6532
▁مایوسی	-6533
▁پھانسی	-6534
▁خواہشوں	-6535
▁درمیانی	-6536
▁منصوبوں	-6537
اُس	-6538
تار	-6539
سلو	-6540
نڈے	-6541
▁ne	-6542
▁لق	-6543
▁ند	-6544
tock	-6545
تھری	-6546
▁مٹھ	-6547
▁وان	-6548
▁کفا	-6549
▁کٹو	-6550
خدائے	-6551
▁1987	-6552
▁ابرا	-6553
▁اُٹھ	-6554
▁بنا۔	-6555
▁تحفہ	-6556
▁جیتی	-6557
▁حکوم	-6558
▁لائف	-6559
▁گنیش	-6560
▁بیرون	-6561
▁تیرتھ	-6562
▁خاموش	-6563
▁سراہا	-6564
▁شکلیں	-6565
▁لگانا	-6566
▁نمونے	-6567
▁کردوں	-6568
▁کھائی	-6569
▁گزرتا	-6570
▁انڈونی	-6571
▁قیمتوں	-6572
▁منظوری	-6573
▁نگاہیں	-6574
▁موسیقار	-6575
33	-6576
جک	-6577
طع	-6578
کون	-6579
یہی	-6580
▁ابو	-6581
▁بجھ	-6582
▁دام	-6583
▁غذا	-6584
▁فلو	-6585
▁1979	-6586
▁جانو	-6587
▁رواج	-6588
▁سمیٹ	-6589
▁معزز	-6590
▁وائل	-6591
▁کراس	-6592
▁کریم	-6593
▁گزرا	-6594
▁اموال	-6595
▁اکیلا	-6596
▁جارہے	-6597
▁دائرے	-6598
▁فائده	-6599
▁نظریہ	-6600
▁ڈرامے	-6601
▁گانوں	-6602
▁اسٹائل	-6603
▁اینجلس	-6604
▁ایڈاہو	-6605
▁سیاحوں	-6606
▁فراہمی	-6607
▁نباتات	-6608
▁کشتیوں	-6609
▁کلائنٹ	-6610
▁گنجائش	-6611
▁بیکٹیریا	-6612
ra	-6613
وو	-6614
ist	-6615
ئنز	-6616
شان	-6617
نٹو	-6618
پرو	-6619
کتی	-6620
ونما	-6621
▁The	-6622
▁تھک	-6623
▁ذرہ	-6624
▁سنچ	-6625
▁طوق	-6626
▁نقد	-6627
▁پاپ	-6628
▁آچکی	-6629
▁آگئے	-6630
▁سینے	-6631
▁نطفہ	-6632
▁وفات	-6633
▁پیتے	-6634
کافروں	-6635
▁ارجنٹ	-6636
▁جرائم	-6637
▁دوزخی	-6638
▁رجحان	-6639
▁سینٹی	-6640
▁والدہ	-6641
▁پرواہ	-6642
▁چلاتے	-6643
▁چلایا	-6644
▁کانسی	-6645
▁کھائے	-6646
▁امریکن	-6647
▁لیکروس	-6648
▁مراٹھی	-6649
▁گھرانے	-6650
25	-6651
مس	-6652
ئین	-6653
ٹور	-6654
▁آی	-6655
لوان	-6656
میٹڈ	-6657
▁اپن	-6658
▁تسل	-6659
▁دفع	-6660
▁دوا	-6661
▁فلی	-6662
▁قلم	-6663
▁لاپ	-6664
▁ڈرے	-6665
▁کتے	-6666
▁ھیں	-6667
▁ہائ	-6668
▁یکا	-6669
board	-6670
▁will	-6671
▁انکے	-6672
▁سولہ	-6673
▁فورس	-6674
▁مرضی	-6675
▁پرنس	-6676
▁انھوں	-6677
▁اینڈر	-6678
▁غذائی	-6679
▁منائی	-6680
▁آسمانی	-6681
▁آوازیں	-6682
▁افزائی	-6683
▁پچھلوں	-6684
▁شیطانوں	-6685
▁نامعلوم	-6686
آئی	-6687
بوط	-6688
جسے	-6689
دیں	-6690
زاج	-6691
سٹن	-6692
مند	-6693
ٹرا	-6694
▁̧¶	-6695
▁ضد	-6696
▁نج	-6697
▁جہن	-6698
فائیڈ	-6699
معبود	-6700
▁اِسے	-6701
▁بحری	-6702
▁برآں	-6703
▁جوڑی	-6704
▁حسین	-6705
▁ذوال	-6706
▁سبقت	-6707
▁مائی	-6708
▁مالا	-6709
▁مخفی	-6710
▁منگل	-6711
▁موتی	-6712
▁نشین	-6713
▁واجب	-6714
▁اسٹیج	-6715
▁اوروں	-6716
▁برتاؤ	-6717
▁بلاتا	-6718
▁تبلیغ	-6719
▁مبینہ	-6720
▁نوکری	-6721
▁حمایتی	-6722
▁تہواروں	-6723
▁نشوونما	-6724
▁پہنچاتا	-6725
▁ریستوراں	-6726
▁علاؤالدین	-6727
اُن	-6728
بوس	-6729
جوش	-6730
سوں	-6731
متھ	-6732
کرو	-6733
▁75	-6734
عمال	-6735
▁hum	-6736
▁ارت	-6737
▁الر	-6738
▁الق	-6739
▁ریو	-6740
▁مرض	-6741
▁نذر	-6742
▁1982	-6743
▁1984	-6744
▁رویہ	-6745
▁مچھر	-6746
▁ٹیبل	-6747
▁پٹیل	-6748
▁گریج	-6749
▁سینیٹ	-6750
▁مالوں	-6751
▁پالنے	-6752
▁کبھار	-6753
▁بادلوں	-6754
▁رنجیدہ	-6755
▁مداخلت	-6756
▁نکالتے	-6757
▁کیونکر	-6758
▁گاڑیوں	-6759
▁گھوڑوں	-6760
▁ابراھیم	-6761
▁زبردستی	-6762
▁ریٹائرمنٹ	-6763
,4	-6764
غر	-6765
غہ	-6766
ate	-6767
بیڈ	-6768
دھا	-6769
الٹی	-6770
اکار	-6771
ریفک	-6772
ظاہر	-6773
وریت	-6774
▁لام	-6775
▁لشک	-6776
▁لگو	-6777
▁مقص	-6778
▁چھل	-6779
▁گرے	-6780
▁یسو	-6781
▁عرصہ	-6782
▁لگا۔	-6783
▁ویسا	-6784
▁پورم	-6785
▁پڑھو	-6786
▁پیرا	-6787
▁یونٹ	-6788
▁صدیوں	-6789
▁صنعتی	-6790
▁ظاہری	-6791
▁کرانے	-6792
▁کررہا	-6793
▁کرنا۔	-6794
▁کیرول	-6795
▁تنازعہ	-6796
▁تاریکیوں	-6797
▁نوجوانوں	-6798
اہد	-6799
بنا	-6800
غبت	-6801
ٹکا	-6802
▁́د	-6803
▁مڑ	-6804
مجھے	-6805
▁تقر	-6806
▁حسد	-6807
▁ٹیل	-6808
▁1988	-6809
▁ارتک	-6810
▁جمعہ	-6811
▁رولر	-6812
▁رومی	-6813
▁سلیم	-6814
▁فوٹو	-6815
▁ماری	-6816
▁مطلع	-6817
▁نیدر	-6818
▁چکھا	-6819
▁آرائش	-6820
▁باریک	-6821
▁جارہا	-6822
▁جارہی	-6823
▁خاتمہ	-6824
▁خلیات	-6825
▁قدموں	-6826
▁پکوان	-6827
▁بہشتوں	-6828
▁خریدار	-6829
▁لگائیں	-6830
▁نشانات	-6831
op	-6832
عم	-6833
لن	-6834
ھن	-6835
▁رم	-6836
ائنس	-6837
موسی	-6838
ودار	-6839
▁par	-6840
▁tar	-6841
▁ئيں	-6842
▁الف	-6843
▁بدر	-6844
▁سوس	-6845
▁لار	-6846
▁نمک	-6847
▁ڈیف	-6848
جینیا	-6849
شورنس	-6850
▁آزما	-6851
▁بلین	-6852
▁تغیر	-6853
▁دوری	-6854
▁سانپ	-6855
▁سونا	-6856
▁قدمی	-6857
▁لانا	-6858
▁کمال	-6859
▁گایا	-6860
▁یہود	-6861
▁دائرہ	-6862
▁لگائی	-6863
▁مندوں	-6864
▁ٹرافی	-6865
▁ٹریفک	-6866
▁چالیس	-6867
▁ڈیبیو	-6868
▁گمراه	-6869
▁ہونگے	-6870
▁شہریوں	-6871
▁نگاہوں	-6872
▁پینٹنگ	-6873
▁کوارٹر	-6874
▁کیتھولک	-6875
▁تبدیلیوں	-6876
.1	-6877
ie	-6878
▁ھ	-6879
ide	-6880
اره	-6881
امہ	-6882
جوج	-6883
گرد	-6884
ہمی	-6885
▁عک	-6886
ائزر	-6887
ابقت	-6888
لیکن	-6889
▁can	-6890
▁سبق	-6891
▁کہل	-6892
▁ہلا	-6893
▁اوری	-6894
▁ایگز	-6895
▁بڑھے	-6896
▁تئیں	-6897
▁تمنا	-6898
▁تنہا	-6899
▁جارح	-6900
▁لیے۔	-6901
▁معجز	-6902
▁گرام	-6903
▁تناسب	-6904
▁حاضری	-6905
▁دھمکی	-6906
▁سناتا	-6907
▁لکشمی	-6908
▁موسمی	-6909
▁پیمان	-6910
▁کرسکے	-6911
▁لشکروں	-6912
▁گردنوں	-6913
▁ہوگئی۔	-6914
▁انشورنس	-6915
▁منافقین	-6916
na	-6917
od	-6918
our	-6919
داں	-6920
سمس	-6921
ٹیٹ	-6922
ھوی	-6923
▁ہض	-6924
حکمت	-6925
ینڈن	-6926
▁ایٹ	-6927
▁خلل	-6928
▁دھا	-6929
▁ٹرک	-6930
▁پتے	-6931
▁پڈو	-6932
▁ڈیس	-6933
▁یاب	-6934
▁1964	-6935
▁1972	-6936
▁اصلی	-6937
▁بیہو	-6938
▁تمغے	-6939
▁تھرو	-6940
▁شرکا	-6941
▁عبور	-6942
▁عقلم	-6943
▁لیڈر	-6944
▁میلہ	-6945
▁نبوت	-6946
▁آئندہ	-6947
▁تعطیل	-6948
▁جانیں	-6949
▁داخلہ	-6950
▁ریفری	-6951
▁فاؤنڈ	-6952
▁فرزند	-6953
▁نکلتی	-6954
▁اسکرپٹ	-6955
▁ساتواہ	-6956
▁سرمائی	-6957
▁قبائلی	-6958
▁نصرانی	-6959
▁پیمائش	-6960
▁کھولتا	-6961
▁دروازوں	-6962
▁گمراہوں	-6963
▁keyboard	-6964
▁ویکیپیڈیا	-6965
75	-6966
گم	-6967
ind	-6968
نین	-6969
ورٹ	-6970
ویش	-6971
▁3"	-6972
میشن	-6973
▁(19	-6974
▁داس	-6975
▁شیش	-6976
▁ضبط	-6977
▁عصا	-6978
▁ورت	-6979
▁ٹین	-6980
▁گنگ	-6981
▁1989	-6982
▁آدھی	-6983
▁ورزش	-6984
▁ٹرنر	-6985
▁ہمیش	-6986
▁بحالی	-6987
▁بیلجی	-6988
▁مجسمے	-6989
▁مکرّم	-6990
▁پہنتے	-6991
▁کرسکو	-6992
▁گزاری	-6993
▁خودکشی	-6994
▁غلاموں	-6995
▁کھولنے	-6996
▁گاہکوں	-6997
▁خوشنودی	-6998
▁دکھائیں	-6999
▁فنکاروں	-7000
▁ورجینیا	-7001
▁ٹھہرایا	-7002
▁اندھیروں	-7003
35	-7004
aw	-7005
pt	-7006
آج	-7007
اکا	-7008
لنے	-7009
ونو	-7010
وٹی	-7011
وین	-7012
کوٹ	-7013
▁le	-7014
طانی	-7015
کیاں	-7016
▁الح	-7017
▁اکھ	-7018
▁جڑی	-7019
▁رین	-7020
▁سرچ	-7021
▁فوت	-7022
▁ویم	-7023
▁پیپ	-7024
موسٰی	-7025
▁1956	-7026
▁آتشک	-7027
▁آپشن	-7028
▁باڈی	-7029
▁بھرے	-7030
▁مشیر	-7031
▁مقیم	-7032
▁ہارڈ	-7033
▁ہیلو	-7034
▁اشارے	-7035
▁بتاتی	-7036
▁بصیرت	-7037
▁جائزے	-7038
▁جاگیر	-7039
▁ریٹین	-7040
▁ملبوس	-7041
▁چاہوں	-7042
▁کپڑوں	-7043
▁گاروں	-7044
▁جونیئر	-7045
▁زمینوں	-7046
▁مزاحیہ	-7047
▁نسبتاً	-7048
ffffffff	-7049
▁پیغامات	-7050
▁بیماریوں	-7051
▁نیدرلینڈ	-7052
ob	-7053
ong	-7054
خلا	-7055
دیپ	-7056
سخت	-7057
لہا	-7058
وتم	-7059
گئے	-7060
ھرے	-7061
▁وک	-7062
ایسی	-7063
گیاں	-7064
▁189	-7065
▁did	-7066
▁یکش	-7067
بیڈکر	-7068
▁mein	-7069
▁استق	-7070
▁اسپر	-7071
▁دستے	-7072
▁رغبت	-7073
▁غربت	-7074
▁فیفا	-7075
▁مارو	-7076
▁متصل	-7077
▁مرمت	-7078
▁ٹائپ	-7079
▁پندر	-7080
▁اقوام	-7081
▁سوویت	-7082
▁متکبر	-7083
▁ٹھنڈا	-7084
▁چڑھنے	-7085
▁گندگی	-7086
▁بنائے۔	-7087
▁ساتویں	-7088
▁سمجھنا	-7089
▁صحیفوں	-7090
▁پرسکون	-7091
▁پھولوں	-7092
▁یتیموں	-7093
▁بیلجیئم	-7094
▁تنازعات	-7095
▁جینیاتی	-7096
▁خوشگوار	-7097
▁مطالعات	-7098
▁رُوگردانی	-7099
,0	-7100
اَ	-7101
ازو	-7102
دور	-7103
لاً	-7104
لین	-7105
ّار	-7106
▁so	-7107
▁آو	-7108
فیصد	-7109
▁say	-7110
▁آلہ	-7111
▁خطا	-7112
▁شار	-7113
▁لیپ	-7114
▁here	-7115
▁know	-7116
▁بندو	-7117
▁جھکے	-7118
▁غارت	-7119
▁فورا	-7120
▁مرتب	-7121
▁مشقت	-7122
▁وفاد	-7123
▁چھین	-7124
▁اسپین	-7125
▁اڑایا	-7126
▁ایسوں	-7127
▁تہذیب	-7128
▁خلیوں	-7129
▁رسالت	-7130
▁ماسٹر	-7131
▁محترم	-7132
▁مراحل	-7133
▁مقصود	-7134
▁پوچھے	-7135
▁کروگے	-7136
▁کرچکے	-7137
▁گرینڈ	-7138
▁اسٹریٹ	-7139
▁امتزاج	-7140
▁بیٹھنے	-7141
▁لاکھوں	-7142
▁گہرائی	-7143
▁امبیڈکر	-7144
▁سپاہیوں	-7145
85	-7146
¶َ	-7147
ضے	-7148
ڈس	-7149
are	-7150
منا	-7151
نیت	-7152
▁جد	-7153
▁دق	-7154
▁لۓ	-7155
▁yeh	-7156
▁الک	-7157
▁فول	-7158
▁قلب	-7159
▁لاہ	-7160
▁مفس	-7161
▁هيں	-7162
▁واہ	-7163
▁پرا	-7164
▁کیف	-7165
براہی	-7166
▁آپکو	-7167
▁بانس	-7168
▁باور	-7169
▁تناؤ	-7170
▁سائے	-7171
▁سیکر	-7172
▁مورخ	-7173
▁میڈل	-7174
▁ناگا	-7175
▁ٹریڈ	-7176
▁ڈیوڈ	-7177
▁یسوع	-7178
▁بخشتا	-7179
▁بوڑھے	-7180
▁تکمیل	-7181
▁دھوکا	-7182
▁صفحات	-7183
▁لائنز	-7184
▁متحرک	-7185
▁محتاج	-7186
▁چمکتا	-7187
▁آسٹریا	-7188
▁دنیاوی	-7189
▁دیکھا۔	-7190
▁غالباً	-7191
▁قیدیوں	-7192
▁میوزیم	-7193
▁پرتھوی	-7194
▁پیریار	-7195
▁انٹرویو	-7196
▁ریپبلکن	-7197
ri	-7198
غب	-7199
ect	-7200
ازن	-7201
اِس	-7202
نگل	-7203
ٹیم	-7204
▁85	-7205
ائے۔	-7206
یوسف	-7207
▁فین	-7208
▁لو۔	-7209
▁ڈری	-7210
▁کسٹ	-7211
▁کیٹ	-7212
▁1969	-7213
▁1975	-7214
▁unit	-7215
▁براڈ	-7216
▁برٹش	-7217
▁حاکم	-7218
▁خطوں	-7219
▁ریسر	-7220
▁شگاف	-7221
▁فرقہ	-7222
▁لمبا	-7223
▁لمحے	-7224
▁مدین	-7225
▁مضاف	-7226
▁منصف	-7227
▁ٹیپو	-7228
▁پیدل	-7229
▁ہاسن	-7230
▁ہوجا	-7231
▁یورو	-7232
▁بردار	-7233
▁بلاتے	-7234
▁تائید	-7235
▁تحائف	-7236
▁تعظیم	-7237
▁جغراف	-7238
▁سینئر	-7239
▁ناخوش	-7240
▁نایاب	-7241
▁ٹوکیو	-7242
▁جذباتی	-7243
▁دیکھئے	-7244
▁پہنچیں	-7245
▁چاہئے۔	-7246
▁کھولتے	-7247
▁گراؤنڈ	-7248
▁ہمایوں	-7249
▁الزامات	-7250
▁انڈسٹری	-7251
▁جماعتیں	-7252
▁سنگاپور	-7253
▁پیچیدگی	-7254
▁خوبصورتی	-7255
,6	-7256
ذی	-7257
one	-7258
ابہ	-7259
ادم	-7260
حمت	-7261
دھے	-7262
مرہ	-7263
مشر	-7264
گلو	-7265
▁کع	-7266
کشاف	-7267
▁جڑے	-7268
▁قاف	-7269
▁مخل	-7270
▁مرج	-7271
▁نسخ	-7272
▁کھڑ	-7273
▁what	-7274
▁آرہا	-7275
▁بخشا	-7276
▁تنوع	-7277
▁دارو	-7278
▁رویے	-7279
▁سردی	-7280
▁سوزش	-7281
▁سولی	-7282
▁صدقہ	-7283
▁عدال	-7284
▁وکٹر	-7285
▁گروه	-7286
▁توفیق	-7287
▁شکاگو	-7288
▁عکاسی	-7289
▁فوجوں	-7290
▁مارتے	-7291
▁متعین	-7292
▁مناظر	-7293
▁ہائیڈ	-7294
▁یکایک	-7295
▁دشواری	-7296
▁مانگنے	-7297
▁ہمیشگی	-7298
▁باندھتے	-7299
▁برگزیدہ	-7300
▁تنظیموں	-7301
▁مسکینوں	-7302
▁باقاعدگی	-7303
▁ناگالینڈ	-7304
▁دستاویزات	-7305
13	-7306
ير	-7307
اہب	-7308
تھا	-7309
ڈور	-7310
▁He	-7311
ارہے	-7312
یکٹو	-7313
▁برد	-7314
▁قرب	-7315
▁چچا	-7316
▁ڈیپ	-7317
omain	-7318
▁1983	-7319
▁آکسی	-7320
▁ایون	-7321
▁جوان	-7322
▁لیلا	-7323
▁وائٹ	-7324
▁چائے	-7325
▁کمبھ	-7326
▁کوسٹ	-7327
▁ہستی	-7328
▁ہیری	-7329
▁اسکیم	-7330
▁تشریف	-7331
▁جانتی	-7332
▁دکھاؤ	-7333
▁دھنسا	-7334
▁دیہات	-7335
▁شواہد	-7336
▁لاٹھی	-7337
▁منانے	-7338
▁ندیاں	-7339
▁ٹھنڈی	-7340
▁انکشاف	-7341
▁سردیوں	-7342
▁لڑکیاں	-7343
▁مُردوں	-7344
▁پیشانی	-7345
▁کرسکیں	-7346
▁کناروں	-7347
▁کوششیں	-7348
▁آئرلینڈ	-7349
▁انڈونیشیا	-7350
▁جغرافیائی	-7351
فن	-7352
ake	-7353
جیس	-7354
سین	-7355
پاک	-7356
یشن	-7357
▁طل	-7358
جواب	-7359
▁جگر	-7360
▁ضرر	-7361
▁ٹاک	-7362
اعمال	-7363
موسیٰ	-7364
▁1977	-7365
▁الٹی	-7366
▁برقی	-7367
▁بچتے	-7368
▁فریم	-7369
▁مدعو	-7370
▁چارج	-7371
▁ڈائی	-7372
▁ڈھال	-7373
▁ڈھیل	-7374
▁کامی	-7375
▁کھنڈ	-7376
▁گھنے	-7377
▁اعراض	-7378
▁بلانے	-7379
▁توازن	-7380
▁خاتمے	-7381
▁سویرے	-7382
▁عیسٰی	-7383
▁قابلِ	-7384
▁معجزہ	-7385
▁ملازم	-7386
▁پرستی	-7387
▁پندرہ	-7388
▁شیطانی	-7389
▁ظالمین	-7390
▁مشکلات	-7391
▁منکرین	-7392
▁پکارتا	-7393
▁ڈرائیں	-7394
▁کھانسی	-7395
▁مائیکرو	-7396
▁نمائندہ	-7397
ma	-7398
قول	-7399
پیڈ	-7400
▁ya	-7401
▁ہُ	-7402
جیکل	-7403
حکام	-7404
▁الو	-7405
▁اٹل	-7406
▁اکڑ	-7407
▁بچن	-7408
▁سدا	-7409
▁پوس	-7410
▁چشم	-7411
▁ڈول	-7412
▁1985	-7413
▁1986	-7414
▁اطلا	-7415
▁ایمر	-7416
▁بقیہ	-7417
▁سبھی	-7418
▁عطیہ	-7419
▁مدار	-7420
▁نفیس	-7421
▁ٹھوس	-7422
▁کوچی	-7423
▁کیسز	-7424
ائزیشن	-7425
▁اجزاء	-7426
▁اخراج	-7427
▁اننگز	-7428
▁خبروں	-7429
▁دلائی	-7430
▁رنگین	-7431
▁رکھی۔	-7432
▁سوچنے	-7433
▁سوچیں	-7434
▁مجسمہ	-7435
▁منیجر	-7436
▁نمٹنے	-7437
▁پلٹنا	-7438
▁ہوتی۔	-7439
▁اعتراض	-7440
▁افسانے	-7441
▁باندھا	-7442
▁برینڈن	-7443
▁لاطینی	-7444
▁کرلیتے	-7445
▁دیواروں	-7446
▁چیئرمین	-7447
▁ڈیلیوری	-7448
▁پروڈیوسر	-7449
ِس	-7450
لوع	-7451
▁we	-7452
▁تغ	-7453
▁فص	-7454
نتوں	-7455
وریں	-7456
ونیا	-7457
پائی	-7458
▁man	-7459
▁آپک	-7460
▁سرح	-7461
▁کنج	-7462
▁کیک	-7463
سانوی	-7464
▁بننا	-7465
▁بہنے	-7466
▁شرما	-7467
▁طبقے	-7468
▁فروش	-7469
▁منتر	-7470
▁پبلک	-7471
▁پروا	-7472
▁پونے	-7473
▁ڈراؤ	-7474
▁کلمہ	-7475
▁کھلو	-7476
▁آمدید	-7477
▁اتارے	-7478
▁اعضاء	-7479
▁توڑنے	-7480
▁متناز	-7481
▁مربوط	-7482
▁مساوی	-7483
▁مقدمے	-7484
▁ملائی	-7485
▁ٹھہرے	-7486
▁پرجوش	-7487
▁کرسمس	-7488
▁تحریری	-7489
▁سنگسار	-7490
▁عالمین	-7491
▁محفوظہ	-7492
▁آپریٹنگ	-7493
.4	-7494
ust	-7495
اقب	-7496
داف	-7497
طرت	-7498
فین	-7499
نفس	-7500
▁33	-7501
▁طو	-7502
▁وب	-7503
سٹین	-7504
قدرت	-7505
چیری	-7506
▁her	-7507
▁دبا	-7508
▁دری	-7509
▁روپ	-7510
▁فقط	-7511
▁مرو	-7512
▁ویز	-7513
انصاف	-7514
▁سماج	-7515
▁سنجے	-7516
▁سنٹر	-7517
▁سہرا	-7518
▁طلوع	-7519
▁عالی	-7520
▁مدّت	-7521
▁ملے۔	-7522
▁نواب	-7523
▁ونڈو	-7524
▁پران	-7525
▁امتوں	-7526
▁جھونک	-7527
▁دماغی	-7528
▁سیاہی	-7529
▁متنوع	-7530
▁مذاہب	-7531
▁مواصل	-7532
▁چوپڑا	-7533
▁ہامان	-7534
▁بنگلور	-7535
▁تجربات	-7536
▁شہزادہ	-7537
▁مائیکل	-7538
▁متوازن	-7539
▁میموری	-7540
▁ٹائیگر	-7541
▁کارکنوں	-7542
▁کینیڈین	-7543
▁ایکسپریس	-7544
▁انجینئرنگ	-7545
."	-7546
.6	-7547
يل	-7548
الر	-7549
بین	-7550
داب	-7551
نان	-7552
وؤں	-7553
وشی	-7554
ڈیز	-7555
جاری	-7556
ٹیلی	-7557
گناہ	-7558
▁آلو	-7559
▁سرف	-7560
▁سہی	-7561
▁قمی	-7562
▁پکی	-7563
▁ڈیٹ	-7564
وزیشن	-7565
ہماری	-7566
یکیشن	-7567
▁1974	-7568
▁1978	-7569
▁1981	-7570
▁انکو	-7571
▁دھات	-7572
▁رضام	-7573
▁سناؤ	-7574
▁صابر	-7575
▁عراق	-7576
▁لوہے	-7577
▁ٹکرا	-7578
▁پچاس	-7579
▁چھڑی	-7580
▁کہیے	-7581
▁گھٹن	-7582
مسلمان	-7583
▁اجتما	-7584
▁توریت	-7585
▁حیوان	-7586
▁خوردہ	-7587
▁دوگنا	-7588
▁رجسٹر	-7589
▁ریسنگ	-7590
▁زبانی	-7591
▁زیارت	-7592
▁فوجیں	-7593
▁پرائم	-7594
▁یوسفؑ	-7595
▁دھماکے	-7596
▁فرماتے	-7597
▁نیکیوں	-7598
▁افسانوی	-7599
▁جائیداد	-7600
▁سلطنتوں	-7601
▁سینکڑوں	-7602
▁مراٹھوں	-7603
▁پہنچانا	-7604
▁ایماندار	-7605
▁پاکستانی	-7606
,3	-7607
19	-7608
μμ	-7609
ber	-7610
ائق	-7611
ادھ	-7612
جھی	-7613
دال	-7614
دھی	-7615
ولم	-7616
▁سڈ	-7617
لیاں	-7618
▁اخذ	-7619
▁اسم	-7620
▁تمھ	-7621
▁سمی	-7622
▁پوش	-7623
▁ڈون	-7624
▁1000	-7625
▁اسسٹ	-7626
▁انڈر	-7627
▁اکھا	-7628
▁توثی	-7629
▁جلال	-7630
▁حقیر	-7631
▁سینہ	-7632
▁عہدہ	-7633
▁غروب	-7634
▁لوئس	-7635
▁ملٹی	-7636
▁ٹینس	-7637
▁پیلے	-7638
▁کہوں	-7639
▁یونس	-7640
▁اہداف	-7641
▁بدبخت	-7642
▁جہالت	-7643
▁وزارت	-7644
▁پادری	-7645
▁گونگے	-7646
▁مندرجہ	-7647
▁پہلوؤں	-7648
▁چھپائے	-7649
▁پہچانتے	-7650
▁کولمبیا	-7651
▁نوآبادیاتی	-7652
بوٹ	-7653
ناس	-7654
ٹیج	-7655
امید	-7656
▁اوا	-7657
▁ران	-7658
▁فخر	-7659
▁موڈ	-7660
▁چتر	-7661
ادیوں	-7662
وناتھ	-7663
ٹیننٹ	-7664
▁1976	-7665
▁بلاؤ	-7666
▁جلتا	-7667
▁رشتے	-7668
▁رومن	-7669
▁قدرے	-7670
▁قطعی	-7671
▁محاص	-7672
▁مدتی	-7673
▁مرتے	-7674
▁مسلط	-7675
▁مینہ	-7676
▁ٹاور	-7677
▁اراده	-7678
▁بانجھ	-7679
▁تانبے	-7680
▁جنتیں	-7681
▁دادوں	-7682
▁دلانے	-7683
▁روبرو	-7684
▁ستارہ	-7685
▁سطحوں	-7686
▁سیکھا	-7687
▁قلعوں	-7688
▁مرحلہ	-7689
▁موافق	-7690
▁پلانٹ	-7691
▁پھریں	-7692
▁پیریڈ	-7693
▁کرنسی	-7694
▁اندازی	-7695
▁بڑھایا	-7696
▁بھیجا۔	-7697
▁بیہودہ	-7698
▁تکنیکی	-7699
▁جارجیا	-7700
▁سائنسی	-7701
▁سیاحتی	-7702
▁مہمانی	-7703
▁میڈیکل	-7704
▁چٹانوں	-7705
▁سربراہی	-7706
▁نمائندے	-7707
▁پھیلانے	-7708
▁ڈیموکری	-7709
ud	-7710
؟،	-7711
ڑہ	-7712
خوف	-7713
لوک	-7714
ولے	-7715
ّات	-7716
یسہ	-7717
▁دک	-7718
راہِ	-7719
کارت	-7720
گریٹ	-7721
▁آدی	-7722
▁ايک	-7723
▁جلی	-7724
▁رئی	-7725
▁معد	-7726
▁کیچ	-7727
انگیر	-7728
براہٹ	-7729
▁اثنا	-7730
▁براع	-7731
▁ثانی	-7732
▁حصول	-7733
▁نوشی	-7734
▁کارل	-7735
▁کونے	-7736
▁اصرار	-7737
▁انتہا	-7738
▁بحران	-7739
▁بچائے	-7740
▁جوانی	-7741
▁شعبوں	-7742
▁صوبوں	-7743
▁نیکوں	-7744
▁پھیلے	-7745
▁ڈراتا	-7746
▁بنالیا	-7747
▁بچالیا	-7748
▁بینائی	-7749
▁چنگھاڑ	-7750
▁کھالیں	-7751
▁کھیلے۔	-7752
▁مویشیوں	-7753
▁نفسیاتی	-7754
▁لیفٹیننٹ	-7755
▁کوالیفائی	-7756
72	-7757
up	-7758
افت	-7759
ویو	-7760
ہین	-7761
▁51	-7762
▁جک	-7763
▁عض	-7764
دریج	-7765
▁آٹو	-7766
▁توپ	-7767
▁حرج	-7768
▁زہر	-7769
▁سٹر	-7770
▁شاذ	-7771
▁فعل	-7772
▁لسٹ	-7773
▁ممل	-7774
▁منڈ	-7775
▁پنا	-7776
▁پُر	-7777
▁چیس	-7778
▁گچھ	-7779
دونوں	-7780
قرنین	-7781
▁1973	-7782
▁امرت	-7783
▁جبھی	-7784
▁راغب	-7785
▁زہری	-7786
▁شیشے	-7787
▁ضمان	-7788
▁فرقے	-7789
▁چیرا	-7790
▁کنسر	-7791
▁کولک	-7792
▁آبائی	-7793
▁افعال	-7794
▁اورہم	-7795
▁بھاگے	-7796
▁تجزیہ	-7797
▁حقدار	-7798
▁قصبوں	-7799
▁مارنا	-7800
▁محصول	-7801
▁نگران	-7802
▁امیدیں	-7803
▁بیٹیوں	-7804
▁لائبری	-7805
▁نظریات	-7806
▁کمانڈر	-7807
▁اندھیرے	-7808
▁کیمیائی	-7809
▁گھبراہٹ	-7810
▁تعمیراتی	-7811
▁فاؤنڈیشن	-7812
ٹز	-7813
برے	-7814
لیا	-7815
ٹار	-7816
گپت	-7817
▁عب	-7818
اچھا	-7819
▁بدن	-7820
▁بدی	-7821
▁رنز	-7822
▁سنت	-7823
▁فیل	-7824
▁لیک	-7825
▁نیپ	-7826
▁چوک	-7827
▁گرہ	-7828
ریٹری	-7829
گرافی	-7830
▁الخط	-7831
▁تغلق	-7832
▁سازش	-7833
▁غفور	-7834
▁میجر	-7835
▁نائٹ	-7836
▁نوکر	-7837
▁پروس	-7838
▁کعبہ	-7839
▁اواخر	-7840
▁بظاہر	-7841
▁خطرات	-7842
▁درجات	-7843
▁دوچار	-7844
▁دھکیل	-7845
▁ذائقہ	-7846
▁نرمدا	-7847
▁کافرو	-7848
▁کرائی	-7849
▁کرائے	-7850
▁کھیلی	-7851
▁گھاٹے	-7852
▁خریدتے	-7853
▁دانائی	-7854
▁فائلیں	-7855
▁نمازوں	-7856
▁پوشیده	-7857
▁پوچھنا	-7858
▁استحکام	-7859
▁مہاجرین	-7860
▁کرتوتوں	-7861
▁نیدرلینڈز	-7862
سیا	-7863
شات	-7864
ونز	-7865
ہید	-7866
یون	-7867
▁52	-7868
▁نح	-7869
▁چہ	-7870
▁ھم	-7871
ستگی	-7872
ڑائی	-7873
▁عدد	-7874
▁لاح	-7875
▁وضع	-7876
▁ٹیگ	-7877
▁چوہ	-7878
▁ہرا	-7879
▁want	-7880
▁تکیہ	-7881
▁دعوی	-7882
▁سیکی	-7883
▁فنون	-7884
▁مانے	-7885
▁مرزا	-7886
▁مورو	-7887
▁مہلک	-7888
▁پلان	-7889
▁چوتھ	-7890
▁کروم	-7891
▁کنگن	-7892
▁تبصرہ	-7893
▁ترازو	-7894
▁دانوں	-7895
▁زخموں	-7896
▁زمینی	-7897
▁ستائش	-7898
▁فصلوں	-7899
▁فضائی	-7900
▁کاٹنے	-7901
▁گاہیں	-7902
▁اشتراک	-7903
▁ایڈیشن	-7904
▁صورتیں	-7905
▁نامراد	-7906
▁پہنچا۔	-7907
▁گھنٹوں	-7908
▁متنازعہ	-7909
▁حیاتیاتی	-7910
-4	-7911
11	-7912
oh	-7913
te	-7914
rom	-7915
شاں	-7916
▁ٹن	-7917
form	-7918
ould	-7919
ادھو	-7920
اریٰ	-7921
اسکر	-7922
شائر	-7923
مزید	-7924
▁آسک	-7925
▁خرم	-7926
▁رائ	-7927
▁مشی	-7928
▁معت	-7929
▁پتر	-7930
▁کند	-7931
▁کھر	-7932
▁کیش	-7933
نگیری	-7934
▁انڈی	-7935
▁ایڈو	-7936
▁بدلا	-7937
▁بیعت	-7938
▁جلتے	-7939
▁حضرت	-7940
▁رابر	-7941
▁شعلے	-7942
▁شفقت	-7943
▁قیاس	-7944
▁لانچ	-7945
▁لیبل	-7946
▁ملنا	-7947
▁ناظر	-7948
▁پینٹ	-7949
▁چندی	-7950
کیونکہ	-7951
▁بیٹھو	-7952
▁تفتیش	-7953
▁جیتے۔	-7954
▁خریدی	-7955
▁ریسرچ	-7956
▁قارون	-7957
▁لاہور	-7958
▁منقطع	-7959
▁ناروے	-7960
▁domain	-7961
▁بھاگنے	-7962
▁خوابوں	-7963
▁سرگوشی	-7964
▁کھیتوں	-7965
▁بنائیں۔	-7966
▁دیکھیں۔	-7967
▁اداکاروں	-7968
▁اشتہارات	-7969
.2	-7970
71	-7971
83	-7972
لگ	-7973
برٹ	-7974
شتی	-7975
مقر	-7976
وئل	-7977
ودر	-7978
▁ga	-7979
▁جج	-7980
،000	-7981
اسکا	-7982
یقین	-7983
▁kay	-7984
▁lik	-7985
▁±×·	-7986
▁عید	-7987
▁پکا	-7988
موجود	-7989
▁آنسو	-7990
▁اخلا	-7991
▁انڈے	-7992
▁باغی	-7993
▁بتلا	-7994
▁بزنس	-7995
▁بڑھی	-7996
▁جلوس	-7997
▁خوار	-7998
▁دانے	-7999
▁دریں	-8000
▁سکول	-8001
▁متون	-8002
▁معطل	-8003
▁هخدا	-8004
▁پولی	-8005
▁کمپل	-8006
▁Stock	-8007
▁اسٹین	-8008
▁تھامس	-8009
▁حبیبِ	-8010
▁شاعری	-8011
▁مشابہ	-8012
▁مشورے	-8013
▁پانڈو	-8014
▁اٹھاتے	-8015
▁خزانوں	-8016
▁درباری	-8017
▁دکھاتے	-8018
▁دیکھتی	-8019
▁مطابقت	-8020
▁ڈھانچہ	-8021
▁ڈیوائس	-8022
▁کرلیتا	-8023
▁گزاروں	-8024
▁اصلاحات	-8025
▁افتتاحی	-8026
▁پہنچاتے	-8027
▁اونٹاریو	-8028
▁ٹرانسپورٹ	-8029
og	-8030
حر	-8031
خذ	-8032
اہٹ	-8033
سخر	-8034
ومو	-8035
ٹیف	-8036
کلی	-8037
▁42	-8038
▁يا	-8039
ائٹی	-8040
▁175	-8041
▁zar	-8042
▁اُت	-8043
▁ایب	-8044
▁رتن	-8045
▁عجب	-8046
▁لاد	-8047
▁لٹک	-8048
▁لڑے	-8049
▁منج	-8050
▁ندا	-8051
▁1948	-8052
▁آدھے	-8053
▁آرہے	-8054
▁السر	-8055
▁انیس	-8056
▁بھون	-8057
▁خراج	-8058
▁سجده	-8059
▁میگز	-8060
▁نالی	-8061
▁نصرت	-8062
▁پکڑو	-8063
▁کھات	-8064
▁گریڈ	-8065
▁خنزیر	-8066
▁ریاضی	-8067
▁سنوکر	-8068
▁لکھنا	-8069
▁مدراس	-8070
▁موزوں	-8071
▁وزمین	-8072
▁پانڈی	-8073
▁پایا۔	-8074
▁کونسی	-8075
▁باقیات	-8076
▁بتدریج	-8077
▁بردبار	-8078
▁خوبیوں	-8079
▁سفارشی	-8080
▁چلائیں	-8081
▁کیجیئے	-8082
▁اخبارات	-8083
اٹ	-8084
der	-8085
ابط	-8086
خیز	-8087
ریر	-8088
سور	-8089
علم	-8090
▁44	-8091
▁64	-8092
▁at	-8093
▁بغ	-8094
1⁄2؛	-8095
very	-8096
اعدہ	-8097
انتی	-8098
ویری	-8099
ٹریٹ	-8100
پمنٹ	-8101
کبھی	-8102
▁176	-8103
▁ham	-8104
▁بام	-8105
▁بشپ	-8106
▁تفر	-8107
▁خلق	-8108
▁رسو	-8109
▁غلہ	-8110
▁نان	-8111
زندگی	-8112
فرشتے	-8113
ونیوں	-8114
▁اثاث	-8115
▁ایسڈ	-8116
▁بابا	-8117
▁جرسی	-8118
▁خطوط	-8119
▁شنکر	-8120
▁فورٹ	-8121
▁مختص	-8122
▁گلاس	-8123
▁اڑانے	-8124
▁بتانا	-8125
▁تعاقب	-8126
▁توثیق	-8127
▁جگہیں	-8128
▁حرکات	-8129
▁حواری	-8130
▁درآمد	-8131
▁ساختہ	-8132
▁مشغول	-8133
▁مملکت	-8134
▁میٹنگ	-8135
▁نادان	-8136
▁کرایہ	-8137
▁ارتکاب	-8138
▁بربادی	-8139
▁فرائیڈ	-8140
▁چھلانگ	-8141
▁کسانوں	-8142
▁جہانگیر	-8143
▁چندرگپت	-8144
▁صلاحیتوں	-8145
▁ذوالقرنین	-8146
.3	-8147
.9	-8148
16	-8149
ئہ	-8150
طس	-8151
غت	-8152
use	-8153
بڑی	-8154
جرز	-8155
مبا	-8156
چرز	-8157
یام	-8158
▁72	-8159
▁بذ	-8160
▁ڈس	-8161
بلکہ	-8162
متوں	-8163
ھارت	-8164
▁sak	-8165
▁بلڈ	-8166
▁رتھ	-8167
▁روٹ	-8168
▁مام	-8169
▁محق	-8170
▁مرغ	-8171
▁نمی	-8172
▁پنس	-8173
▁پگھ	-8174
چاریہ	-8175
▁1966	-8176
▁جلتی	-8177
▁جھکا	-8178
▁عیال	-8179
▁فائز	-8180
▁ملوث	-8181
▁نقشہ	-8182
▁نیچی	-8183
▁ورثے	-8184
▁ٹومی	-8185
▁کتھک	-8186
▁گواه	-8187
▁اڈیشہ	-8188
▁بزرگی	-8189
▁خدایا	-8190
▁دلایا	-8191
▁سوامی	-8192
▁علیحد	-8193
▁مسابق	-8194
▁چاروں	-8195
▁کلکتہ	-8196
▁کھولے	-8197
▁گولڈن	-8198
▁اٹھانا	-8199
▁دعائیں	-8200
▁زاویئے	-8201
▁صدارتی	-8202
▁علامتی	-8203
▁مصنفین	-8204
▁میگزین	-8205
▁کنٹینر	-8206
▁استقبال	-8207
▁ریاستیں	-8208
▁سرفہرست	-8209
▁سنبھالا	-8210
▁عمارتیں	-8211
▁کمپلیکس	-8212
▁تابعداری	-8213
,9	-8214
،"	-8215
آر	-8216
حض	-8217
سس	-8218
han	-8219
حات	-8220
فال	-8221
فیع	-8222
قوں	-8223
ورے	-8224
وٹا	-8225
گیا	-8226
▁رُ	-8227
▁قح	-8228
▁ہڑ	-8229
abar	-8230
داوت	-8231
نامہ	-8232
وسٹس	-8233
کتوں	-8234
یہاں	-8235
▁جوز	-8236
▁دھن	-8237
▁دہر	-8238
▁فنا	-8239
▁لوہ	-8240
▁ماب	-8241
▁پڑو	-8242
فرعون	-8243
ینیشن	-8244
▁آجاؤ	-8245
▁بصری	-8246
▁تماش	-8247
▁جھاڑ	-8248
▁دادی	-8249
▁رگبی	-8250
▁زیکا	-8251
▁سرنگ	-8252
▁متاع	-8253
▁مکھی	-8254
▁نتیج	-8255
▁نیور	-8256
▁ویلز	-8257
▁پہنے	-8258
▁ڈرو۔	-8259
▁گرجا	-8260
00,000	-8261
▁آجانے	-8262
▁آہنگی	-8263
▁بنادی	-8264
▁خدشات	-8265
▁دفاتر	-8266
▁ساتھ۔	-8267
▁ضمانت	-8268
▁وسطیٰ	-8269
▁پڑھتا	-8270
▁پیروں	-8271
▁چارلس	-8272
▁احتیاط	-8273
▁اہلکار	-8274
▁ایڈورڈ	-8275
▁بلائیں	-8276
▁تخلیقی	-8277
▁جاہلوں	-8278
▁نیکیاں	-8279
▁اطلاعات	-8280
▁مخالفین	-8281
▁مسابقتی	-8282
▁برادریوں	-8283
▁ڈرائیونگ	-8284
▁ٹائیفائیڈ	-8285
یع	-8286
جنت	-8287
سنگ	-8288
شیم	-8289
▁37	-8290
▁39	-8291
▁تز	-8292
▁مٹ	-8293
حالی	-8294
وماً	-8295
ویشن	-8296
▁com	-8297
▁wor	-8298
▁رچر	-8299
▁عین	-8300
▁لنک	-8301
▁نوب	-8302
▁ویت	-8303
▁پرچ	-8304
▁ڈسپ	-8305
حقیقی	-8306
دیکھو	-8307
ورسکی	-8308
▁انکا	-8309
▁تراش	-8310
▁دھار	-8311
▁رائٹ	-8312
▁روتے	-8313
▁سچوں	-8314
▁مفصل	-8315
▁ٹھنڈ	-8316
▁چہرہ	-8317
▁اجنبی	-8318
▁بھٹکا	-8319
▁بیکار	-8320
▁تبصرے	-8321
▁راہیں	-8322
▁زلزلے	-8323
▁شرکاء	-8324
▁عمومی	-8325
▁فرینک	-8326
▁لمیٹڈ	-8327
▁مشتبہ	-8328
▁وسوسہ	-8329
▁پہننے	-8330
▁ڈومین	-8331
▁گزرتی	-8332
▁آٹھویں	-8333
▁دکانیں	-8334
▁شخصیات	-8335
▁نمودار	-8336
▁والیاں	-8337
▁پولینڈ	-8338
▁کامیڈی	-8339
▁کینٹکی	-8340
▁گروپوں	-8341
▁اینڈرسن	-8342
▁عیسائیت	-8343
▁کھجوروں	-8344
▁پروگرامنگ	-8345
18	-8346
گس	-8347
ans	-8348
ata	-8349
uch	-8350
جسٹ	-8351
روش	-8352
کیٹ	-8353
ہیر	-8354
▁74	-8355
▁خم	-8356
▁سع	-8357
▁لپ	-8358
ائنا	-8359
سمجھ	-8360
پرور	-8361
پیدا	-8362
▁Don	-8363
▁con	-8364
▁آؤں	-8365
▁ارب	-8366
▁اُگ	-8367
▁بوت	-8368
▁بٹا	-8369
▁حصص	-8370
▁شوز	-8371
▁طول	-8372
▁فتو	-8373
▁نگل	-8374
▁گیٹ	-8375
بھاجی	-8376
شیطان	-8377
▁1940	-8378
▁1962	-8379
▁1968	-8380
▁name	-8381
▁آرمی	-8382
▁امرا	-8383
▁تسلط	-8384
▁حائل	-8385
▁حسرت	-8386
▁حصّہ	-8387
▁دینی	-8388
▁روزے	-8389
▁سنجی	-8390
▁سنکر	-8391
▁عملہ	-8392
▁قائل	-8393
▁ناول	-8394
▁نرمی	-8395
▁وقوع	-8396
▁ٹینک	-8397
▁ڈویل	-8398
▁کوپن	-8399
▁کھلم	-8400
▁کیڑے	-8401
▁اسکین	-8402
▁بصارت	-8403
▁تشویش	-8404
▁خدائی	-8405
▁ستھری	-8406
▁فصلیں	-8407
▁متغیر	-8408
▁مثالی	-8409
▁مدینہ	-8410
▁مصالح	-8411
▁معقول	-8412
▁ٹھیرا	-8413
▁پڑھنا	-8414
▁چوتھا	-8415
▁کاپٹر	-8416
▁ہوتے۔	-8417
▁اتارنے	-8418
▁اسپتال	-8419
▁باورچی	-8420
▁خودکار	-8421
▁عموماً	-8422
▁کھیلتا	-8423
▁تعریفیں	-8424
▁سرنگیری	-8425
▁پھیلاتے	-8426
▁امریکیوں	-8427
▁سنبھالنے	-8428
.8	-8429
جل	-8430
مز	-8431
▁)	-8432
بند	-8433
خوں	-8434
سبز	-8435
شنر	-8436
منگ	-8437
ودہ	-8438
چری	-8439
▁34	-8440
▁We	-8441
▁al	-8442
▁ap	-8443
▁ph	-8444
ائلٹ	-8445
اہیم	-8446
کہیں	-8447
▁188	-8448
▁بخت	-8449
▁تما	-8450
▁جھا	-8451
▁حاج	-8452
▁دیپ	-8453
▁ساک	-8454
▁غسل	-8455
▁فیر	-8456
▁ویک	-8457
▁کاک	-8458
▁کڑک	-8459
▁گین	-8460
▁1930	-8461
▁1967	-8462
▁آگرہ	-8463
▁بھتی	-8464
▁جدھر	-8465
▁درگا	-8466
▁طلبہ	-8467
▁فارس	-8468
▁فرام	-8469
▁فرسٹ	-8470
▁متحد	-8471
▁مفاد	-8472
▁ملحق	-8473
▁پریز	-8474
▁ڈربی	-8475
تمہاری	-8476
▁اسکاٹ	-8477
▁بدولت	-8478
▁توہین	-8479
▁سڑکیں	-8480
▁طلائی	-8481
▁لاپتہ	-8482
▁لکھیں	-8483
▁لیجئے	-8484
▁مائیں	-8485
▁مدافع	-8486
▁مذکور	-8487
▁نکالی	-8488
▁پونگل	-8489
▁ہنستے	-8490
▁ہٹانے	-8491
▁آپہنچا	-8492
▁انڈمان	-8493
▁ایرانی	-8494
▁بائیوٹ	-8495
▁بزرگوں	-8496
▁بڑھاپے	-8497
▁جہازوں	-8498
▁خوبیاں	-8499
▁خوشحال	-8500
▁مجرمین	-8501
▁تدبیریں	-8502
▁ہائیڈرو	-8503
▁ایمرجنسی	-8504
▁مارکیٹنگ	-8505
▁کمپیوٹرز	-8506
eh	-8507
oe	-8508
ya	-8509
َر	-8510
ّن	-8511
▁/	-8512
ahi	-8513
ath	-8514
ood	-8515
خوب	-8516
سٹا	-8517
مام	-8518
وید	-8519
▁كر	-8520
ahan	-8521
ائڈز	-8522
وقوف	-8523
ٹیشن	-8524
یتون	-8525
▁انض	-8526
▁جئے	-8527
▁لوح	-8528
▁نیت	-8529
▁ولا	-8530
▁ویٹ	-8531
▁پام	-8532
▁پیج	-8533
کنساس	-8534
▁1920	-8535
▁from	-8536
▁استو	-8537
▁بریک	-8538
▁بھرت	-8539
▁بیری	-8540
▁تھری	-8541
▁تہمت	-8542
▁جانش	-8543
▁جوتے	-8544
▁جھار	-8545
▁دستی	-8546
▁روٹی	-8547
▁سپرد	-8548
▁شپنگ	-8549
▁شہید	-8550
▁صحرا	-8551
▁علمی	-8552
▁قیدی	-8553
▁لگاؤ	-8554
▁لیون	-8555
▁چنڈی	-8556
▁چڑھے	-8557
▁ڈیول	-8558
▁ہمدر	-8559
اچوسٹس	-8560
▁الجھن	-8561
▁امتیا	-8562
▁بچھڑے	-8563
▁جنگوں	-8564
▁دیتا۔	-8565
▁زنجیر	-8566
▁سکھوں	-8567
▁عقائد	-8568
▁فارمو	-8569
▁لوٹنا	-8570
▁ملایا	-8571
▁موریہ	-8572
▁مہینہ	-8573
▁مینڈک	-8574
▁پڑھیں	-8575
▁چھوڑو	-8576
▁کفاّر	-8577
▁کمپوز	-8578
▁ہیکٹر	-8579
▁10,000	-8580
▁آلودگی	-8581
▁استعفی	-8582
▁روزمرہ	-8583
▁غلطیوں	-8584
▁مزدوری	-8585
▁پنالٹی	-8586
▁کیلئے۔	-8587
▁جارحانہ	-8588
▁حیوانات	-8589
▁ملبوسات	-8590
▁پیروکار	-8591
▁اہلکاروں	-8592
▁راہنمائی	-8593
▁میساچوسٹس	-8594
15	-8595
بچ	-8596
ہہ	-8597
اسا	-8598
لرُ	-8599
لیٰ	-8600
وطہ	-8601
چیز	-8602
ڑنے	-8603
گون	-8604
hing	-8605
یادہ	-8606
▁اچک	-8607
▁اڈو	-8608
▁بچی	-8609
▁دفن	-8610
▁سبک	-8611
▁صدم	-8612
▁عرف	-8613
▁لنگ	-8614
▁موج	-8615
▁ٹھا	-8616
▁پلک	-8617
▁گوو	-8618
▁1965	-8619
▁آباؤ	-8620
▁آگاه	-8621
▁اتری	-8622
▁ادبی	-8623
▁بانٹ	-8624
▁تکیے	-8625
▁رفیع	-8626
▁قاصر	-8627
▁مراق	-8628
▁مطیع	-8629
▁وعید	-8630
▁کروا	-8631
▁گدھے	-8632
▁گرتا	-8633
ٹینمنٹ	-8634
▁اعصاب	-8635
▁اٹلان	-8636
▁جوہری	-8637
▁رسیاں	-8638
▁عداوت	-8639
▁نبیوں	-8640
▁پاؤنڈ	-8641
▁اسکواش	-8642
▁بیٹھیں	-8643
▁دوباره	-8644
▁فتوحات	-8645
▁ناامید	-8646
▁کیجئے۔	-8647
▁گزارنے	-8648
▁گھٹنوں	-8649
پروردگار	-8650
▁فرائیڈے	-8651
▁پھیلائے	-8652
▁لائبریری	-8653
▁ایمانداروں	-8654
.7	-8655
▁i	-8656
ail	-8657
alk	-8658
min	-8659
صرف	-8660
فیف	-8661
ومر	-8662
▁(3	-8663
▁48	-8664
▁̧"	-8665
▁آڑ	-8666
ودھی	-8667
وریا	-8668
▁ابر	-8669
▁صند	-8670
▁نشہ	-8671
▁ورڈ	-8672
▁ٹیٹ	-8673
▁پرن	-8674
▁کٹی	-8675
▁ہرن	-8676
ائرین	-8677
اندگی	-8678
▁1957	-8679
▁الفا	-8680
▁بستر	-8681
▁بستہ	-8682
▁رسوخ	-8683
▁رہنم	-8684
▁ستیہ	-8685
▁سوان	-8686
▁سوجھ	-8687
▁سینڈ	-8688
▁عادت	-8689
▁لائٹ	-8690
▁مؤخر	-8691
▁مایا	-8692
▁مخلص	-8693
▁مٹھی	-8694
▁میتی	-8695
▁پترا	-8696
▁چٹیل	-8697
▁کدھر	-8698
▁کنون	-8699
▁کینو	-8700
▁اترتے	-8701
▁اکھاڑ	-8702
▁بکثرت	-8703
▁بھرتی	-8704
▁ثانوی	-8705
▁دسویں	-8706
▁دولہا	-8707
▁رکنیت	-8708
▁ریٹنگ	-8709
▁فرینڈ	-8710
▁مخلوط	-8711
▁میٹھا	-8712
▁پروان	-8713
▁کماتے	-8714
▁کمانے	-8715
▁ہینڈل	-8716
▁بھیجیں	-8717
▁بیانات	-8718
▁ترجمان	-8719
▁تعینات	-8720
▁خوشنما	-8721
▁راجندر	-8722
▁فرمادو	-8723
▁مہاویر	-8724
▁نصاریٰ	-8725
▁چھٹیوں	-8726
▁خواندگی	-8727
▁سیکورٹی	-8728
▁مدافعتی	-8729
▁پھیلایا	-8730
▁فرانسسکو	-8731
▁ملائیشیا	-8732
▁مہابھارت	-8733
مخ	-8734
وگ	-8735
oss	-8736
لٹی	-8737
پنگ	-8738
یتھ	-8739
▁65	-8740
▁بق	-8741
▁نه	-8742
ابری	-8743
دامت	-8744
لوگو	-8745
وعات	-8746
گزار	-8747
▁all	-8748
▁ادے	-8749
▁ازد	-8750
▁اوم	-8751
▁جھی	-8752
▁حرم	-8753
▁حشر	-8754
▁خیم	-8755
▁سدھ	-8756
▁سُن	-8757
▁شہد	-8758
▁طمع	-8759
▁فرع	-8760
▁لرز	-8761
▁پُل	-8762
▁ڈان	-8763
▁ہیک	-8764
▁1949	-8765
▁them	-8766
▁آپکے	-8767
▁الاب	-8768
▁دعوے	-8769
▁رپور	-8770
▁شعبہ	-8771
▁شکنی	-8772
▁غلاف	-8773
▁نچلی	-8774
▁کلین	-8775
▁گھسی	-8776
▁گینگ	-8777
▁about	-8778
▁برائن	-8779
▁بچھڑا	-8780
▁بیٹری	-8781
▁جاتا۔	-8782
▁دوڑنے	-8783
▁سپورٹ	-8784
▁سیراب	-8785
▁لگاتا	-8786
▁نحوست	-8787
▁چھاتی	-8788
▁ڈوبنے	-8789
▁کنسرٹ	-8790
▁کہاوت	-8791
▁گھٹنے	-8792
▁الواقع	-8793
▁جاؤگے۔	-8794
▁رضاکار	-8795
▁مثالوں	-8796
▁محققین	-8797
▁ٹانگوں	-8798
▁چوپائے	-8799
▁ڈراموں	-8800
▁کھیلنا	-8801
▁ہنگامہ	-8802
▁اجتماعی	-8803
▁جھٹلائے	-8804
▁علیحدگی	-8805
▁متاثرین	-8806
▁پیدائشی	-8807
▁کھجوریں	-8808
▁ڈیموکریٹک	-8809
▁ڈیپارٹمنٹ	-8810
!"	-8811
-3	-8812
14	-8813
نع	-8814
ice	-8815
شکل	-8816
طنی	-8817
فیل	-8818
لوگ	-8819
نتھ	-8820
نگر	-8821
ڈرڈ	-8822
▁په	-8823
ائیر	-8824
ادھا	-8825
لیشن	-8826
میرا	-8827
یتھی	-8828
▁شیک	-8829
▁صنف	-8830
▁فام	-8831
▁قات	-8832
▁ٹائ	-8833
▁پائ	-8834
▁پیڑ	-8835
▁ہنر	-8836
انیوں	-8837
ٹسبرگ	-8838
▁1961	-8839
▁بخود	-8840
▁بہرہ	-8841
▁خبری	-8842
▁مزاج	-8843
▁میگا	-8844
▁کوتا	-8845
▁گراں	-8846
▁گریگ	-8847
▁گھبر	-8848
▁اللرُ	-8849
▁انسٹا	-8850
▁بائبل	-8851
▁تشہیر	-8852
▁تعلقہ	-8853
▁راگوں	-8854
▁سرطان	-8855
▁سوچنا	-8856
▁سہارا	-8857
▁قرضوں	-8858
▁مانگی	-8859
▁مورتی	-8860
▁ٹرمین	-8861
▁پھرنے	-8862
▁پینگو	-8863
▁ہیلتھ	-8864
▁اتارنا	-8865
▁الیکشن	-8866
▁بالغوں	-8867
▁دکانوں	-8868
▁رکھتے۔	-8869
▁مجموعے	-8870
▁ناظرین	-8871
▁پیمانہ	-8872
▁کنونشن	-8873
▁جنگجوؤں	-8874
▁رضامندی	-8875
▁رہنماؤں	-8876
▁ناورسکی	-8877
▁ہاتھیوں	-8878
▁ایگزیکٹو	-8879
▁جھارکھنڈ	-8880
▁کمپوزیشن	-8881
▁پیروکاروں	-8882
▁انٹرٹینمنٹ	-8883
iv	-8884
يس	-8885
َن	-8886
all	-8887
oun	-8888
روز	-8889
قسم	-8890
▁سس	-8891
▁چڑ	-8892
ظمین	-8893
لائے	-8894
نیما	-8895
وارہ	-8896
ہمیں	-8897
▁184	-8898
▁out	-8899
▁تند	-8900
▁حرف	-8901
▁حسب	-8902
▁سلا	-8903
▁سنے	-8904
▁عبد	-8905
▁قحط	-8906
▁لطی	-8907
▁لپٹ	-8908
▁مما	-8909
▁وکی	-8910
▁پوپ	-8911
▁کےل	-8912
▁ہوۓ	-8913
▁یحی	-8914
گاہوں	-8915
▁آمنے	-8916
▁آمیز	-8917
▁انکی	-8918
▁باعز	-8919
▁بندش	-8920
▁جملہ	-8921
▁جولی	-8922
▁سفیر	-8923
▁سیشن	-8924
▁فضول	-8925
▁قمری	-8926
▁لاحق	-8927
▁لوطؑ	-8928
▁لٹکا	-8929
▁لڑیں	-8930
▁موری	-8931
▁مہاک	-8932
▁پتلی	-8933
▁پرچم	-8934
▁انفلو	-8935
▁تھیلی	-8936
▁رسولؐ	-8937
▁رعایت	-8938
▁سوچتا	-8939
▁سٹیٹس	-8940
▁سیکشن	-8941
▁مانیک	-8942
▁متعدی	-8943
▁مردود	-8944
▁منتشر	-8945
▁مکالم	-8946
▁ٹھنڈک	-8947
▁پجاری	-8948
▁پرائی	-8949
▁پکانے	-8950
▁ڈھانک	-8951
▁کارڈز	-8952
▁یاترا	-8953
▁آزمایا	-8954
▁آکسیجن	-8955
▁خریدنا	-8956
▁پنچایت	-8957
▁چھوڑنا	-8958
▁جھگڑالو	-8959
▁سوسائٹی	-8960
▁ناپسندی	-8961
▁موسیقاروں	-8962
یئ	-8963
com	-8964
ئرز	-8965
تری	-8966
دیر	-8967
لوہ	-8968
نجی	-8969
نیف	-8970
▁56	-8971
▁88	-8972
▁fu	-8973
ابار	-8974
اخذہ	-8975
حضرت	-8976
وانی	-8977
وبار	-8978
ینگے	-8979
▁120	-8980
▁طال	-8981
▁پلس	-8982
▁کرر	-8983
▁کود	-8984
ction	-8985
انداز	-8986
مختلف	-8987
▁الٹا	-8988
▁ایکڑ	-8989
▁برسا	-8990
▁بلیو	-8991
▁راگم	-8992
▁سڈنی	-8993
▁سیال	-8994
▁شہرت	-8995
▁عزّت	-8996
▁فدیہ	-8997
▁لالچ	-8998
▁لیٹر	-8999
▁مادے	-9000
▁مماث	-9001
▁نیلے	-9002
▁پناه	-9003
▁پھوٹ	-9004
▁ہمال	-9005
▁اوربے	-9006
▁تاریک	-9007
▁تعارف	-9008
▁جوڑوں	-9009
▁دلاتا	-9010
▁ذیابی	-9011
▁زرخیز	-9012
▁زیتون	-9013
▁ستھرا	-9014
▁نکلنا	-9015
▁نگراں	-9016
▁ٹکڑوں	-9017
▁پلانے	-9018
▁چھپاؤ	-9019
▁کلمات	-9020
▁گزارے	-9021
ابراہیم	-9022
▁انبیاء	-9023
▁اوسطاً	-9024
▁جھگڑنے	-9025
▁شہزادی	-9026
▁کھانوں	-9027
▁آرکنساس	-9028
▁الاباما	-9029
▁اندھیرا	-9030
▁بالیقین	-9031
▁برادران	-9032
▁دیہاتوں	-9033
▁پُلکیشن	-9034
▁کولائٹس	-9035
▁ارجنٹائن	-9036
▁اصطلاحات	-9037
▁سائنسدانوں	-9038
73	-9039
pl	-9040
کب	-9041
▁ژ	-9042
ase	-9043
بڑے	-9044
ثیم	-9045
حاب	-9046
ریو	-9047
نیٹ	-9048
وئی	-9049
کہا	-9050
ہدا	-9051
▁na	-9052
▁فا	-9053
▁نغ	-9054
اتری	-9055
اریل	-9056
ڈیسی	-9057
▁num	-9058
▁الج	-9059
▁اوب	-9060
▁جھڑ	-9061
▁دبے	-9062
▁فوڈ	-9063
▁لاک	-9064
▁لقب	-9065
▁لیو	-9066
▁لیٹ	-9067
▁مرچ	-9068
▁ہین	-9069
▁1952	-9070
▁1958	-9071
▁ازاں	-9072
▁جنون	-9073
▁حاجت	-9074
▁سکھا	-9075
▁سیمی	-9076
▁شارٹ	-9077
▁فاؤل	-9078
▁مسکن	-9079
▁ویسی	-9080
▁پالا	-9081
▁پریا	-9082
▁چھٹک	-9083
▁کشور	-9084
▁کیلی	-9085
▁ہانک	-9086
▁اسٹیل	-9087
▁اطلاق	-9088
▁الذکر	-9089
▁انگلی	-9090
▁تمسخر	-9091
▁تنبیہ	-9092
▁تہائی	-9093
▁خوشبو	-9094
▁روحیں	-9095
▁روکتا	-9096
▁روکنا	-9097
▁زلزلہ	-9098
▁سپریم	-9099
▁صندوق	-9100
▁قافلہ	-9101
▁منحوس	-9102
▁میڈرڈ	-9103
▁نابود	-9104
▁ڈرانا	-9105
▁کسٹمر	-9106
▁گزارا	-9107
▁بالائی	-9108
▁برساتا	-9109
▁بھیڑیا	-9110
▁جراثیم	-9111
▁جمعرات	-9112
▁دھماکہ	-9113
▁زائرین	-9114
▁سیلسیس	-9115
▁فراموش	-9116
▁ویسٹرن	-9117
▁پتنگوں	-9118
▁کوتاہی	-9119
▁کولکتہ	-9120
▁کھدائی	-9121
▁barabar	-9122
▁اوہائیو	-9123
▁ساتواہن	-9124
▁نگہداشت	-9125
▁پرائمری	-9126
▁گریجویشن	-9127
▁گنہگاروں	-9128
.0	-9129
12	-9130
وڑ	-9131
باہ	-9132
زیب	-9133
نٹس	-9134
کھن	-9135
▁(4	-9136
▁ba	-9137
▁°،	-9138
▁دي	-9139
▁ٹپ	-9140
ئنزا	-9141
ائنگ	-9142
ابھی	-9143
اتھن	-9144
سوتی	-9145
سکین	-9146
یافت	-9147
▁men	-9148
▁اذن	-9149
▁تبت	-9150
▁دیہ	-9151
▁شرط	-9152
▁ممن	-9153
▁ٹوی	-9154
▁پلو	-9155
▁پہل	-9156
▁اردو	-9157
▁امام	-9158
▁دھند	-9159
▁رونی	-9160
▁ریسی	-9161
▁شمسی	-9162
▁فطرت	-9163
▁فنڈز	-9164
▁مشرو	-9165
▁مطلق	-9166
▁موہن	-9167
▁وہیل	-9168
▁پیکی	-9169
▁کرسٹ	-9170
▁کیبل	-9171
لوانیا	-9172
▁بیچنے	-9173
▁تالاب	-9174
▁تعامل	-9175
▁تعمیل	-9176
▁تھامے	-9177
▁طیارے	-9178
▁مطالب	-9179
▁وائلڈ	-9180
▁ٹیکسی	-9181
▁چالوں	-9182
▁ڈالنا	-9183
▁کلبوں	-9184
▁آزمائے	-9185
▁دانتوں	-9186
▁ستونوں	-9187
▁مراقبہ	-9188
▁نمونوں	-9189
▁ہوجانے	-9190
▁آزادانہ	-9191
▁اسٹوڈیو	-9192
▁ایتھلیٹ	-9193
▁بازاروں	-9194
▁ذیابیطس	-9195
▁سمبھاجی	-9196
▁منتظمین	-9197
▁کھیتیاں	-9198
▁سیکیورٹی	-9199
▁عیسائیوں	-9200
▁انفلوئنزا	-9201
▁پنسلوانیا	-9202
ec	-9203
عز	-9204
يق	-9205
ave	-9206
end	-9207
per	-9208
شاہ	-9209
شدد	-9210
شیر	-9211
فرق	-9212
ٹیک	-9213
ڈرز	-9214
▁mu	-9215
▁طع	-9216
انوس	-9217
باکو	-9218
رائے	-9219
سائی	-9220
فتوں	-9221
مقرر	-9222
ونیو	-9223
▁hey	-9224
▁آقا	-9225
▁آڈی	-9226
▁ایز	-9227
▁بھڑ	-9228
▁بہا	-9229
▁جمے	-9230
▁رشی	-9231
▁زنگ	-9232
▁سحر	-9233
▁سعی	-9234
▁شوق	-9235
▁فلک	-9236
▁نائ	-9237
▁نرے	-9238
▁ڈائ	-9239
▁ہنو	-9240
ہمیشہ	-9241
▁1945	-9242
▁1955	-9243
▁1963	-9244
▁آدھا	-9245
▁اسلح	-9246
▁براؤ	-9247
▁تقاض	-9248
▁تینڈ	-9249
▁جینا	-9250
▁حلقہ	-9251
▁دانہ	-9252
▁سودے	-9253
▁فورڈ	-9254
▁فیشن	-9255
▁قربت	-9256
▁متفق	-9257
▁مندی	-9258
▁میسر	-9259
▁ٹریل	-9260
▁پرتا	-9261
▁پرلے	-9262
▁پریم	-9263
▁پینا	-9264
▁چورا	-9265
▁ڈریں	-9266
▁کبیر	-9267
▁کتھا	-9268
▁کیلے	-9269
آسمانی	-9270
▁right	-9271
▁الیگز	-9272
▁امراض	-9273
▁انگلش	-9274
▁ایمیز	-9275
▁برطرف	-9276
▁دوہرا	-9277
▁لہروں	-9278
▁کمشنر	-9279
▁کنڈوم	-9280
▁کٹائی	-9281
▁ہوسکے	-9282
▁اتارتے	-9283
▁تاجروں	-9284
▁خوشیاں	-9285
▁موافقت	-9286
▁مونہوں	-9287
▁پلاسٹک	-9288
▁پھینکا	-9289
▁پہنچے۔	-9290
▁ہارمون	-9291
▁ہالینڈ	-9292
▁جھٹلاتا	-9293
▁مواصلات	-9294
▁موضوعات	-9295
▁پائیدار	-9296
▁چھٹکارا	-9297
▁تینڈولکر	-9298
,8	-9299
ib	-9300
ym	-9301
بک	-9302
دع	-9303
ذب	-9304
▁·	-9305
بعض	-9306
ریے	-9307
سال	-9308
نور	-9309
نیٰ	-9310
واٹ	-9311
ولس	-9312
ياں	-9313
گڑھ	-9314
▁55	-9315
▁نز	-9316
▁ني	-9317
▁پد	-9318
▁پگ	-9319
here	-9320
اتھا	-9321
ادگی	-9322
دادی	-9323
پولی	-9324
چینج	-9325
▁انی	-9326
▁جبر	-9327
▁جذب	-9328
▁جڑا	-9329
▁سیب	-9330
▁عزم	-9331
▁مکی	-9332
▁پات	-9333
▁پاٹ	-9334
▁پشی	-9335
▁پلم	-9336
▁کمل	-9337
▁کو۔	-9338
▁گٹھ	-9339
رافیہ	-9340
▁1946	-9341
▁1954	-9342
▁they	-9343
▁حرمت	-9344
▁ستون	-9345
▁سونی	-9346
▁سیٹل	-9347
▁شامت	-9348
▁عصمت	-9349
▁علیم	-9350
▁فارن	-9351
▁فاکس	-9352
▁ماؤں	-9353
▁ویلی	-9354
▁پرسش	-9355
▁پوتے	-9356
▁ڈھول	-9357
▁کالم	-9358
▁ہانگ	-9359
▁یکتا	-9360
فرشتوں	-9361
▁آجاتا	-9362
▁اکارت	-9363
▁بجانے	-9364
▁بدلتا	-9365
▁عمران	-9366
▁فرماں	-9367
▁مشترک	-9368
▁پریشر	-9369
▁چالیں	-9370
▁کارتک	-9371
▁کنویں	-9372
▁انسٹال	-9373
▁بارشوں	-9374
▁باغیوں	-9375
▁صنعتوں	-9376
▁گرمیوں	-9377
▁گھاٹوں	-9378
▁انعامات	-9379
▁دوزخیوں	-9380
▁سیکرٹری	-9381
▁مالابار	-9382
▁میدانوں	-9383
▁پورنیما	-9384
▁یونیسکو	-9385
▁اپارٹمنٹ	-9386
▁دستاویزی	-9387
▁سائیکلنگ	-9388
")	-9389
17	-9390
جم	-9391
اسم	-9392
صیب	-9393
ضان	-9394
طوب	-9395
طوں	-9396
مبل	-9397
ننگ	-9398
پاٹ	-9399
پیش	-9400
▁br	-9401
▁jo	-9402
,500	-9403
ائنز	-9404
جائے	-9405
وسکر	-9406
کرین	-9407
▁mar	-9408
▁امپ	-9409
▁تیم	-9410
▁جاۓ	-9411
▁شیخ	-9412
▁مفِ	-9413
▁میا	-9414
▁میگ	-9415
اریوں	-9416
▁ارجن	-9417
▁بنیں	-9418
▁تفوی	-9419
▁جاکر	-9420
▁خدشہ	-9421
▁دُوس	-9422
▁رائی	-9423
▁سننا	-9424
▁سوتی	-9425
▁سویڈ	-9426
▁سٹار	-9427
▁شعلہ	-9428
▁ماخذ	-9429
▁مستث	-9430
▁نامۂ	-9431
▁چارپ	-9432
▁ڈیٹر	-9433
▁کونچ	-9434
▁کھال	-9435
▁گریٹ	-9436
▁گوتم	-9437
▁یوٹی	-9438
▁اٹھنا	-9439
▁بچایا	-9440
▁تمھیں	-9441
▁جبریل	-9442
▁جڑواں	-9443
▁دلائل	-9444
▁روبوٹ	-9445
▁لمحات	-9446
▁مانگے	-9447
▁نظروں	-9448
▁نکاسی	-9449
▁پالتو	-9450
▁پکڑیں	-9451
▁پیسوں	-9452
▁ڈسپلے	-9453
▁گھاٹی	-9454
▁یونان	-9455
▁number	-9456
▁تمباکو	-9457
▁تنقیدی	-9458
▁جاسکتی	-9459
▁دوائیں	-9460
▁عدالتی	-9461
▁فلپائن	-9462
▁وادیوں	-9463
▁ٹریڈمل	-9464
▁ٹورنٹو	-9465
▁ایمیزون	-9466
▁نوراتری	-9467
▁پڈوچیری	-9468
▁چالوکیہ	-9469
▁اورنگزیب	-9470
▁ہمالیائی	-9471
▁نمائندگان	-9472
وه	-9473
ًا	-9474
lem	-9475
اتو	-9476
انز	-9477
ریڈ	-9478
نوح	-9479
چند	-9480
چھی	-9481
کرز	-9482
▁43	-9483
▁up	-9484
▁ذل	-9485
▁رِ	-9486
▁کج	-9487
▁ہہ	-9488
ائنہ	-9489
بیاں	-9490
جمنٹ	-9491
جہاد	-9492
دیکھ	-9493
ریعہ	-9494
ویلی	-9495
گراف	-9496
یکٹس	-9497
▁Con	-9498
▁get	-9499
▁انا	-9500
▁بسر	-9501
▁بگڑ	-9502
▁چنا	-9503
▁کاب	-9504
▁کر۔	-9505
▁کلپ	-9506
الیار	-9507
ہدایت	-9508
▁برلن	-9509
▁برون	-9510
▁رائج	-9511
▁ریڈی	-9512
▁غبار	-9513
▁ورما	-9514
▁پارہ	-9515
▁چولا	-9516
▁کئے۔	-9517
▁گندے	-9518
▁گوری	-9519
▁اترنے	-9520
▁اصحاب	-9521
▁بحریہ	-9522
▁بناوٹ	-9523
▁تخفیف	-9524
▁تفویض	-9525
▁تقریر	-9526
▁رادھا	-9527
▁سروسز	-9528
▁سعودی	-9529
▁سنچری	-9530
▁علماء	-9531
▁لوٹنے	-9532
▁مارٹن	-9533
▁ناریل	-9534
▁پہلوں	-9535
▁کمائے	-9536
▁کیفیت	-9537
▁ایونٹس	-9538
▁بالاجی	-9539
▁برداری	-9540
▁دیہاتی	-9541
▁سپلائی	-9542
▁شائقین	-9543
▁قَسمیں	-9544
▁معجزات	-9545
▁ناشکرے	-9546
▁وائیرڈ	-9547
▁پھٹکار	-9548
▁ڈرائیو	-9549
▁حواریوں	-9550
▁رومانوی	-9551
▁لڑائیوں	-9552
▁مضافاتی	-9553
▁سنکرانتی	-9554
▁ہندوستانیوں	-9555
de	-9556
ue	-9557
،.	-9558
ثہ	-9559
حم	-9560
ہخ	-9561
▁ى	-9562
الڈ	-9563
باز	-9564
بّر	-9565
روپ	-9566
نیہ	-9567
پنے	-9568
کمل	-9569
کھے	-9570
▁84	-9571
▁Do	-9572
oeun	-9573
استر	-9574
مقاب	-9575
وہاں	-9576
▁250	-9577
▁باؤ	-9578
▁بیا	-9579
▁جلے	-9580
▁سیف	-9581
▁لیس	-9582
▁ناچ	-9583
▁نکی	-9584
▁نہر	-9585
▁چھڑ	-9586
▁ہلز	-9587
ہوریت	-9588
▁آتشِ	-9589
▁بروس	-9590
▁تاثر	-9591
▁خنجر	-9592
▁دانت	-9593
▁دلکش	-9594
▁ذلّت	-9595
▁زیور	-9596
▁سندر	-9597
▁سینا	-9598
▁سیپک	-9599
▁شاہد	-9600
▁شرائ	-9601
▁فرنی	-9602
▁قاتل	-9603
▁لادن	-9604
▁لکھن	-9605
▁لیبر	-9606
▁میزو	-9607
▁نیلی	-9608
▁چارہ	-9609
▁1,000	-9610
▁Boeun	-9611
▁اسمتھ	-9612
▁بوسٹن	-9613
▁بوڑھا	-9614
▁بہروں	-9615
▁جوابی	-9616
▁دوڑتا	-9617
▁رجمنٹ	-9618
▁سفارت	-9619
▁سمجھی	-9620
▁غلامی	-9621
▁مابین	-9622
▁پروفی	-9623
▁پلایا	-9624
▁پڑتال	-9625
▁گھبرا	-9626
▁بھاگتے	-9627
▁بھوپال	-9628
▁داروغہ	-9629
▁عقلمند	-9630
▁قیمتیں	-9631
▁نظاموں	-9632
▁نیپالی	-9633
▁وفادار	-9634
▁چکھاتے	-9635
▁آزمائیں	-9636
▁امانتوں	-9637
▁جمہوریت	-9638
▁دوستانہ	-9639
▁نامزدگی	-9640
▁پہنچائی	-9641
▁تیرتھنکر	-9642
▁جھٹلایا۔	-9643
▁ریکارڈنگ	-9644
▁الیکٹرانک	-9645
26	-9646
77	-9647
عد	-9648
یٰ	-9649
ers	-9650
ime	-9651
ook	-9652
own	-9653
ایل	-9654
زنی	-9655
طین	-9656
ولن	-9657
پرز	-9658
ہے۔	-9659
▁46	-9660
▁pa	-9661
▁ئي	-9662
▁يه	-9663
▁گئ	-9664
▁(20	-9665
▁Let	-9666
▁mon	-9667
▁جلن	-9668
▁حجم	-9669
▁سگن	-9670
▁قطر	-9671
▁لچک	-9672
▁کا۔	-9673
▁کِک	-9674
▁گرج	-9675
▁ہسٹ	-9676
▁ہمس	-9677
ائیکر	-9678
سلونا	-9679
▁آئيں	-9680
▁اداس	-9681
▁اضطر	-9682
▁بیسن	-9683
▁جعلی	-9684
▁جوئی	-9685
▁دھول	-9686
▁سورس	-9687
▁سیتا	-9688
▁محرک	-9689
▁مقدر	-9690
▁ملاح	-9691
▁موٹا	-9692
▁ورمن	-9693
▁وقتی	-9694
▁ٹرسٹ	-9695
▁پوجو	-9696
▁پھسل	-9697
▁کھنہ	-9698
▁گٹار	-9699
▁ہالی	-9700
▁ہیبت	-9701
▁there	-9702
▁احوال	-9703
▁ادوار	-9704
▁الخلا	-9705
▁بدلتے	-9706
▁بنالی	-9707
▁بھرنے	-9708
▁ترسیل	-9709
▁جاسوس	-9710
▁داخلی	-9711
▁رابرٹ	-9712
▁شاخیں	-9713
▁شرائط	-9714
▁فرستا	-9715
▁محمود	-9716
▁نوعمر	-9717
▁وائرل	-9718
▁ٹیٹنس	-9719
▁پنڈلی	-9720
▁پیارے	-9721
▁پیشگی	-9722
▁کمانڈ	-9723
▁گلابی	-9724
▁افتراء	-9725
▁اندھوں	-9726
▁انضمام	-9727
▁انگیزی	-9728
▁برفانی	-9729
▁تغیرات	-9730
▁خیراتی	-9731
▁سینیٹر	-9732
▁مالکان	-9733
▁معائنہ	-9734
▁مورخین	-9735
▁نکالنا	-9736
▁پہنچنا	-9737
▁چوڑائی	-9738
▁ہنومان	-9739
▁انتخابی	-9740
▁انڈیانا	-9741
▁انگوروں	-9742
▁حکومتوں	-9743
▁مہاراجہ	-9744
▁ڈیٹرائٹ	-9745
▁بارسلونا	-9746
ne	-9747
ایے	-9748
برن	-9749
جیا	-9750
قاہ	-9751
مید	-9752
وفی	-9753
گھر	-9754
ھیا	-9755
▁(6	-9756
▁53	-9757
▁58	-9758
▁68	-9759
▁فز	-9760
▁مِ	-9761
▁هو	-9762
▁گذ	-9763
ound	-9764
ائیل	-9765
جائز	-9766
سلین	-9767
وریج	-9768
پوزا	-9769
یکسن	-9770
▁بھل	-9771
▁ستا	-9772
▁سجا	-9773
▁عسک	-9774
▁قصے	-9775
▁نال	-9776
▁پہر	-9777
▁کِھ	-9778
انہوں	-9779
ھارٹی	-9780
▁آٹزم	-9781
▁ایمب	-9782
▁ایوب	-9783
▁بابت	-9784
▁برما	-9785
▁بسنے	-9786
▁بولو	-9787
▁بیسٹ	-9788
▁بینا	-9789
▁تھکا	-9790
▁جامع	-9791
▁جھنڈ	-9792
▁خلیے	-9793
▁خوبی	-9794
▁سکور	-9795
▁ضلعے	-9796
▁فیکٹ	-9797
▁قبلہ	-9798
▁نقاب	-9799
▁وقفہ	-9800
▁پرسن	-9801
▁کنفی	-9802
▁گندم	-9803
▁ہارر	-9804
ینیواس	-9805
▁انجمن	-9806
▁بنادے	-9807
▁تاروں	-9808
▁جراحی	-9809
▁حقائق	-9810
▁دہانی	-9811
▁سامری	-9812
▁سوائن	-9813
▁شوقیہ	-9814
▁فیملی	-9815
▁لائے۔	-9816
▁متنفس	-9817
▁مقدور	-9818
▁ملتوی	-9819
▁میٹھے	-9820
▁کردیے	-9821
▁کلیئر	-9822
▁کیمرے	-9823
▁کےلیے	-9824
▁گائیڈ	-9825
نافرمان	-9826
▁اعتدال	-9827
▁اچھائی	-9828
▁دانستہ	-9829
▁سائبان	-9830
▁سواروں	-9831
▁ٹریننگ	-9832
▁پرفارم	-9833
▁پلٹائے	-9834
▁پٹسبرگ	-9835
▁پھیلنے	-9836
▁پھینکے	-9837
▁چھوڑیں	-9838
▁اتھارٹی	-9839
▁تابکاری	-9840
▁تحریروں	-9841
▁تنظیمیں	-9842
▁وکٹوریہ	-9843
▁گوالیار	-9844
▁سرینیواس	-9845
▁پالیسیوں	-9846
▁الیگزینڈر	-9847
شم	-9848
way	-9849
الٹ	-9850
داس	-9851
شمن	-9852
ضاد	-9853
طرح	-9854
مات	-9855
نگن	-9856
یاء	-9857
▁86	-9858
▁No	-9859
▁ar	-9860
▁مي	-9861
خانہ	-9862
ولیت	-9863
ونٹی	-9864
گروں	-9865
یالی	-9866
▁183	-9867
▁3.5	-9868
▁now	-9869
▁too	-9870
▁آرا	-9871
▁بدع	-9872
▁ترس	-9873
▁تنے	-9874
▁ربّ	-9875
▁وول	-9876
▁کاس	-9877
▁گڑگ	-9878
مقابل	-9879
گاروں	-9880
▁agar	-9881
▁come	-9882
▁happ	-9883
▁prob	-9884
▁آرگن	-9885
▁امّت	-9886
▁بران	-9887
▁بوتل	-9888
▁بینی	-9889
▁تبتی	-9890
▁حاوی	-9891
▁حلقے	-9892
▁روپی	-9893
▁رچرڈ	-9894
▁زبور	-9895
▁ضمنی	-9896
▁فراخ	-9897
▁فرنچ	-9898
▁فیچر	-9899
▁لانگ	-9900
▁لگی۔	-9901
▁مردے	-9902
▁موڑے	-9903
▁نامے	-9904
▁پارش	-9905
▁پیلی	-9906
▁چربی	-9907
▁کالے	-9908
▁کورف	-9909
▁گھات	-9910
▁ہاں۔	-9911
اختیار	-9912
حالیکہ	-9913
▁اطفال	-9914
▁الودا	-9915
▁اوتار	-9916
▁اگائے	-9917
▁برہما	-9918
▁بوائے	-9919
▁بہانے	-9920
▁جدائی	-9921
▁جواہر	-9922
▁حادثہ	-9923
▁حوریں	-9924
▁خارجہ	-9925
▁سبکدو	-9926
▁لائیو	-9927
▁متنبہ	-9928
▁ملحقہ	-9929
▁پارلی	-9930
▁پرتاپ	-9931
▁پلائی	-9932
▁پیشاب	-9933
▁کتابِ	-9934
▁گھونٹ	-9935
▁اوڈیسی	-9936
▁بڑھاتا	-9937
▁تجاویز	-9938
▁خانقاہ	-9939
▁دریائی	-9940
▁سرسوتی	-9941
▁فرنیچر	-9942
▁ممبران	-9943
▁نمبروں	-9944
▁افسانوں	-9945
▁باویریا	-9946
▁ڈائریکٹ	-9947
▁ڈاکٹروں	-9948
▁ہلاکتوں	-9949
▁ایکسچینج	-9950
▁پروفیشنل	-9951
▁پہنچائیں	-9952
ia	-9953
ip	-9954
la	-9955
pe	-9956
لٹ	-9957
ژا	-9958
age	-9959
ama	-9960
hen	-9961
امر	-9962
بڑا	-9963
تھے	-9964
شخص	-9965
فیس	-9966
موم	-9967
نڈہ	-9968
پڑے	-9969
پین	-9970
گیر	-9971
▁83	-9972
▁ev	-9973
▁if	-9974
▁̧°	-9975
▁لَ	-9976
▁ڈل	-9977
ومین	-9978
ہنسی	-9979
▁lag	-9980
▁آئن	-9981
▁اکس	-9982
▁بلب	-9983
▁مسخ	-9984
▁منو	-9985
▁مڈل	-9986
▁نکھ	-9987
▁واک	-9988
▁ٹام	-9989
▁پتی	-9990
▁ڈھی	-9991
▁ہما	-9992
وسیدہ	-9993
پرائز	-9994
▁بڑھو	-9995
▁بکنگ	-9996
▁تربی	-9997
▁تقرر	-9998
▁توکل	-9999
▁رانا	-10000
▁رونق	-10001
▁سنگل	-10002
▁سولو	-10003
▁شاٹس	-10004
▁فرنٹ	-10005
▁قمیض	-10006
▁لوتھ	-10007
▁لوہا	-10008
▁مدور	-10009
▁معال	-10010
▁میاں	-10011
▁نیچا	-10012
▁پنڈت	-10013
▁گرتے	-10014
▁یومِ	-10015
▁اخلاق	-10016
▁اولین	-10017
▁بڑھیا	-10018
▁دھواں	-10019
▁زیریں	-10020
▁سرسبز	-10021
▁سنگیت	-10022
▁سویڈش	-10023
▁قومیں	-10024
▁لکھنؤ	-10025
▁متفرق	-10026
▁معتدل	-10027
▁معذور	-10028
▁مغلیہ	-10029
▁مہمات	-10030
▁ویشنو	-10031
▁پلاتے	-10032
▁پھرتا	-10033
▁پھیرا	-10034
▁کیپٹن	-10035
▁گھمنڈ	-10036
▁اسسٹنٹ	-10037
▁اسپیکر	-10038
▁امرتسر	-10039
▁اینگلو	-10040
▁تبادلے	-10041
▁جھکائے	-10042
▁حکومتی	-10043
▁سکھائے	-10044
▁صالحین	-10045
▁لکیریں	-10046
▁متقیوں	-10047
▁ویڈیوز	-10048
▁ٹھکانے	-10049
▁پاروتی	-10050
▁کھلونے	-10051
▁کیمیکل	-10052
▁گاوسکر	-10053
▁منصفانہ	-10054
▁مینجمنٹ	-10055
▁اختلافات	-10056
▁پرائیویٹ	-10057
74	-10058
76	-10059
78	-10060
قص	-10061
▁ِ	-10062
lon	-10063
tay	-10064
اعت	-10065
ایف	-10066
جیم	-10067
راً	-10068
رین	-10069
فرض	-10070
فیا	-10071
نگو	-10072
وطن	-10073
وقت	-10074
ولا	-10075
ہند	-10076
▁54	-10077
▁ex	-10078
▁tr	-10079
▁سي	-10080
▁وڈ	-10081
▁ٹا	-10082
انسر	-10083
انیت	-10084
مرنے	-10085
پانی	-10086
ھرجی	-10087
یتری	-10088
یمیا	-10089
▁160	-10090
▁Why	-10091
▁dek	-10092
▁iss	-10093
▁آمی	-10094
▁اعل	-10095
▁جھن	-10096
▁حلف	-10097
▁دغا	-10098
▁قطب	-10099
▁لغو	-10100
▁مدہ	-10101
▁مَر	-10102
▁مچا	-10103
▁وسی	-10104
▁ڈاٹ	-10105
▁تھرل	-10106
▁جینی	-10107
▁ریلی	-10108
▁مادر	-10109
▁نفاق	-10110
▁ٹیوب	-10111
▁پیلا	-10112
▁چادر	-10113
▁چمڑے	-10114
▁چھوا	-10115
▁چھٹے	-10116
▁کیرو	-10117
▁گاتے	-10118
▁ہٹنے	-10119
▁آنتوں	-10120
▁آپکڑا	-10121
▁الہٰی	-10122
▁بھولے	-10123
▁تجدید	-10124
▁تشریح	-10125
▁خانوں	-10126
▁ذہانت	-10127
▁سرٹیف	-10128
▁سنٹرل	-10129
▁فرما۔	-10130
▁لگادی	-10131
▁میلان	-10132
▁والا۔	-10133
▁پیٹوں	-10134
▁چیمبر	-10135
▁گائیں	-10136
▁آپہنچے	-10137
▁افزائش	-10138
▁امدادی	-10139
▁انحراف	-10140
▁برابری	-10141
▁تربیتی	-10142
▁سامانِ	-10143
▁سرکشوں	-10144
▁سکھاتا	-10145
▁نابینا	-10146
▁نادانی	-10147
▁نامکمل	-10148
▁پشیمان	-10149
▁پھیریں	-10150
▁کارآمد	-10151
▁بےانصاف	-10152
▁طوفانوں	-10153
▁پروازیں	-10154
▁چیمپئنز	-10155
▁سرگرمیاں	-10156
▁وائیرلیس	-10157
-5	-10158
22	-10159
af	-10160
ek	-10161
سہ	-10162
عر	-10163
فس	-10164
مم	-10165
يت	-10166
ِر	-10167
ڈم	-10168
est	-10169
ile	-10170
oug	-10171
مصر	-10172
ویہ	-10173
ٹلر	-10174
یشل	-10175
▁49	-10176
▁عث	-10177
ents	-10178
ارام	-10179
اسٹر	-10180
الین	-10181
دشمن	-10182
سلوں	-10183
مارٹ	-10184
ولین	-10185
▁ban	-10186
▁she	-10187
▁آلے	-10188
▁ابھ	-10189
▁ایو	-10190
▁بلد	-10191
▁بمب	-10192
▁جِل	-10193
▁فضا	-10194
▁قوی	-10195
▁لبر	-10196
▁ماف	-10197
▁منز	-10198
▁نیس	-10199
▁پرک	-10200
▁پھا	-10201
▁چیٹ	-10202
▁ہاٹ	-10203
thing	-10204
آسمان	-10205
قسمتی	-10206
ٹھیاں	-10207
پولین	-10208
▁1900	-10209
▁Doss	-10210
▁Sang	-10211
▁اترے	-10212
▁الہی	-10213
▁بھوت	-10214
▁بیگم	-10215
▁تحفے	-10216
▁تھلگ	-10217
▁جسٹس	-10218
▁دہرا	-10219
▁راجک	-10220
▁رشوت	-10221
▁ریگو	-10222
▁زوجہ	-10223
▁طواف	-10224
▁عامہ	-10225
▁فرین	-10226
▁موٹی	-10227
▁نوٹس	-10228
▁وانی	-10229
▁وقوف	-10230
▁پڑے۔	-10231
▁پھٹا	-10232
▁پیکج	-10233
▁چرچا	-10234
▁کاٹے	-10235
▁کسان	-10236
▁گھرا	-10237
▁گیتا	-10238
▁ہنری	-10239
▁آلودہ	-10240
▁احاطے	-10241
▁برتنے	-10242
▁بندھن	-10243
▁تسکین	-10244
▁تناظر	-10245
▁تھرلر	-10246
▁دیوان	-10247
▁رکھوں	-10248
▁شاستر	-10249
▁صحافی	-10250
▁صدقات	-10251
▁عجائب	-10252
▁عہدوں	-10253
▁وزٹرز	-10254
▁پکچرز	-10255
▁پیکیج	-10256
▁کھاتہ	-10257
▁ہائپر	-10258
▁ہمراہ	-10259
▁ہوچکے	-10260
▁جانتے۔	-10261
▁حساسیت	-10262
▁سمجھتی	-10263
▁صوبائی	-10264
▁مالیات	-10265
▁مجسموں	-10266
▁مطالعے	-10267
▁پرتگال	-10268
▁پہنائے	-10269
▁کونچیں	-10270
▁کھالوں	-10271
▁ہمدردی	-10272
▁تکنیکوں	-10273
▁ریکارڈز	-10274
▁فارمولا	-10275
▁مانیکشا	-10276
▁مشروبات	-10277
▁پانڈیوں	-10278
▁اسٹیشنوں	-10279
▁ٹورنامنٹس	-10280
98	-10281
-20	-10282
ore	-10283
res	-10284
ung	-10285
سیف	-10286
فعت	-10287
وپد	-10288
یبی	-10289
▁38	-10290
▁ja	-10291
▁جِ	-10292
▁لس	-10293
اہرے	-10294
بانہ	-10295
حصال	-10296
سیوں	-10297
▁keh	-10298
▁ker	-10299
▁ثنا	-10300
▁جیو	-10301
▁دلو	-10302
▁سرِ	-10303
▁صدا	-10304
▁صفت	-10305
▁مشا	-10306
▁موہ	-10307
▁کچل	-10308
▁گنے	-10309
تبلیغ	-10310
سیمیا	-10311
قیاتی	-10312
لبورن	-10313
نیشور	-10314
واقعی	-10315
وکریٹ	-10316
▁1928	-10317
▁1959	-10318
▁بانڈ	-10319
▁درآن	-10320
▁سوئس	-10321
▁شیخی	-10322
▁فلمز	-10323
▁لارڈ	-10324
▁لاکر	-10325
▁لفظی	-10326
▁مفرو	-10327
▁نقشے	-10328
▁نهيں	-10329
▁وراث	-10330
▁پیسٹ	-10331
▁چودہ	-10332
▁کولہ	-10333
▁گردی	-10334
▁ہوگے	-10335
ڈیلفیا	-10336
▁اورنہ	-10337
▁تاکید	-10338
▁جلانے	-10339
▁درجوں	-10340
▁دیئے۔	-10341
▁رمضان	-10342
▁ریمیک	-10343
▁سنہری	-10344
▁شاخوں	-10345
▁قربان	-10346
▁مرتکب	-10347
▁مرطوب	-10348
▁میراث	-10349
▁نمکین	-10350
▁نہروں	-10351
▁ٹیکسٹ	-10352
▁چکھنے	-10353
▁Conlon	-10354
▁happen	-10355
▁بچھونا	-10356
▁بھٹکتے	-10357
▁بیوقوف	-10358
▁تمھارے	-10359
▁جرمانہ	-10360
▁جمہوری	-10361
▁سنائیں	-10362
▁مظاہرے	-10363
▁مکھرجی	-10364
▁نشستیں	-10365
▁پوچھنے	-10366
▁کاویری	-10367
▁کنجیاں	-10368
▁یوٹیوب	-10369
▁Sangmin	-10370
▁اختتامی	-10371
▁بدقسمتی	-10372
▁مچھلیوں	-10373
▁چاہئیں۔	-10374
▁اسٹوڈیوز	-10375
▁ڈیموکریٹ	-10376
-6	-10377
ug	-10378
اذ	-10379
خا	-10380
صف	-10381
bol	-10382
int	-10383
irl	-10384
ذرا	-10385
شدہ	-10386
صحی	-10387
طری	-10388
گاس	-10389
▁..	-10390
▁59	-10391
▁67	-10392
▁73	-10393
▁76	-10394
▁شق	-10395
▁لذ	-10396
▁ٹل	-10397
▁ٹچ	-10398
▁کَ	-10399
▁کڑ	-10400
سوار	-10401
صیلی	-10402
لکھا	-10403
لیٹس	-10404
ویئر	-10405
ینیم	-10406
▁any	-10407
▁but	-10408
▁his	-10409
▁آنت	-10410
▁بای	-10411
▁برخ	-10412
▁برن	-10413
▁ثال	-10414
▁جنی	-10415
▁دھڑ	-10416
▁روہ	-10417
▁سدر	-10418
▁قلت	-10419
▁نشے	-10420
▁نوک	-10421
▁نین	-10422
▁ویو	-10423
▁پکے	-10424
▁چکن	-10425
▁کشش	-10426
▁کچی	-10427
▁ینگ	-10428
ریبین	-10429
▁ارتق	-10430
▁اوڑھ	-10431
▁اٹکل	-10432
▁باؤل	-10433
▁بعضے	-10434
▁تندر	-10435
▁جلنے	-10436
▁دراو	-10437
▁راہب	-10438
▁روکو	-10439
▁عادی	-10440
▁فلیش	-10441
▁محاس	-10442
▁مزین	-10443
▁مسکر	-10444
▁مہات	-10445
▁مہار	-10446
▁نورڈ	-10447
▁ویرک	-10448
▁ٹراپ	-10449
▁ٹینی	-10450
▁پتوں	-10451
▁پڑوس	-10452
▁پیما	-10453
▁چھڑا	-10454
▁گیلی	-10455
▁یکجا	-10456
▁آرتھر	-10457
▁اسلحہ	-10458
▁اٹھتے	-10459
▁براؤن	-10460
▁بلیئر	-10461
▁بناؤں	-10462
▁تاوان	-10463
▁تقدیر	-10464
▁تقویت	-10465
▁خلائی	-10466
▁سجایا	-10467
▁سنایا	-10468
▁شکاری	-10469
▁صحیفے	-10470
▁عقیدے	-10471
▁محلات	-10472
▁معجزے	-10473
▁منگول	-10474
▁مکانی	-10475
▁ٹویٹر	-10476
▁چولوں	-10477
▁چوٹیں	-10478
▁کنکشن	-10479
▁کوئلے	-10480
▁کیمبر	-10481
▁کینٹن	-10482
▁گھاٹا	-10483
▁یاجوج	-10484
▁اندراج	-10485
▁اٹھاتا	-10486
▁بارشیں	-10487
▁بڑھاتے	-10488
▁بھروسا	-10489
▁دکھاؤں	-10490
▁دکھانا	-10491
▁مرسلین	-10492
▁ناجائز	-10493
▁نفسیات	-10494
▁نوازا۔	-10495
▁ٹھہرنے	-10496
▁پرتشدد	-10497
▁کردینے	-10498
▁کروانے	-10499
▁گواسکر	-10500
▁گولیاں	-10501
▁باندھنے	-10502
▁سالیانہ	-10503
▁سلیمانؑ	-10504
▁سیٹلائٹ	-10505
▁مہاکاوی	-10506
▁میلبورن	-10507
▁کمیونسٹ	-10508
▁پینگوئنز	-10509
▁اسٹرائیکر	-10510
▁ناپسندیدہ	-10511
21	-10512
79	-10513
ظہ	-10514
art	-10515
ink	-10516
ارس	-10517
ایم	-10518
شاء	-10519
لاگ	-10520
مدی	-10521
وبا	-10522
ُور	-10523
ّوں	-10524
▁41	-10525
▁ra	-10526
▁آش	-10527
▁كے	-10528
▁لف	-10529
▁چُ	-10530
تورا	-10531
زائی	-10532
شیاں	-10533
فیلڈ	-10534
مالی	-10535
نماز	-10536
چسٹر	-10537
▁آئل	-10538
▁آفی	-10539
▁اُڑ	-10540
▁باا	-10541
▁بیز	-10542
▁حجر	-10543
▁داد	-10544
▁ساس	-10545
▁لنڈ	-10546
▁لیج	-10547
▁ماؤ	-10548
▁پٹن	-10549
▁چنے	-10550
▁کشن	-10551
▁کٹے	-10552
ailed	-10553
ymbol	-10554
▁like	-10555
▁امین	-10556
▁ایپس	-10557
▁بختی	-10558
▁برین	-10559
▁بھلی	-10560
▁بہتے	-10561
▁بیلٹ	-10562
▁تھرت	-10563
▁جنتی	-10564
▁جوئے	-10565
▁درجن	-10566
▁رائف	-10567
▁سارج	-10568
▁سراغ	-10569
▁سیرم	-10570
▁صفحے	-10571
▁طبقہ	-10572
▁فطری	-10573
▁قلیل	-10574
▁نیوک	-10575
▁ورتھ	-10576
▁پدما	-10577
▁ڈیلر	-10578
▁کندہ	-10579
▁کنکر	-10580
▁اسپیڈ	-10581
▁اہلیہ	-10582
▁بازوں	-10583
▁بچالے	-10584
▁تحلیل	-10585
▁جاسکے	-10586
▁جوڑتا	-10587
▁جوڑتی	-10588
▁خلاصہ	-10589
▁دیتے۔	-10590
▁سازوں	-10591
▁سنسنی	-10592
▁سیڑھی	-10593
▁فولڈر	-10594
▁ماسکو	-10595
▁میونخ	-10596
▁پونجی	-10597
▁چکھیں	-10598
▁ڈالوں	-10599
▁اخلاقی	-10600
▁اسٹینڈ	-10601
▁اضطراب	-10602
▁اعزازی	-10603
▁اوپیرا	-10604
▁حالتوں	-10605
▁طوفانی	-10606
▁مَردوں	-10607
▁نکوبار	-10608
▁والیوں	-10609
▁پوچھئے	-10610
▁پہنچتے	-10611
▁چھوڑتے	-10612
▁کرایا۔	-10613
▁کرلیا۔	-10614
▁کھلاتے	-10615
▁گجراتی	-10616
▁جانشینی	-10617
▁معاشیات	-10618
▁میوزیکل	-10619
▁پانچواں	-10620
▁پذیرائی	-10621
▁چاہیئے۔	-10622
▁چوتھائی	-10623
▁کنندگان	-10624
▁اسرائیلی	-10625
▁بھلائیوں	-10626
▁فلاڈیلفیا	-10627
96	-10628
:0	-10629
▁¶	-10630
دلی	-10631
غرض	-10632
نیز	-10633
ژیہ	-10634
کرا	-10635
▁63	-10636
▁92	-10637
▁kh	-10638
▁lo	-10639
▁جع	-10640
▁حُ	-10641
▁ذم	-10642
▁چت	-10643
ause	-10644
بروں	-10645
جہاں	-10646
قتاً	-10647
ناتھ	-10648
ورسٹ	-10649
ٹیاں	-10650
پتھر	-10651
کولی	-10652
▁170	-10653
▁pas	-10654
▁جاو	-10655
▁حیض	-10656
▁خبی	-10657
▁سیو	-10658
▁نیر	-10659
▁واں	-10660
▁ٹوک	-10661
▁ٹھو	-10662
▁ہوے	-10663
اسلام	-10664
جپائی	-10665
ریبان	-10666
نوانی	-10667
ہمارا	-10668
▁nahi	-10669
▁آڈیو	-10670
▁بوند	-10671
▁بھوٹ	-10672
▁تیرہ	-10673
▁جوزف	-10674
▁جھلی	-10675
▁جھکی	-10676
▁داؤں	-10677
▁دگنا	-10678
▁سالم	-10679
▁سستا	-10680
▁عمری	-10681
▁غوطہ	-10682
▁فائی	-10683
▁لنگر	-10684
▁لڑنا	-10685
▁لیکس	-10686
▁مائن	-10687
▁ٹرمپ	-10688
▁ٹیکہ	-10689
▁چھٹا	-10690
▁ڈبلز	-10691
▁ڈسٹر	-10692
▁کتوں	-10693
▁کمرہ	-10694
▁ہودہ	-10695
▁یابی	-10696
symbol	-10697
پولیٹن	-10698
▁آرتھو	-10699
▁آسائش	-10700
▁اقدار	-10701
▁الشان	-10702
▁الکحل	-10703
▁اگائی	-10704
▁بولیں	-10705
▁بیجنگ	-10706
▁تحصیل	-10707
▁دھونی	-10708
▁سسٹمز	-10709
▁سکندر	-10710
▁سگریٹ	-10711
▁شاگرد	-10712
▁لسانی	-10713
▁مغرور	-10714
▁ممنوع	-10715
▁مہنگی	-10716
▁ٹریلر	-10717
▁کماری	-10718
▁کےلئے	-10719
symbols	-10720
▁اسٹیٹس	-10721
▁الاسکا	-10722
▁بیٹھتے	-10723
▁تفصیلی	-10724
▁جاہلیت	-10725
▁خودمخت	-10726
▁فارمیٹ	-10727
▁فرمانا	-10728
▁لکشدیپ	-10729
▁مقدمات	-10730
▁موروثی	-10731
▁ٹرمینل	-10732
▁چھپاکی	-10733
▁گایتری	-10734
▁گواہوں	-10735
▁استحصال	-10736
▁ثقافتوں	-10737
▁خوشحالی	-10738
▁فرمائیے	-10739
▁نتیجتاً	-10740
▁نقصانات	-10741
▁کیریبین	-10742
▁بھونیشور	-10743
▁بیماریاں	-10744
▁جادوگروں	-10745
▁سرگوشیاں	-10746
▁چارپایوں	-10747
▁یادگاروں	-10748
▁کیرولائنا	-10749
▁درآنحالیکہ	-10750
ga	-10751
آگ	-10752
اڑ	-10753
حہ	-10754
شس	-10755
ها	-10756
يم	-10757
ost	-10758
الف	-10759
سری	-10760
شیل	-10761
ظمی	-10762
قاط	-10763
وسط	-10764
وشو	-10765
ٹمی	-10766
▁69	-10767
▁ad	-10768
▁ta	-10769
▁سِ	-10770
▁وم	-10771
▁وِ	-10772
ایا۔	-10773
جدوں	-10774
جہنم	-10775
جیسے	-10776
رافٹ	-10777
مانڈ	-10778
یرین	-10779
ینڈو	-10780
▁110	-10781
▁And	-10782
▁bhi	-10783
▁ادی	-10784
▁جتا	-10785
▁ماڈ	-10786
▁ٹار	-10787
▁ٹیب	-10788
▁کھن	-10789
اسٹیٹ	-10790
▁1951	-10791
▁tell	-10792
▁آباء	-10793
▁ایلن	-10794
▁ایلی	-10795
▁بتاو	-10796
▁بریڈ	-10797
▁بلیڈ	-10798
▁بکری	-10799
▁بھنس	-10800
▁بیئر	-10801
▁بیلے	-10802
▁تودے	-10803
▁جھلک	-10804
▁رینگ	-10805
▁ساگر	-10806
▁شاپر	-10807
▁شفیق	-10808
▁فلیٹ	-10809
▁فیلو	-10810
▁قریہ	-10811
▁ویرا	-10812
▁پراج	-10813
▁پڑی۔	-10814
▁چوڑی	-10815
▁ڈیوس	-10816
▁کلچر	-10817
▁کھيل	-10818
▁گارے	-10819
▁گودا	-10820
format	-10821
مقابلہ	-10822
▁going	-10823
▁آرٹسٹ	-10824
▁آمیزش	-10825
▁ابھار	-10826
▁اشاعت	-10827
▁الرجی	-10828
▁اٹھنے	-10829
▁بےخبر	-10830
▁جانسن	-10831
▁خطاؤں	-10832
▁دستوں	-10833
▁رحمنٰ	-10834
▁رہائی	-10835
▁سزائے	-10836
▁سمتوں	-10837
▁سوانح	-10838
▁عقیدہ	-10839
▁لیبار	-10840
▁مدہوش	-10841
▁مزدور	-10842
▁واقعا	-10843
▁کیوبا	-10844
▁گروپس	-10845
▁گوپال	-10846
برداروں	-10847
▁افتتاح	-10848
▁الوداع	-10849
▁تصورات	-10850
▁جمناسٹ	-10851
▁جھیلوں	-10852
▁سرحدوں	-10853
▁شاعروں	-10854
▁لائنوں	-10855
▁مائکرو	-10856
▁متوازی	-10857
▁محاصرہ	-10858
▁مسجدوں	-10859
▁ٹینیسی	-10860
▁پھیرنے	-10861
▁کشادگی	-10862
▁انسانیت	-10863
▁دستکاری	-10864
▁سمجھایا	-10865
▁سنجیدگی	-10866
▁سیکنڈری	-10867
▁علامتیں	-10868
▁قبرستان	-10869
▁السّلامنے	-10870
'،	-10871
،،	-10872
تن	-10873
شف	-10874
َل	-10875
ہع	-10876
▁إ	-10877
▁ڑ	-10878
aya	-10879
ian	-10880
ord	-10881
اِن	-10882
بچہ	-10883
مچھ	-10884
ٹاپ	-10885
چنگ	-10886
کوڈ	-10887
▁("	-10888
▁78	-10889
▁no	-10890
▁wo	-10891
▁ً̧	-10892
▁حو	-10893
▁گہ	-10894
ated	-10895
ساری	-10896
ضرور	-10897
فرین	-10898
وسوم	-10899
ومنٹ	-10900
ہرگز	-10901
▁Bal	-10902
▁hot	-10903
▁بدا	-10904
▁بکس	-10905
▁تنز	-10906
▁حتی	-10907
▁دخل	-10908
▁سیس	-10909
▁ورم	-10910
▁چان	-10911
انجام	-10912
اکارٹ	-10913
منافق	-10914
ولوجی	-10915
یسوٹا	-10916
▁1936	-10917
▁آہنگ	-10918
▁اوبر	-10919
▁بناء	-10920
▁بنی۔	-10921
▁بوٹی	-10922
▁بینر	-10923
▁ثبات	-10924
▁جوہر	-10925
▁خزاں	-10926
▁دستہ	-10927
▁رہئے	-10928
▁مائع	-10929
▁محلے	-10930
▁نقطے	-10931
▁وارد	-10932
▁ٹیچر	-10933
▁پاتی	-10934
▁پڑھے	-10935
▁ڈییئ	-10936
وفیکچر	-10937
▁آئینی	-10938
▁آدتیہ	-10939
▁اراضی	-10940
▁اسقاط	-10941
▁اعادہ	-10942
▁انحطا	-10943
▁اورجس	-10944
▁بااثر	-10945
▁بکھرے	-10946
▁جنّات	-10947
▁جہنمی	-10948
▁جہنّم	-10949
▁حضرات	-10950
▁دھیرے	-10951
▁راجیو	-10952
▁زمروں	-10953
▁سائبر	-10954
▁سکتی۔	-10955
▁سیکٹر	-10956
▁ماجوج	-10957
▁معدوم	-10958
▁مولیٰ	-10959
▁مونٹر	-10960
▁نجاست	-10961
▁نظریے	-10962
▁ورکنگ	-10963
▁وینکو	-10964
▁پوشاک	-10965
▁پکڑتے	-10966
▁چاہے۔	-10967
▁چوٹوں	-10968
▁کانچی	-10969
▁کرایے	-10970
▁کشائش	-10971
▁کلیدی	-10972
▁ہوتیں	-10973
▁اَعمال	-10974
▁برکتیں	-10975
▁بھیجنا	-10976
▁تیراکی	-10977
▁شکریہ۔	-10978
▁منعقدہ	-10979
▁ویتنام	-10980
▁پتنگیں	-10981
▁پرنسپل	-10982
▁چھوڑتا	-10983
▁چھپانے	-10984
▁کابینہ	-10985
▁کھلانے	-10986
مسلمانوں	-10987
▁آکسفورڈ	-10988
▁اعزازات	-10989
▁انگلیوں	-10990
▁بھنسالی	-10991
▁تصویریں	-10992
▁شکرگزار	-10993
▁مانچسٹر	-10994
▁فرعونیوں	-10995
▁مینیسوٹا	-10996
IN	-10997
fi	-10998
ذف	-10999
یٹ	-11000
▁ؑ	-11001
day	-11002
ابو	-11003
بنگ	-11004
فون	-11005
نیل	-11006
نیم	-11007
ومب	-11008
پرس	-11009
گرا	-11010
▁93	-11011
▁fe	-11012
▁حا	-11013
▁دگ	-11014
▁نب	-11015
رحمت	-11016
ریعت	-11017
عبرت	-11018
وبست	-11019
وسٹن	-11020
گانا	-11021
▁800	-11022
▁aap	-11023
▁has	-11024
▁باڑ	-11025
▁خرا	-11026
▁روگ	-11027
▁رہم	-11028
▁قاع	-11029
▁مدن	-11030
▁مرہ	-11031
▁واد	-11032
▁ٹیر	-11033
▁ڈنم	-11034
▁کسر	-11035
▁کيا	-11036
میدان	-11037
▁1953	-11038
▁girl	-11039
▁الیم	-11040
▁ایلس	-11041
▁بنجر	-11042
▁تختہ	-11043
▁ترتی	-11044
▁تورا	-11045
▁جدول	-11046
▁جلوہ	-11047
▁سنہا	-11048
▁سکا۔	-11049
▁فقیر	-11050
▁لبیک	-11051
▁مولا	-11052
▁میان	-11053
▁ناوا	-11054
▁ورکس	-11055
▁پراس	-11056
▁پروں	-11057
▁پلٹے	-11058
▁چارٹ	-11059
▁ڈیسک	-11060
▁کتبے	-11061
▁کلرک	-11062
▁کوڑا	-11063
▁ہارٹ	-11064
زائیدہ	-11065
▁آرمین	-11066
▁آفیسر	-11067
▁ارونا	-11068
▁اعانت	-11069
▁الحاق	-11070
▁بنیں۔	-11071
▁بھٹکے	-11072
▁جیتی۔	-11073
▁خواہی	-11074
▁داخلے	-11075
▁روحوں	-11076
▁سوریا	-11077
▁شرکائ	-11078
▁طیارہ	-11079
▁لائقِ	-11080
▁لوہڑی	-11081
▁لیکچر	-11082
▁منتظم	-11083
▁مہنگا	-11084
▁نوٹوں	-11085
▁ولیمز	-11086
▁ٹیومر	-11087
▁پرداز	-11088
▁پرکاش	-11089
▁چلاتی	-11090
▁چلانا	-11091
▁چکھتے	-11092
▁کراٹے	-11093
▁کنساس	-11094
▁کیرلا	-11095
▁گزرنا	-11096
▁اترانے	-11097
▁اسحاقؑ	-11098
▁اولادِ	-11099
▁اپنایا	-11100
▁ایرینا	-11101
▁بوسیدہ	-11102
▁جلاوطن	-11103
▁حامیوں	-11104
▁خاموشی	-11105
▁دھروپد	-11106
▁سنجیدہ	-11107
▁طلبگار	-11108
▁فائرنگ	-11109
▁فیصلوں	-11110
▁مفسدوں	-11111
▁مکانوں	-11112
▁ناگہاں	-11113
▁پارکنگ	-11114
▁پردازی	-11115
▁پیٹھوں	-11116
▁ڈپریشن	-11117
▁ہوجاؤں	-11118
▁ہولناک	-11119
▁انگلیاں	-11120
▁بندوبست	-11121
▁تعلیمات	-11122
▁ریلائنس	-11123
▁سکریٹری	-11124
▁سینکچری	-11125
▁فرنچائز	-11126
▁مظاہرین	-11127
▁اسکریننگ	-11128
▁شرمگاہوں	-11129
▁نوزائیدہ	-11130
▁ڈپارٹمنٹ	-11131
▁مینوفیکچر	-11132
▁نافرمانوں	-11133
▁میٹروپولیٹن	-11134
89	-11135
ge	-11136
ءز	-11137
iss	-11138
ort	-11139
اجد	-11140
ارو	-11141
بیل	-11142
حید	-11143
سزا	-11144
شرت	-11145
غور	-11146
قاد	-11147
وسے	-11148
ڈری	-11149
کلن	-11150
ہیم	-11151
یسن	-11152
▁1"	-11153
▁كی	-11154
▁ٹگ	-11155
▁پش	-11156
ائدہ	-11157
انیے	-11158
بنیا	-11159
حیات	-11160
ریتی	-11161
والے	-11162
کوٹا	-11163
▁1.5	-11164
▁app	-11165
▁kam	-11166
▁انع	-11167
▁اگا	-11168
▁بکر	-11169
▁لڑی	-11170
▁منط	-11171
▁نوا	-11172
▁وہم	-11173
▁پنک	-11174
▁چاک	-11175
▁کرش	-11176
▁کنک	-11177
▁گرل	-11178
زیادہ	-11179
▁1942	-11180
▁fuck	-11181
▁،1⁄4	-11182
▁آکاش	-11183
▁احمق	-11184
▁اورل	-11185
▁اولی	-11186
▁بلوں	-11187
▁بچنا	-11188
▁بہرا	-11189
▁تارا	-11190
▁جنین	-11191
▁جینز	-11192
▁خلیف	-11193
▁دارا	-11194
▁دارج	-11195
▁دکھل	-11196
▁سانگ	-11197
▁شائر	-11198
▁شکتی	-11199
▁شیعہ	-11200
▁صوتی	-11201
▁ظہور	-11202
▁لیور	-11203
▁لیٹے	-11204
▁لیہہ	-11205
▁ماسک	-11206
▁مجمع	-11207
▁محور	-11208
▁منبع	-11209
▁مینو	-11210
▁نسخے	-11211
▁نطفے	-11212
▁پلیز	-11213
▁چھتر	-11214
▁گارو	-11215
▁ہمسر	-11216
▁ہولڈ	-11217
▁ہیمو	-11218
تالیاں	-11219
قیانوس	-11220
▁آرکیا	-11221
▁انسٹر	-11222
▁انگار	-11223
▁اٹھیں	-11224
▁بوڑھی	-11225
▁توڑتے	-11226
▁جاؤگے	-11227
▁جنکشن	-11228
▁حویلی	-11229
▁درپیش	-11230
▁راجیش	-11231
▁راجیہ	-11232
▁روپیے	-11233
▁عملوں	-11234
▁فائبر	-11235
▁فلسفی	-11236
▁قدامت	-11237
▁لیتے۔	-11238
▁مشروب	-11239
▁وراثت	-11240
▁ٹرائل	-11241
▁پلٹنے	-11242
▁چاہنے	-11243
▁ڈیوٹی	-11244
▁کررہی	-11245
▁کفّار	-11246
▁ہماچل	-11247
▁ایڈجسٹ	-11248
▁خطائیں	-11249
▁دُوسرے	-11250
▁ریسلنگ	-11251
▁سرحدیں	-11252
▁صنعتیں	-11253
▁فارورڈ	-11254
▁لکیروں	-11255
▁مچھروں	-11256
▁مہاتما	-11257
▁پرستوں	-11258
▁کشمیری	-11259
▁کیمبرج	-11260
▁100,000	-11261
▁problem	-11262
▁تاریخوں	-11263
▁سمندروں	-11264
▁میگاواٹ	-11265
▁پھینکنے	-11266
▁انسٹاکارٹ	-11267
▁ایتھلیٹکس	-11268
▁بندرگاہوں	-11269
3×	-11270
87	-11271
شق	-11272
يک	-11273
ity	-11274
ult	-11275
اسٹ	-11276
ذیذ	-11277
سیو	-11278
شرم	-11279
ظام	-11280
لاؤ	-11281
معج	-11282
مور	-11283
ڈرل	-11284
کنز	-11285
کنگ	-11286
کوا	-11287
ہرو	-11288
▁47	-11289
▁57	-11290
▁79	-11291
▁89	-11292
▁Ch	-11293
▁كو	-11294
▁نن	-11295
ادشی	-11296
بیاء	-11297
رادف	-11298
سٹرا	-11299
صحیح	-11300
فیئر	-11301
مبور	-11302
نمنٹ	-11303
نیوں	-11304
ڈنسی	-11305
کشتی	-11306
ینڈل	-11307
▁Tit	-11308
▁آؤ۔	-11309
▁آجر	-11310
▁بتل	-11311
▁بےح	-11312
▁جا۔	-11313
▁شاد	-11314
▁صحن	-11315
▁عدت	-11316
▁فیو	-11317
▁موٹ	-11318
▁ناخ	-11319
▁ٹشو	-11320
▁ٹنڈ	-11321
▁پاش	-11322
▁کُن	-11323
رائیڈ	-11324
سرائے	-11325
▁3⁄4ّ	-11326
▁اقلی	-11327
▁اونم	-11328
▁اونی	-11329
▁باتھ	-11330
▁بُری	-11331
▁جڑوں	-11332
▁حصہّ	-11333
▁خروش	-11334
▁خلجی	-11335
▁راکھ	-11336
▁رساں	-11337
▁ریور	-11338
▁زیرو	-11339
▁سطحی	-11340
▁سوچو	-11341
▁سکاٹ	-11342
▁سگنل	-11343
▁صدمے	-11344
▁ضلعی	-11345
▁فیصل	-11346
▁مزار	-11347
▁منڈی	-11348
▁مورت	-11349
▁نازک	-11350
▁ٹیمپ	-11351
▁ڈانٹ	-11352
▁کامن	-11353
▁کرنل	-11354
▁کروز	-11355
▁کپاس	-11356
▁گزری	-11357
▁گولف	-11358
▁ہیلم	-11359
انبیاء	-11360
▁انفار	-11361
▁اکائی	-11362
▁بائیو	-11363
▁بیٹھی	-11364
▁تصنیف	-11365
▁تماشا	-11366
▁جیکسن	-11367
▁ساتوں	-11368
▁سرحدی	-11369
▁شوقین	-11370
▁شیکھر	-11371
▁طبقات	-11372
▁عارضہ	-11373
▁غاریں	-11374
▁محتاط	-11375
▁منادی	-11376
▁منقسم	-11377
▁موسوم	-11378
▁میتھی	-11379
▁پانڈے	-11380
▁پرامن	-11381
▁پرساد	-11382
▁پرومو	-11383
▁پلائے	-11384
▁چھتوں	-11385
▁چھوڑی	-11386
▁ڈراتے	-11387
▁کراکو	-11388
▁کیمرہ	-11389
▁ہورہا	-11390
▁20,000	-11391
▁اتارتا	-11392
▁الماری	-11393
▁اِنہوں	-11394
▁بنالیں	-11395
▁تارکین	-11396
▁شہزادے	-11397
▁طالبان	-11398
▁فائلوں	-11399
▁فاسقوں	-11400
▁فیکٹری	-11401
▁پوچھتا	-11402
▁چاہئیں	-11403
▁ڈسٹرکٹ	-11404
▁ڈنمارک	-11405
▁کارنام	-11406
▁گرمائی	-11407
▁گورننگ	-11408
▁یعقوبؑ	-11409
▁آرکیالو	-11410
▁احکامات	-11411
▁تحریریں	-11412
▁ترقیاتی	-11413
▁رومانیہ	-11414
▁زندگیوں	-11415
▁سپلیمنٹ	-11416
▁وینکوور	-11417
▁ڈویژنوں	-11418
▁گرفتاری	-11419
▁گھرانوں	-11420
▁وائسرائے	-11421
▁انکارپوری	-11422
▁اینڈرائیڈ	-11423
▁ویکسینیشن	-11424
▁پیچیدگیوں	-11425
/5	-11426
ES	-11427
ظی	-11428
ّل	-11429
ein	-11430
kay	-11431
ris	-11432
تیا	-11433
تین	-11434
جمع	-11435
جنا	-11436
راء	-11437
ساب	-11438
غوت	-11439
قان	-11440
لیڈ	-11441
نون	-11442
وٹک	-11443
پید	-11444
ژدہ	-11445
گیٹ	-11446
▁1،	-11447
▁81	-11448
▁82	-11449
▁It	-11450
▁̧·	-11451
ائشہ	-11452
صورت	-11453
نائی	-11454
ودھن	-11455
ویتا	-11456
ٹروں	-11457
کردہ	-11458
کلین	-11459
▁130	-11460
▁350	-11461
▁How	-11462
▁She	-11463
▁fun	-11464
▁jab	-11465
▁kia	-11466
▁mat	-11467
▁one	-11468
▁آزر	-11469
▁ابا	-11470
▁بزد	-11471
▁بسے	-11472
▁بٹہ	-11473
▁جسی	-11474
▁ریف	-11475
▁شفٹ	-11476
▁ضعی	-11477
▁فجر	-11478
▁فرا	-11479
▁فوس	-11480
▁موق	-11481
▁وند	-11482
▁ڈھا	-11483
▁کتر	-11484
▁کرہ	-11485
▁گوٹ	-11486
▁۔۔۔	-11487
اسکتے	-11488
اکرات	-11489
باتوں	-11490
بودار	-11491
جنہوں	-11492
دوسری	-11493
شیائی	-11494
واقعہ	-11495
کردار	-11496
گرافر	-11497
یکوسس	-11498
▁1916	-11499
▁الاؤ	-11500
▁انوپ	-11501
▁اٹھو	-11502
▁تسلی	-11503
▁تعدد	-11504
▁تلفی	-11505
▁تنبی	-11506
▁تیند	-11507
▁جاوا	-11508
▁ججوں	-11509
▁جذبے	-11510
▁جملے	-11511
▁درہم	-11512
▁دینِ	-11513
▁رتبہ	-11514
▁رنگت	-11515
▁رینک	-11516
▁سارس	-11517
▁سوتے	-11518
▁ضابط	-11519
▁عہدی	-11520
▁فکشن	-11521
▁لاتی	-11522
▁لیگا	-11523
▁مذمت	-11524
▁میسی	-11525
▁ناگو	-11526
▁نیلا	-11527
▁ووشو	-11528
▁پلاٹ	-11529
▁پیشن	-11530
▁کیئر	-11531
▁گولہ	-11532
▁ہونٹ	-11533
▁ہیمپ	-11534
▁یوتھ	-11535
چنانچہ	-11536
▁every	-11537
▁yahan	-11538
▁آگیا۔	-11539
▁ارتقا	-11540
▁التجا	-11541
▁انڈور	-11542
▁انڈیز	-11543
▁اپنوں	-11544
▁بدسلو	-11545
▁برسات	-11546
▁بولتا	-11547
▁بھیجو	-11548
▁تزئین	-11549
▁خیالی	-11550
▁راہوں	-11551
▁رسانی	-11552
▁رکھو۔	-11553
▁سانتا	-11554
▁سایوں	-11555
▁سلنڈر	-11556
▁سنوار	-11557
▁سکونت	-11558
▁سیریل	-11559
▁طاغوت	-11560
▁عذابِ	-11561
▁فلسفے	-11562
▁فیروز	-11563
▁قبیلہ	-11564
▁لینکس	-11565
▁ملکوں	-11566
▁منٹوں	-11567
▁مینگر	-11568
▁وعدوں	-11569
▁پائلٹ	-11570
▁پائی۔	-11571
▁پیادہ	-11572
▁کافور	-11573
▁کثافت	-11574
▁کردی۔	-11575
▁کلاسک	-11576
▁کینیا	-11577
▁ہارنے	-11578
▁ہانکے	-11579
▁یحییٰ	-11580
▁Titans	-11581
▁آوازوں	-11582
▁انحطاط	-11583
▁انٹیلی	-11584
▁بازاری	-11585
▁بیبیاں	-11586
▁حاکموں	-11587
▁رکھتا۔	-11588
▁سفارتی	-11589
▁سپرمین	-11590
▁مترادف	-11591
▁ملیشیا	-11592
▁منکروں	-11593
▁مہاراش	-11594
▁وغیرہ۔	-11595
▁ٹکرانے	-11596
▁چمکدار	-11597
▁کالجوں	-11598
▁کلائیو	-11599
▁گریبان	-11600
▁گزارتے	-11601
▁اکاؤنٹس	-11602
▁بےحیائی	-11603
▁تجرباتی	-11604
▁دہندگان	-11605
▁فرمادیا	-11606
▁قرارداد	-11607
▁وابستگی	-11608
▁واجپائی	-11609
▁الیکٹران	-11610
▁السّلامکو	-11611
▁انٹراسٹیٹ	-11612
86	-11613
92	-11614
ac	-11615
ft	-11616
gt	-11617
ub	-11618
ye	-11619
تق	-11620
کف	-11621
-10	-11622
ade	-11623
aha	-11624
ait	-11625
ean	-11626
بلا	-11627
دنی	-11628
شیک	-11629
موت	-11630
مکہ	-11631
میہ	-11632
نیس	-11633
کئی	-11634
گھا	-11635
▁87	-11636
▁96	-11637
▁te	-11638
▁زن	-11639
▁پي	-11640
ائقہ	-11641
ائی۔	-11642
اوند	-11643
بائی	-11644
نعمت	-11645
وابط	-11646
ویوں	-11647
گینی	-11648
یشور	-11649
▁600	-11650
▁hon	-11651
▁liy	-11652
▁sir	-11653
▁tak	-11654
▁tou	-11655
▁was	-11656
▁جیٹ	-11657
▁سبر	-11658
▁سبس	-11659
▁سکہ	-11660
▁قسط	-11661
▁لیب	-11662
▁میو	-11663
▁نفا	-11664
▁نند	-11665
▁پرے	-11666
▁پلّ	-11667
▁پیچ	-11668
▁کزن	-11669
▁گلا	-11670
اسرار	-11671
وراڈو	-11672
▁away	-11673
▁آرہی	-11674
▁اڑنے	-11675
▁ایٹم	-11676
▁بجھا	-11677
▁بنوں	-11678
▁ترسی	-11679
▁توڑا	-11680
▁جڑیں	-11681
▁حدیں	-11682
▁خوان	-11683
▁دھمک	-11684
▁دھکا	-11685
▁ساٹھ	-11686
▁سرکٹ	-11687
▁سوئی	-11688
▁فاسٹ	-11689
▁مانع	-11690
▁مبین	-11691
▁مرده	-11692
▁ناسک	-11693
▁ورثہ	-11694
▁ونگز	-11695
▁ٹیکے	-11696
▁پئیں	-11697
▁کساد	-11698
▁کلید	-11699
▁کنبہ	-11700
▁کوٹا	-11701
▁کیسل	-11702
▁ہیرا	-11703
▁یارڈ	-11704
گناہوں	-11705
▁الیاس	-11706
▁بائیک	-11707
▁باعزت	-11708
▁بدلنا	-11709
▁بلاکس	-11710
▁بمشکل	-11711
▁بوئنگ	-11712
▁بڑھنا	-11713
▁بھکتی	-11714
▁بےپرو	-11715
▁جاتے۔	-11716
▁جھانک	-11717
▁جیوری	-11718
▁حکموں	-11719
▁خواست	-11720
▁دشوار	-11721
▁دھاگے	-11722
▁ذخیرے	-11723
▁ریسیپ	-11724
▁ضوابط	-11725
▁ضیافت	-11726
▁عائشہ	-11727
▁مالوا	-11728
▁مزاحم	-11729
▁مطلوب	-11730
▁موقوف	-11731
▁ویلتھ	-11732
▁ٹرائی	-11733
▁ٹھاکر	-11734
▁کراچی	-11735
▁کندھے	-11736
▁کوئنز	-11737
▁کوریو	-11738
▁کھاری	-11739
▁کینڈی	-11740
▁ہینڈر	-11741
▁اردگرد	-11742
▁ازدواج	-11743
▁افسردہ	-11744
▁امتیاز	-11745
▁انبیائ	-11746
▁انتباہ	-11747
▁بادامی	-11748
▁بذریعہ	-11749
▁بنائی۔	-11750
▁بھتیجے	-11751
▁بینکوں	-11752
▁جاسوسی	-11753
▁رپورٹس	-11754
▁سبزیوں	-11755
▁سرکردہ	-11756
▁سیکوئل	-11757
▁سیکھنا	-11758
▁شیلانگ	-11759
▁مختاری	-11760
▁مصالحے	-11761
▁مواخذہ	-11762
▁نارنجی	-11763
▁پسندوں	-11764
▁کرتاہے	-11765
▁کھولیں	-11766
▁ہوگئیں	-11767
▁اروناچل	-11768
▁اشرافیہ	-11769
▁السرٹیو	-11770
▁اکثریتی	-11771
▁جنگلاتی	-11772
▁رجحانات	-11773
▁محتاجوں	-11774
▁مدمقابل	-11775
▁مطالبات	-11776
▁گورنمنٹ	-11777
▁اوقیانوس	-11778
▁رہائشیوں	-11779
▁ڈیولپمنٹ	-11780
▁فرمانبرداروں	-11781
)!	-11782
36	-11783
43	-11784
45	-11785
48	-11786
AN	-11787
ED	-11788
SI	-11789
uk	-11790
بش	-11791
وچ	-11792
َو	-11793
ََ	-11794
ّط	-11795
---	-11796
ari	-11797
ائص	-11798
ائض	-11799
ایچ	-11800
باط	-11801
برک	-11802
خوش	-11803
لیش	-11804
نتی	-11805
نسن	-11806
ٹنر	-11807
ٹیہ	-11808
ژاد	-11809
کوہ	-11810
▁00	-11811
▁99	-11812
▁en	-11813
▁sc	-11814
▁ئی	-11815
▁جُ	-11816
▁شن	-11817
▁يہ	-11818
ارنی	-11819
انڈے	-11820
اہلِ	-11821
جادو	-11822
ریاں	-11823
عیات	-11824
منٹن	-11825
ونری	-11826
ونڈو	-11827
پورا	-11828
▁2.5	-11829
▁700	-11830
▁mer	-11831
▁our	-11832
▁ادل	-11833
▁برک	-11834
▁بکو	-11835
▁بیم	-11836
▁جزو	-11837
▁جیا	-11838
▁حذف	-11839
▁خلو	-11840
▁ربڑ	-11841
▁سرم	-11842
▁سچن	-11843
▁قصد	-11844
▁قند	-11845
▁لے۔	-11846
▁معص	-11847
▁چاق	-11848
▁چاو	-11849
▁چلۓ	-11850
▁ڈار	-11851
▁گام	-11852
▁گوب	-11853
▁گھن	-11854
▁ہمہ	-11855
▁ہیم	-11856
▁ہیٹ	-11857
lease	-11858
ائزنگ	-11859
ائیکل	-11860
افسوس	-11861
بالکل	-11862
▁1934	-11863
▁آئرش	-11864
▁آئیے	-11865
▁اجیت	-11866
▁اُمت	-11867
▁باجی	-11868
▁بخیر	-11869
▁تارے	-11870
▁تجزی	-11871
▁جنتا	-11872
▁جھون	-11873
▁حصّے	-11874
▁خارش	-11875
▁خامی	-11876
▁دانی	-11877
▁دھڑک	-11878
▁سبزہ	-11879
▁سستے	-11880
▁سوجن	-11881
▁شیٹی	-11882
▁فشاں	-11883
▁لذیذ	-11884
▁لطیف	-11885
▁لمحہ	-11886
▁موٹے	-11887
▁نذیر	-11888
▁نغمہ	-11889
▁نفاذ	-11890
▁نندا	-11891
▁نوبل	-11892
▁نویں	-11893
▁نژاد	-11894
▁وارڈ	-11895
▁ویگن	-11896
▁ٹونی	-11897
▁پاسک	-11898
▁پھوڑ	-11899
▁پھٹی	-11900
▁ڈزنی	-11901
▁ڈپٹی	-11902
▁ڈینی	-11903
▁کپڑا	-11904
▁کیچڑ	-11905
▁گلاب	-11906
▁گوتھ	-11907
▁گوہا	-11908
▁ہریک	-11909
▁ہیمل	-11910
یونانی	-11911
▁آرائی	-11912
▁الادا	-11913
▁باطنی	-11914
▁تفرقہ	-11915
▁خلیفہ	-11916
▁دوروں	-11917
▁راشٹر	-11918
▁سنگلز	-11919
▁شانتی	-11920
▁صدارت	-11921
▁عموما	-11922
▁قوتوں	-11923
▁مالیت	-11924
▁ماڈلز	-11925
▁مسوری	-11926
▁مشکوک	-11927
▁معمار	-11928
▁میواڑ	-11929
▁ناتھن	-11930
▁وسیلہ	-11931
▁پاؤڈر	-11932
▁پرکشش	-11933
▁پچھلا	-11934
▁پیالے	-11935
▁پیانو	-11936
▁پیشرو	-11937
▁گنوار	-11938
▁ہنگری	-11939
ولوجیکل	-11940
▁انسانو	-11941
▁بالاتر	-11942
▁تالیاں	-11943
▁جھوٹوں	-11944
▁دیسائی	-11945
▁دیوالی	-11946
▁رقاصوں	-11947
▁سائنسز	-11948
▁سیلابی	-11949
▁شائستہ	-11950
▁طاقتوں	-11951
▁غریبوں	-11952
▁مالدار	-11953
▁ممالیہ	-11954
▁ناخوشی	-11955
▁نشستوں	-11956
▁پروٹوک	-11957
▁گولیوں	-11958
▁گھومتے	-11959
▁آبادیوں	-11960
▁القاعدہ	-11961
▁دارجلنگ	-11962
▁راجکمار	-11963
▁سرگرداں	-11964
▁لاٹھیاں	-11965
▁مجرمانہ	-11966
▁مدارینی	-11967
▁مذاکرات	-11968
▁معیارات	-11969
▁موسمیات	-11970
▁مچھلیاں	-11971
▁پروفائل	-11972
▁ڈرامائی	-11973
▁بائیوٹکس	-11974
▁عقلمندوں	-11975
▁کارپوریٹ	-11976
▁آسٹریلیائی	-11977
▁کارروائیوں	-11978
27	-11979
56	-11980
ep	-11981
ko	-11982
ux	-11983
بڑ	-11984
عب	-11985
urn	-11986
ارم	-11987
توڑ	-11988
جبر	-11989
رجی	-11990
شائ	-11991
عیس	-11992
لوا	-11993
ملک	-11994
وکا	-11995
ویڈ	-11996
ِسم	-11997
ٰیہ	-11998
کوس	-11999
گول	-12000
یئے	-12001
یتر	-12002
▁1)	-12003
▁91	-12004
▁CO	-12005
▁ٹم	-12006
▁یش	-12007
ings	-12008
بستی	-12009
جیسا	-12010
زبرگ	-12011
زروی	-12012
نازل	-12013
نٹری	-12014
وطنی	-12015
ویلا	-12016
ڈوکس	-12017
▁But	-12018
▁آذر	-12019
▁اوز	-12020
▁بلغ	-12021
▁جیب	-12022
▁عمد	-12023
▁کھي	-12024
▁گيا	-12025
دوسرے	-12026
عبادت	-12027
یعقوب	-12028
▁1938	-12029
▁آئرن	-12030
▁اڈوں	-12031
▁اگرت	-12032
▁بیٹر	-12033
▁بیکر	-12034
▁تالم	-12035
▁حکمِ	-12036
▁خرچی	-12037
▁خوری	-12038
▁ذرات	-12039
▁راکٹ	-12040
▁رگوں	-12041
▁ریئل	-12042
▁سمیر	-12043
▁سورہ	-12044
▁سوری	-12045
▁محاذ	-12046
▁مونٹ	-12047
▁مکئی	-12048
▁مینا	-12049
▁نکھل	-12050
▁وائے	-12051
▁ویرو	-12052
▁پالے	-12053
▁پورہ	-12054
▁پٹنہ	-12055
▁پیئر	-12056
▁چہار	-12057
▁کھود	-12058
بالآخر	-12059
▁manfi	-12060
▁آسودہ	-12061
▁اترتا	-12062
▁انڈسٹ	-12063
▁انیتا	-12064
▁اُنہی	-12065
▁اکنام	-12066
▁ایڈمن	-12067
▁بدلتی	-12068
▁بھوشن	-12069
▁جاتیں	-12070
▁جینتی	-12071
▁خاصیت	-12072
▁زکوِٰ	-12073
▁شاداب	-12074
▁شخصوں	-12075
▁شرارت	-12076
▁فرائض	-12077
▁ماؤتھ	-12078
▁منجمد	-12079
▁نشیبی	-12080
▁نکالو	-12081
▁نہانے	-12082
▁ٹاکرا	-12083
▁ٹوٹنے	-12084
▁ٹھٹھا	-12085
▁پیاری	-12086
▁کلارک	-12087
▁کھونے	-12088
▁کیڑوں	-12089
▁ہیلمٹ	-12090
▁اسمارٹ	-12091
▁اسپرنگ	-12092
▁اشاروں	-12093
▁الٰہیہ	-12094
▁ایڈریس	-12095
▁بیزاری	-12096
▁تحقیقی	-12097
▁جزیروں	-12098
▁زہریلے	-12099
▁سلائیڈ	-12100
▁لائنیں	-12101
▁معاونت	-12102
▁مونیکا	-12103
▁ناگپور	-12104
▁پڑھائی	-12105
▁چیونٹی	-12106
▁ڈھلوان	-12107
▁کالونی	-12108
▁گویائی	-12109
▁گھرانہ	-12110
▁ہمسایہ	-12111
▁یوکرین	-12112
▁استعفیٰ	-12113
▁الحکومت	-12114
▁تائیوان	-12115
▁زنجیروں	-12116
▁پینٹنگز	-12117
▁یکشگانا	-12118
▁بدعنوانی	-12119
▁لیبارٹری	-12120
▁مونٹریال	-12121
▁پیداواری	-12122
▁چالوکیوں	-12123
▁پرتگالیوں	-12124
▁تھیلیسیمیا	-12125
▁آرکیالوجیکل	-12126
-"	-12127
RL	-12128
ro	-12129
آت	-12130
ذن	-12131
نل	-12132
ً)	-12133
-19	-12134
ish	-12135
اجر	-12136
الس	-12137
ستر	-12138
لبھ	-12139
ورز	-12140
ولف	-12141
پاس	-12142
ڈرن	-12143
▁2،	-12144
▁66	-12145
▁95	-12146
▁Th	-12147
▁by	-12148
▁ذی	-12149
▁زي	-12150
▁فش	-12151
▁نٹ	-12152
▁گۓ	-12153
omet	-12154
بتاؤ	-12155
زندہ	-12156
لیٹک	-12157
مالا	-12158
نڈوں	-12159
▁day	-12160
▁hen	-12161
▁muj	-12162
▁won	-12163
▁اجے	-12164
▁انک	-12165
▁جوا	-12166
▁جھر	-12167
▁دال	-12168
▁شتر	-12169
▁عصر	-12170
▁پخت	-12171
▁ڈبے	-12172
▁ڈکی	-12173
دنیات	-12174
مبٹور	-12175
واسطہ	-12176
▁1857	-12177
▁1939	-12178
▁phir	-12179
▁آریہ	-12180
▁ایجو	-12181
▁باطن	-12182
▁بٹھا	-12183
▁بڑوں	-12184
▁بکھر	-12185
▁جمال	-12186
▁خاصی	-12187
▁خواه	-12188
▁خوشے	-12189
▁دونو	-12190
▁دیسی	-12191
▁زحمت	-12192
▁سلوپ	-12193
▁سنیا	-12194
▁فضلہ	-12195
▁موقف	-12196
▁مونگ	-12197
▁پائپ	-12198
▁پلڑے	-12199
▁چاقو	-12200
▁گھڑت	-12201
▁ہاور	-12202
ہندوست	-12203
▁آیاتِ	-12204
▁اسکال	-12205
▁القدس	-12206
▁الہیٰ	-12207
▁انٹرا	-12208
▁اُٹھا	-12209
▁ایپلی	-12210
▁بالاد	-12211
▁باڈیز	-12212
▁بہتوں	-12213
▁بیدار	-12214
▁تردید	-12215
▁تکبّر	-12216
▁خریدے	-12217
▁دعاؤں	-12218
▁دیرپا	-12219
▁راجدھ	-12220
▁راستی	-12221
▁ریشمی	-12222
▁سنائے	-12223
▁صداقت	-12224
▁عضلات	-12225
▁غمناک	-12226
▁قاعدے	-12227
▁مارکس	-12228
▁متضاد	-12229
▁مدتوں	-12230
▁معدنی	-12231
▁مقرره	-12232
▁نیورو	-12233
▁پدمنی	-12234
▁چکھو۔	-12235
▁کفران	-12236
▁کوئین	-12237
▁گذشتہ	-12238
▁گردوں	-12239
▁گلیوں	-12240
▁ہےاور	-12241
▁اشتہار	-12242
▁امپائر	-12243
▁اٹارنی	-12244
▁باحکمت	-12245
▁براعظم	-12246
▁بڑھائے	-12247
▁بھوٹان	-12248
▁روزگار	-12249
▁سازگار	-12250
▁سلسلوں	-12251
▁سکھائی	-12252
▁علانیہ	-12253
▁قبولیت	-12254
▁قدردان	-12255
▁محاصرے	-12256
▁مشابہت	-12257
▁معذوری	-12258
▁ملیریا	-12259
▁منزلیں	-12260
▁مہاراج	-12261
▁ناکافی	-12262
▁پہلوان	-12263
▁پہچانا	-12264
▁گیندوں	-12265
▁اسٹینلے	-12266
▁اسکورنگ	-12267
▁اٹلانٹا	-12268
▁دیواریں	-12269
▁سمجھوتہ	-12270
▁سنبھالی	-12271
▁ناراضگی	-12272
▁ٹھیرائے	-12273
▁کھینچتے	-12274
▁گوداوری	-12275
▁تیندولکر	-12276
▁جاگیردار	-12277
▁کراکوژیہ	-12278
▁آرتھوڈوکس	-12279
▁پارلیمانی	-12280
ffffffffffffffff	-12281
49	-12282
اك	-12283
دۂ	-12284
شد	-12285
ژی	-12286
ہد	-12287
ure	-12288
ئے۔	-12289
اطب	-12290
دائ	-12291
روا	-12292
سلا	-12293
شہر	-12294
عار	-12295
لبے	-12296
ننہ	-12297
نڈو	-12298
ویا	-12299
ٰہی	-12300
پوں	-12301
پڑی	-12302
پیا	-12303
گئی	-12304
گام	-12305
▁ma	-12306
▁زم	-12307
▁مگ	-12308
▁وح	-12309
▁کڈ	-12310
▁یر	-12311
▁یں	-12312
hoon	-12313
انند	-12314
تابی	-12315
تیں۔	-12316
جاتی	-12317
داخل	-12318
روزِ	-12319
ریٹو	-12320
ساتھ	-12321
مودی	-12322
مومن	-12323
والا	-12324
پوژا	-12325
کامل	-12326
کرام	-12327
یاگو	-12328
یسٹر	-12329
▁1,5	-12330
▁آبش	-12331
▁اری	-12332
▁بقا	-12333
▁رست	-12334
▁زنی	-12335
▁سجھ	-12336
▁سیڈ	-12337
▁شعر	-12338
▁فہم	-12339
▁قاز	-12340
▁لڑا	-12341
▁مجی	-12342
▁کرک	-12343
▁گاؤ	-12344
▁گوم	-12345
احسان	-12346
تورات	-12347
دراصل	-12348
چیزوں	-12349
ڑھیاں	-12350
▁1500	-12351
▁1929	-12352
▁1937	-12353
▁They	-12354
▁only	-12355
▁side	-12356
▁انگو	-12357
▁بخیل	-12358
▁بسیں	-12359
▁بھجن	-12360
▁ترکہ	-12361
▁تقرب	-12362
▁تھیم	-12363
▁جتھا	-12364
▁جوشی	-12365
▁جھپک	-12366
▁دلیپ	-12367
▁دھکے	-12368
▁راوی	-12369
▁ریاض	-12370
▁سیکس	-12371
▁شفاف	-12372
▁شہوت	-12373
▁صدیق	-12374
▁صنفی	-12375
▁طاری	-12376
▁عصری	-12377
▁غدود	-12378
▁لبرل	-12379
▁مداح	-12380
▁مریں	-12381
▁موجب	-12382
▁میتھ	-12383
▁ناصر	-12384
▁نےان	-12385
▁پورب	-12386
▁چوڑا	-12387
▁چوکی	-12388
▁کاہن	-12389
▁کرون	-12390
▁کنیا	-12391
▁گاری	-12392
▁گردے	-12393
▁گڑھو	-12394
▁ہائٹ	-12395
▁ہڑپہ	-12396
▁ہیما	-12397
بادشاہ	-12398
سٹریشن	-12399
▁آرڈرز	-12400
▁آسکتا	-12401
▁ارادے	-12402
▁انخلا	-12403
▁اورتم	-12404
▁بقایا	-12405
▁بلوغت	-12406
▁بندوس	-12407
▁بودھی	-12408
▁بکواس	-12409
▁بےخوف	-12410
▁تحسین	-12411
▁دہانے	-12412
▁رازوں	-12413
▁روکیں	-12414
▁سائیک	-12415
▁عالیہ	-12416
▁لہریں	-12417
▁مادھو	-12418
▁مہنگے	-12419
▁نسلیں	-12420
▁ٹھیکی	-12421
▁پنچمی	-12422
▁پچھتا	-12423
▁پیارا	-12424
▁چھاپے	-12425
▁کفایت	-12426
▁کھلاؤ	-12427
▁کیپٹل	-12428
▁ہیٹرو	-12429
▁آرائشی	-12430
▁اثاثوں	-12431
▁انعامی	-12432
▁اٹھائی	-12433
▁برسائی	-12434
▁برسائے	-12435
▁بھاگنا	-12436
▁بیسویں	-12437
▁رینگنے	-12438
▁زاویوں	-12439
▁سینٹرل	-12440
▁فسادات	-12441
▁قابلیت	-12442
▁ماڈلنگ	-12443
▁مدافعت	-12444
▁مشاورت	-12445
▁مفادات	-12446
▁مکالمے	-12447
▁کوسٹکو	-12448
▁ہیوسٹن	-12449
▁fucking	-12450
▁آبشاروں	-12451
▁انٹرفیس	-12452
▁بدسلوکی	-12453
▁بدکاروں	-12454
▁دستیابی	-12455
▁طبیعیات	-12456
▁علامتوں	-12457
▁فرستادہ	-12458
▁پراسرار	-12459
▁کتھاکلی	-12460
▁کیروٹین	-12461
▁انتظامات	-12462
▁انگلستان	-12463
▁جانداروں	-12464
▁راجدھانی	-12465
▁پروٹوکول	-12466
▁کروموسوم	-12467
▁کولوراڈو	-12468
▁کامیابیوں	-12469
66	-12470
91	-12471
aa	-12472
پڑ	-12473
ہل	-12474
یی	-12475
اسن	-12476
انم	-12477
ثیر	-12478
جیت	-12479
لہے	-12480
نٹر	-12481
ونل	-12482
کاف	-12483
گوا	-12484
ہان	-12485
▁(%	-12486
▁62	-12487
▁94	-12488
▁لت	-12489
▁نل	-12490
▁ڈش	-12491
ائرن	-12492
ابھا	-12493
بطور	-12494
بیٹا	-12495
خانے	-12496
ریٹس	-12497
سورج	-12498
مبری	-12499
وارض	-12500
وایا	-12501
ویسی	-12502
پورم	-12503
کرنی	-12504
کوار	-12505
▁140	-12506
▁che	-12507
▁sey	-12508
▁آلِ	-12509
▁اڑے	-12510
▁بون	-12511
▁جبل	-12512
▁سپی	-12513
▁شجر	-12514
▁شرف	-12515
▁لٹل	-12516
▁لیڈ	-12517
▁مزه	-12518
▁ننگ	-12519
▁واٹ	-12520
▁پرل	-12521
▁پلگ	-12522
▁کوک	-12523
▁گال	-12524
▁گبر	-12525
▁گفٹ	-12526
▁ہاک	-12527
▁ہچک	-12528
ارشاد	-12529
زیانا	-12530
قبروں	-12531
پولیس	-12532
▁1924	-12533
▁1927	-12534
▁hoon	-12535
▁talk	-12536
▁ابدی	-12537
▁امیت	-12538
▁اڑتے	-12539
▁ایام	-12540
▁بنال	-12541
▁بونس	-12542
▁بکھی	-12543
▁جھڑک	-12544
▁درون	-12545
▁درپے	-12546
▁دنگل	-12547
▁دیدے	-12548
▁ریلے	-12549
▁زاری	-12550
▁زکوا	-12551
▁سوفٹ	-12552
▁شریف	-12553
▁صوفی	-12554
▁ضامن	-12555
▁علما	-12556
▁لیجی	-12557
▁لیگز	-12558
▁مقنا	-12559
▁نرسم	-12560
▁ورون	-12561
▁ٹوپی	-12562
▁پریف	-12563
▁پچھم	-12564
▁پڑنا	-12565
▁پھٹے	-12566
▁ڈھکا	-12567
▁کنال	-12568
▁کوبا	-12569
▁کولی	-12570
▁کوکی	-12571
▁کھیر	-12572
▁گروی	-12573
▁گندھ	-12574
▁ہارن	-12575
خبریاں	-12576
علیہما	-12577
لادھار	-12578
▁احرام	-12579
▁اسپیس	-12580
▁انصار	-12581
▁ایڈون	-12582
▁بڑھیں	-12583
▁بھیما	-12584
▁بہبود	-12585
▁تجزیے	-12586
▁تماشے	-12587
▁تکرار	-12588
▁داؤدؑ	-12589
▁روکتی	-12590
▁سیارے	-12591
▁علموں	-12592
▁عوارض	-12593
▁مانوس	-12594
▁متوسط	-12595
▁محمدی	-12596
▁مخاطب	-12597
▁مقننہ	-12598
▁میانہ	-12599
▁میخوں	-12600
▁ناشکر	-12601
▁ویدوں	-12602
▁ٹھنڈے	-12603
▁ٹیمپل	-12604
▁پسمان	-12605
▁پلیئر	-12606
▁چڑھتے	-12607
▁چھائی	-12608
▁چھاپہ	-12609
▁ڈرافٹ	-12610
▁ڈریگن	-12611
▁کارٹر	-12612
▁کوریج	-12613
▁کونسا	-12614
▁کھاسی	-12615
▁کیمپس	-12616
▁گریٹر	-12617
▁اسٹریم	-12618
▁اسکالر	-12619
▁اسکواڈ	-12620
▁بچھایا	-12621
▁بینکنگ	-12622
▁حادثات	-12623
▁خطاکار	-12624
▁دراوڑی	-12625
▁دستانے	-12626
▁رفتاری	-12627
▁شناختی	-12628
▁شگافتہ	-12629
▁فلسطین	-12630
▁قندھار	-12631
▁محرکات	-12632
▁مستقیم	-12633
▁موسموں	-12634
▁نپولین	-12635
▁چاہتا۔	-12636
▁کانپور	-12637
▁کورونا	-12638
▁کہلانے	-12639
▁احساسات	-12640
▁استطاعت	-12641
▁اوراللہ	-12642
▁بیجاپور	-12643
▁زنجیریں	-12644
▁مستثنیٰ	-12645
▁معدنیات	-12646
▁وفاداری	-12647
▁پراجیکٹ	-12648
▁ڈیزائنر	-12649
▁ایجوکیشن	-12650
▁داستانوں	-12651
▁سائنسدان	-12652
▁شاہراہوں	-12653
▁کوئمبٹور	-12654
▁خوشخبریاں	-12655
▁رضاکارانہ	-12656
حِ	-12657
فِ	-12658
وئ	-12659
200	-12660
che	-12661
ies	-12662
lay	-12663
ous	-12664
top	-12665
اپٹ	-12666
جیز	-12667
حکہ	-12668
داء	-12669
سکی	-12670
عقل	-12671
میا	-12672
کوپ	-12673
ہوا	-12674
▁(5	-12675
▁(8	-12676
▁2,	-12677
▁77	-12678
▁MR	-12679
▁آک	-12680
▁ذِ	-12681
▁صا	-12682
▁ود	-12683
ared	-12684
ouse	-12685
بھلا	-12686
دریا	-12687
فریب	-12688
مقدس	-12689
وٹھی	-12690
پھال	-12691
کلام	-12692
گاؤں	-12693
گاہک	-12694
▁bir	-12695
▁let	-12696
▁اپر	-12697
▁بوہ	-12698
▁بپا	-12699
▁جِن	-12700
▁جگم	-12701
▁جیر	-12702
▁رُخ	-12703
▁زنا	-12704
▁سوت	-12705
▁سوڈ	-12706
▁شیز	-12707
▁فجی	-12708
▁مسر	-12709
▁منف	-12710
▁نرا	-12711
▁نشا	-12712
▁نڈر	-12713
▁نیگ	-12714
▁کمب	-12715
▁کنس	-12716
▁گدا	-12717
▁گپت	-12718
▁گیے	-12719
▁ہیو	-12720
▁ہیگ	-12721
ادیتا	-12722
تقریب	-12723
دگیاں	-12724
دہانی	-12725
سٹریٹ	-12726
وبائل	-12727
کفّار	-12728
▁1932	-12729
▁1935	-12730
▁hoga	-12731
▁آئیز	-12732
▁آلود	-12733
▁استھ	-12734
▁اننت	-12735
▁اودھ	-12736
▁اَمر	-12737
▁ایلو	-12738
▁بلاگ	-12739
▁بورو	-12740
▁بُرا	-12741
▁بھار	-12742
▁تولو	-12743
▁تولی	-12744
▁جایں	-12745
▁جونز	-12746
▁جکڑے	-12747
▁جھلس	-12748
▁حتیٰ	-12749
▁حجاب	-12750
▁خاکہ	-12751
▁درشن	-12752
▁دوڑے	-12753
▁روئی	-12754
▁رودر	-12755
▁ریکٹ	-12756
▁سوپر	-12757
▁سیون	-12758
▁طعنہ	-12759
▁فاری	-12760
▁قائد	-12761
▁لینگ	-12762
▁محکم	-12763
▁ملاپ	-12764
▁مینھ	-12765
▁میڈم	-12766
▁نائی	-12767
▁نانی	-12768
▁نصاب	-12769
▁نچوڑ	-12770
▁وینس	-12771
▁ٹائر	-12772
▁پلٹو	-12773
▁پچھت	-12774
▁پینل	-12775
▁کریک	-12776
▁کوآپ	-12777
▁گستا	-12778
▁گڑھے	-12779
▁گھٹا	-12780
▁ہراس	-12781
▁under	-12782
▁آسکتے	-12783
▁آوروں	-12784
▁الیکس	-12785
▁اندور	-12786
▁اوزار	-12787
▁اڈوکی	-12788
▁ایلیٹ	-12789
▁بارود	-12790
▁بولتی	-12791
▁بھاگو	-12792
▁بھینس	-12793
▁بیلنس	-12794
▁تراشی	-12795
▁تصادم	-12796
▁جالوت	-12797
▁داہنی	-12798
▁رائفل	-12799
▁راتیں	-12800
▁سجاوٹ	-12801
▁سندھی	-12802
▁سینما	-12803
▁شعلوں	-12804
▁شکستہ	-12805
▁لاتے۔	-12806
▁لبنان	-12807
▁لقمان	-12808
▁لکھا۔	-12809
▁لگیں۔	-12810
▁محشور	-12811
▁مریمؑ	-12812
▁مساجد	-12813
▁مضحکہ	-12814
▁مظلوم	-12815
▁منائے	-12816
▁منحرف	-12817
▁مُردہ	-12818
▁میلوں	-12819
▁پرندہ	-12820
▁پلکوں	-12821
▁پہنتی	-12822
▁کرانا	-12823
▁کشاده	-12824
▁کوسٹا	-12825
▁کھلنے	-12826
▁گھسیٹ	-12827
▁ہوسکا	-12828
▁امارات	-12829
▁امپھال	-12830
▁انصافی	-12831
▁ایڈیٹر	-12832
▁بہادری	-12833
▁بیلجیم	-12834
▁جرمانے	-12835
▁رامائن	-12836
▁سبزیاں	-12837
▁فریقوں	-12838
▁لگایا۔	-12839
▁مضائقہ	-12840
▁موتیوں	-12841
▁مگرمچھ	-12842
▁مہابلی	-12843
▁نمائشی	-12844
▁نمونیا	-12845
▁نیلامی	-12846
▁ٹرینوں	-12847
▁پاکیزه	-12848
▁پرانوں	-12849
▁پھیلتا	-12850
▁ڈالیں۔	-12851
▁کاپیاں	-12852
▁کھیلتی	-12853
▁کہلاتا	-12854
▁کیوبیک	-12855
▁اسپانسر	-12856
▁اسکیٹنگ	-12857
▁اندازوں	-12858
▁اندھیری	-12859
▁انگوٹھی	-12860
▁انیسویں	-12861
▁ترتیبات	-12862
▁ریٹینول	-12863
▁سمجھانے	-12864
▁قصوروار	-12865
▁لوزیانا	-12866
▁میانمار	-12867
▁میموریل	-12868
▁وارانسی	-12869
▁ویرکودر	-12870
▁ٹھیراتے	-12871
▁پانڈووں	-12872
▁پکوانوں	-12873
▁پھینکنا	-12874
▁کوریائی	-12875
▁function	-12876
▁اخلاقیات	-12877
▁انسٹرکٹر	-12878
▁اورانہوں	-12879
▁خوشبودار	-12880
▁داستانیں	-12881
▁ماحولیات	-12882
▁پہنچایا۔	-12883
▁گلوکاروں	-12884
▁ادائیگیوں	-12885
▁انفارمیشن	-12886
ON	-12887
بٹ	-12888
حش	-12889
ني	-12890
ast	-12891
gle	-12892
oth	-12893
آنے	-12894
جمن	-12895
شام	-12896
فور	-12897
ماں	-12898
مرد	-12899
وحی	-12900
پری	-12901
ڈوس	-12902
کھڑ	-12903
ہول	-12904
یری	-12905
▁2)	-12906
▁If	-12907
▁po	-12908
▁ري	-12909
▁قو	-12910
-200	-12911
ough	-12912
ادیت	-12913
تعال	-12914
طیسی	-12915
مبرگ	-12916
نڈور	-12917
وترا	-12918
کایا	-12919
کھلے	-12920
یناش	-12921
▁Aur	-12922
▁God	-12923
▁Par	-12924
▁see	-12925
▁soo	-12926
▁woh	-12927
▁افی	-12928
▁اوٹ	-12929
▁جاز	-12930
▁رعب	-12931
▁زیڈ	-12932
▁ساؤ	-12933
▁سُو	-12934
▁شٹل	-12935
▁صاد	-12936
▁لنچ	-12937
▁لپک	-12938
▁مگن	-12939
▁ٹرو	-12940
▁پرم	-12941
▁چپو	-12942
▁کوا	-12943
▁کھُ	-12944
▁گشت	-12945
▁ھوں	-12946
▁ہنی	-12947
بنایا	-12948
عذابِ	-12949
لادیا	-12950
مبتلا	-12951
والوں	-12952
ودھری	-12953
ودھیا	-12954
▁1912	-12955
▁1944	-12956
▁Come	-12957
▁didn	-12958
▁kill	-12959
▁oper	-12960
▁اسپی	-12961
▁انار	-12962
▁انہو	-12963
▁ایبل	-12964
▁بھید	-12965
▁تخیل	-12966
▁تکشف	-12967
▁تھوک	-12968
▁جوتم	-12969
▁خبیث	-12970
▁دبئی	-12971
▁راول	-12972
▁رنجی	-12973
▁ریٹن	-12974
▁زیاں	-12975
▁سرخی	-12976
▁سیسہ	-12977
▁طرفہ	-12978
▁عجمی	-12979
▁فالو	-12980
▁فہمی	-12981
▁قابض	-12982
▁قمیص	-12983
▁لادے	-12984
▁لوٹے	-12985
▁لیزر	-12986
▁لیوس	-12987
▁ماڈی	-12988
▁مدھو	-12989
▁مصری	-12990
▁مودی	-12991
▁میٹل	-12992
▁نانا	-12993
▁نسخہ	-12994
▁نینٹ	-12995
▁پریڈ	-12996
▁پیشی	-12997
▁چتوڑ	-12998
▁ڈرنا	-12999
▁کامر	-13000
▁کرّے	-13001
▁کوڈز	-13002
▁گیئر	-13003
▁یکسو	-13004
eanine	-13005
rother	-13006
▁5,000	-13007
▁lagde	-13008
▁zarab	-13009
▁آفیشل	-13010
▁افرات	-13011
▁الموت	-13012
▁اڑیسہ	-13013
▁اگایا	-13014
▁جانچا	-13015
▁جمائے	-13016
▁دلدلی	-13017
▁رسیدہ	-13018
▁روابط	-13019
▁سطحیں	-13020
▁سیٹیں	-13021
▁ضابطہ	-13022
▁عطیات	-13023
▁فارمی	-13024
▁قسمتی	-13025
▁لارنس	-13026
▁لوٹیں	-13027
▁ملانے	-13028
▁ملٹری	-13029
▁مڈفیل	-13030
▁میامی	-13031
▁میٹاب	-13032
▁نقائص	-13033
▁وسکون	-13034
▁پھنسے	-13035
▁پھیری	-13036
▁پہننا	-13037
▁پہنیں	-13038
▁چینلز	-13039
▁ڈالتی	-13040
▁کارگل	-13041
▁کشائی	-13042
▁کنفیڈ	-13043
▁گلوبل	-13044
▁ہونا۔	-13045
▁اتحادی	-13046
▁ارتقاء	-13047
▁انچارج	-13048
▁اینٹوں	-13049
▁بازپرس	-13050
▁بڑھاپا	-13051
▁تندرست	-13052
▁حرکتوں	-13053
▁دلیلوں	-13054
▁رابطوں	-13055
▁غضبناک	-13056
▁مسجدیں	-13057
▁مضافات	-13058
▁مماثلت	-13059
▁پیرالم	-13060
▁چترتھی	-13061
▁کافرین	-13062
▁کوہیما	-13063
▁گاڑیاں	-13064
▁گووندا	-13065
▁گوہاٹی	-13066
▁ہارورڈ	-13067
▁آذربائی	-13068
▁آکسائیڈ	-13069
▁انقلابی	-13070
▁اینڈریو	-13071
▁بالخصوص	-13072
▁بیڈمنٹن	-13073
▁تعطیلات	-13074
▁تنبیہات	-13075
▁عدالتوں	-13076
▁ماؤنٹین	-13077
▁مینگروو	-13078
▁نامیاتی	-13079
▁ٹھیرایا	-13080
▁گلوکارہ	-13081
▁ارجنٹینا	-13082
▁اسکرینوں	-13083
▁امانتدار	-13084
▁اکاؤنٹنٹ	-13085
▁خواستگار	-13086
▁فنکارانہ	-13087
▁نمائندوں	-13088
▁نینٹینڈو	-13089
▁ہیمپشائر	-13090
▁یاددہانی	-13091
▁موسلادھار	-13092
▁ڈرائیوروں	-13093
▁آرگنائزیشن	-13094
▁یونیورسٹیوں	-13095
23	-13096
29	-13097
46	-13098
88	-13099
RI	-13100
آؤ	-13101
فض	-13102
مط	-13103
يز	-13104
100	-13105
:00	-13106
RLs	-13107
aye	-13108
ite	-13109
برز	-13110
خشک	-13111
شتو	-13112
شنے	-13113
غار	-13114
لوط	-13115
لون	-13116
واک	-13117
ورپ	-13118
يوں	-13119
ڈکٹ	-13120
کوف	-13121
گا۔	-13122
ھلا	-13123
ینل	-13124
▁3،	-13125
▁بَ	-13126
▁سگ	-13127
▁طن	-13128
▁هي	-13129
▁ہپ	-13130
What	-13131
امنی	-13132
اہے۔	-13133
بغیر	-13134
صالح	-13135
لیئر	-13136
معجز	-13137
میٹر	-13138
ناوت	-13139
نویر	-13140
وائے	-13141
ورمن	-13142
کھوں	-13143
▁2-1	-13144
▁TED	-13145
▁Yeh	-13146
▁who	-13147
▁ارض	-13148
▁الع	-13149
▁اوک	-13150
▁اُل	-13151
▁بغض	-13152
▁بہل	-13153
▁تک۔	-13154
▁جمی	-13155
▁جور	-13156
▁جکڑ	-13157
▁درب	-13158
▁دمہ	-13159
▁سلگ	-13160
▁سوٹ	-13161
▁ظفر	-13162
▁عجز	-13163
▁فرن	-13164
▁مجو	-13165
▁ملہ	-13166
▁مکس	-13167
▁مکھ	-13168
▁ٹیو	-13169
▁ٹیڈ	-13170
▁پند	-13171
▁کدم	-13172
▁کرپ	-13173
▁کنو	-13174
▁کُل	-13175
▁گوئ	-13176
ائیڈز	-13177
احکام	-13178
ازمات	-13179
اولاد	-13180
جائیں	-13181
قدرتِ	-13182
کھائی	-13183
گرداں	-13184
▁1890	-13185
▁jama	-13186
▁افزا	-13187
▁اگنی	-13188
▁بھوج	-13189
▁بیوہ	-13190
▁تحمل	-13191
▁جوتا	-13192
▁جوڈو	-13193
▁ساکن	-13194
▁سنیل	-13195
▁سونگ	-13196
▁سپرو	-13197
▁سچےّ	-13198
▁صادر	-13199
▁فتنے	-13200
▁قصاص	-13201
▁قِسم	-13202
▁نادم	-13203
▁نقدی	-13204
▁وشال	-13205
▁وشام	-13206
▁ٹوٹے	-13207
▁پوٹا	-13208
▁پھلی	-13209
▁پیتا	-13210
▁پیپر	-13211
▁چونا	-13212
▁چوڑے	-13213
▁چکیں	-13214
▁کلیس	-13215
▁کوڑے	-13216
▁کھمب	-13217
▁گرتی	-13218
▁گوپی	-13219
▁ہیمر	-13220
▁ہےجو	-13221
▁ہے۔۔	-13222
▁یادو	-13223
کائنات	-13224
▁اسٹال	-13225
▁املاک	-13226
▁اُتار	-13227
▁بجاتے	-13228
▁بدرجہ	-13229
▁بناؤ۔	-13230
▁بندھا	-13231
▁بچاتا	-13232
▁بکھیر	-13233
▁بیکٹی	-13234
▁بےنیا	-13235
▁تابوت	-13236
▁جمعیت	-13237
▁جینوم	-13238
▁حلقوں	-13239
▁دبانے	-13240
▁دوہرے	-13241
▁دکھلا	-13242
▁دھڑکن	-13243
▁دیگرے	-13244
▁روئیں	-13245
▁رودرا	-13246
▁سوارم	-13247
▁طرزوں	-13248
▁عارضے	-13249
▁قرنیہ	-13250
▁مملوک	-13251
▁ناٹیہ	-13252
▁وبائی	-13253
▁وقتوں	-13254
▁ویران	-13255
▁پکڑنا	-13256
▁پیشتر	-13257
▁چھاؤں	-13258
▁چہارم	-13259
▁ڈیفنس	-13260
▁کرچکا	-13261
▁50,000	-13262
▁failed	-13263
▁اسکیمک	-13264
▁الحرام	-13265
▁انڈیکس	-13266
▁اُمتوں	-13267
▁برانڈز	-13268
▁برکتوں	-13269
▁بڑھانا	-13270
▁سبکدوش	-13271
▁سکھاتے	-13272
▁فلمایا	-13273
▁لپیٹتا	-13274
▁محترمہ	-13275
▁مردانہ	-13276
▁نالیوں	-13277
▁ناواقف	-13278
▁پروسیس	-13279
▁پلٹایا	-13280
▁پڑھانے	-13281
▁گزارا۔	-13282
▁ہیروئن	-13283
▁اعلانیہ	-13284
▁الیکٹرک	-13285
▁تدبیروں	-13286
▁خنزیروں	-13287
▁دریودھن	-13288
▁دکھایا۔	-13289
▁رازداری	-13290
▁سیڑھیاں	-13291
▁لوازمات	-13292
▁معاہدوں	-13293
▁مڈفیلڈر	-13294
▁نگہبانی	-13295
▁وسکونسن	-13296
▁ٹھہرائے	-13297
▁یادداشت	-13298
▁یادگاری	-13299
▁افراتفری	-13300
▁ایتھلیٹک	-13301
▁بھلائیاں	-13302
▁خریداروں	-13303
▁درباریوں	-13304
▁مقناطیسی	-13305
▁ڈویلپمنٹ	-13306
▁انکارپوریٹڈ	-13307
▁مینوفیکچرنگ	-13308
93	-13309
av	-13310
cc	-13311
fa	-13312
هے	-13313
ٰع	-13314
ڈب	-13315
ary	-13316
oll	-13317
بھو	-13318
ثنا	-13319
جاؤ	-13320
جمہ	-13321
جیو	-13322
عہد	-13323
ملا	-13324
نتا	-13325
ولز	-13326
وکی	-13327
ٹنز	-13328
پلی	-13329
ڈوے	-13330
کسن	-13331
کنی	-13332
گاه	-13333
گور	-13334
گیو	-13335
یسا	-13336
▁3×	-13337
▁97	-13338
▁Sh	-13339
▁di	-13340
▁به	-13341
▁زچ	-13342
▁لٹ	-13343
able	-13344
تابھ	-13345
پوشی	-13346
چوئل	-13347
کوسس	-13348
گانگ	-13349
ہلاک	-13350
یکیٹ	-13351
یہود	-13352
▁how	-13353
▁آہٹ	-13354
▁تلخ	-13355
▁جرب	-13356
▁حلم	-13357
▁زار	-13358
▁ساہ	-13359
▁شین	-13360
▁فاق	-13361
▁فسق	-13362
▁قوس	-13363
▁لگن	-13364
▁لہو	-13365
▁نرو	-13366
▁وشو	-13367
▁وکر	-13368
▁چسپ	-13369
▁ڈیر	-13370
▁کلر	-13371
▁گان	-13372
▁ہوئ	-13373
▁یدھ	-13374
ادتیہ	-13375
استرا	-13376
استوں	-13377
انسان	-13378
بیٹھے	-13379
مانعت	-13380
کوپنگ	-13381
▁(200	-13382
▁1923	-13383
▁kuch	-13384
▁line	-13385
▁paas	-13386
▁اسنو	-13387
▁اوکے	-13388
▁اینا	-13389
▁ایڈن	-13390
▁بلکل	-13391
▁بنڈس	-13392
▁بودھ	-13393
▁بچھے	-13394
▁بھاؤ	-13395
▁بھنگ	-13396
▁بیٹل	-13397
▁تونے	-13398
▁تہجی	-13399
▁جواز	-13400
▁خداو	-13401
▁دراڑ	-13402
▁دلدل	-13403
▁دھرا	-13404
▁دیور	-13405
▁رسید	-13406
▁رفتہ	-13407
▁ریجن	-13408
▁سرجن	-13409
▁سلور	-13410
▁سنگی	-13411
▁سوچی	-13412
▁سیری	-13413
▁طلبا	-13414
▁فلیم	-13415
▁لئے۔	-13416
▁لہجے	-13417
▁مادی	-13418
▁مجید	-13419
▁مُہر	-13420
▁نزول	-13421
▁پالک	-13422
▁پھرا	-13423
▁پیزا	-13424
▁پیشے	-13425
▁کارپ	-13426
▁کروٹ	-13427
▁کشان	-13428
▁کیفے	-13429
▁گروس	-13430
▁گڑبڑ	-13431
▁ہوزے	-13432
▁ہٹلر	-13433
ecause	-13434
خبردار	-13435
دوسروں	-13436
یرائڈز	-13437
یکیشنز	-13438
▁think	-13439
▁آسامی	-13440
▁اخترا	-13441
▁ادریس	-13442
▁اسٹیو	-13443
▁اشٹمی	-13444
▁افواہ	-13445
▁اقلیت	-13446
▁اہلیت	-13447
▁ایکٹر	-13448
▁بدنام	-13449
▁بروکر	-13450
▁بولنا	-13451
▁تاثیر	-13452
▁تقرری	-13453
▁تلاشی	-13454
▁جمیکا	-13455
▁حراست	-13456
▁دعائے	-13457
▁دگمبر	-13458
▁رنجیت	-13459
▁رونما	-13460
▁ریویو	-13461
▁سائمن	-13462
▁شعیبؑ	-13463
▁شیروں	-13464
▁عسکری	-13465
▁فولیو	-13466
▁لیبیا	-13467
▁مجوزہ	-13468
▁مسلّط	-13469
▁مماثل	-13470
▁میکان	-13471
▁نامور	-13472
▁وکالت	-13473
▁ٹھہرو	-13474
▁ٹھیرے	-13475
▁پوسٹر	-13476
▁پیشین	-13477
▁چڑھاؤ	-13478
▁چھونے	-13479
▁کرکٹر	-13480
▁کوشاں	-13481
▁کولیس	-13482
▁کِھلی	-13483
▁کیتھی	-13484
▁گایوں	-13485
▁inform	-13486
▁استوپا	-13487
▁اسٹارز	-13488
▁اسپیشل	-13489
▁اشتعال	-13490
▁اعتقاد	-13491
▁امیجنگ	-13492
▁اویناش	-13493
▁اُتارا	-13494
▁ایمسٹر	-13495
▁بھیجے۔	-13496
▁توقعات	-13497
▁خریدیں	-13498
▁دیوانے	-13499
▁سرتابی	-13500
▁صحرائے	-13501
▁فرانسس	-13502
▁ممانعت	-13503
▁پارٹنر	-13504
▁پھینکی	-13505
▁پہنایا	-13506
▁چودھری	-13507
▁چٹانیں	-13508
▁کرائیں	-13509
▁کنزروی	-13510
▁کنواری	-13511
▁گھٹاتے	-13512
▁ہینڈرک	-13513
▁اسکالرز	-13514
▁امیتابھ	-13515
▁اوریگون	-13516
▁بدکردار	-13517
▁بلندیوں	-13518
▁بمقابلہ	-13519
▁جلاوطنی	-13520
▁جھاڑیوں	-13521
▁فرینکلن	-13522
▁مدورائی	-13523
▁کھنڈرات	-13524
▁ایڈوائزر	-13525
▁سرٹیفکیٹ	-13526
▁پریفیکچر	-13527
▁نافرمانیوں	-13528
28	-13529
84	-13530
SA	-13531
آئ	-13532
ثت	-13533
زب	-13534
زق	-13535
غن	-13536
مث	-13537
گہ	-13538
ach	-13539
ana	-13540
cha	-13541
cle	-13542
ign	-13543
ise	-13544
ren	-13545
اشی	-13546
باغ	-13547
بہم	-13548
جنو	-13549
راط	-13550
رحم	-13551
صلہ	-13552
قوت	-13553
ّین	-13554
کاس	-13555
کٹس	-13556
کچر	-13557
گمر	-13558
▁wr	-13559
▁°ّ	-13560
▁بڈ	-13561
▁رچ	-13562
▁غص	-13563
▁مے	-13564
▁نذ	-13565
▁هم	-13566
▁ڈک	-13567
جانے	-13568
دوست	-13569
دیدی	-13570
شیئر	-13571
فاقی	-13572
قائم	-13573
لیخا	-13574
محمد	-13575
نگوں	-13576
ودرا	-13577
وقار	-13578
ولیا	-13579
پہلی	-13580
کرنے	-13581
گانہ	-13582
گویا	-13583
ینرز	-13584
▁(10	-13585
▁2-0	-13586
▁Eun	-13587
▁آرم	-13588
▁ئیں	-13589
▁الپ	-13590
▁برڈ	-13591
▁جاب	-13592
▁جوس	-13593
▁جگن	-13594
▁خند	-13595
▁دہک	-13596
▁رند	-13597
▁سیت	-13598
▁شجا	-13599
▁فحش	-13600
▁لان	-13601
▁لَس	-13602
▁ڈیش	-13603
▁ڈیک	-13604
▁کوپ	-13605
▁کٹھ	-13606
▁کڑھ	-13607
▁گاڑ	-13608
▁ہٹو	-13609
▁یاز	-13610
Stock	-13611
ائدین	-13612
طریقہ	-13613
محفوظ	-13614
مومنو	-13615
ناٹیم	-13616
▁1905	-13617
▁1926	-13618
▁1931	-13619
▁3"°،	-13620
▁5000	-13621
▁does	-13622
▁آداب	-13623
▁ارون	-13624
▁استہ	-13625
▁انکم	-13626
▁اِذن	-13627
▁باتو	-13628
▁بھان	-13629
▁بیور	-13630
▁تصرف	-13631
▁جھوم	-13632
▁خادم	-13633
▁دستک	-13634
▁دوار	-13635
▁دوڑا	-13636
▁دھام	-13637
▁دیدہ	-13638
▁رِزق	-13639
▁رگھو	-13640
▁ریزه	-13641
▁سیاق	-13642
▁شاہو	-13643
▁صفات	-13644
▁غوری	-13645
▁ماتھ	-13646
▁مباح	-13647
▁مثلث	-13648
▁مجھی	-13649
▁محفل	-13650
▁مشرا	-13651
▁منفى	-13652
▁مکیش	-13653
▁مکین	-13654
▁مہیش	-13655
▁نائک	-13656
▁نازی	-13657
▁وافر	-13658
▁ودیا	-13659
▁ٹائل	-13660
▁ٹولز	-13661
▁پالو	-13662
▁پهلے	-13663
▁پکڑی	-13664
▁چڑیا	-13665
▁کنور	-13666
▁کٹاؤ	-13667
▁گندی	-13668
▁گڑھا	-13669
اکاروں	-13670
بالفرض	-13671
میدانِ	-13672
کاریاں	-13673
یکٹومی	-13674
▁karta	-13675
▁sakta	-13676
▁آئیکن	-13677
▁ابھری	-13678
▁اسراف	-13679
▁اعراف	-13680
▁امتیں	-13681
▁ایئرل	-13682
▁باکسر	-13683
▁برونک	-13684
▁بصورت	-13685
▁بھاوے	-13686
▁تازگی	-13687
▁تاکنا	-13688
▁تیمور	-13689
▁تیونس	-13690
▁جھنجھ	-13691
▁جینوں	-13692
▁عثمان	-13693
▁عمودی	-13694
▁فلائی	-13695
▁مستند	-13696
▁مظالم	-13697
▁معاصر	-13698
▁معینہ	-13699
▁موسلا	-13700
▁مہروں	-13701
▁نظارہ	-13702
▁ویانا	-13703
▁ویکٹر	-13704
▁پوچھی	-13705
▁پھسلا	-13706
▁پہنچو	-13707
▁پیٹرو	-13708
▁چسپاں	-13709
▁چڑھتا	-13710
▁ڈکیتی	-13711
▁کونکن	-13712
▁کوچنگ	-13713
▁کٹوتی	-13714
▁کھاتی	-13715
▁کیلوں	-13716
▁ہنسنے	-13717
▁mother	-13718
▁بادشاه	-13719
▁باوقار	-13720
▁بےپروا	-13721
▁تختیوں	-13722
▁تھرتھر	-13723
▁جاسکتے	-13724
▁جھونکا	-13725
▁داداؤں	-13726
▁سارجنٹ	-13727
▁سیکھتے	-13728
▁غذائیت	-13729
▁فاریسٹ	-13730
▁فرمادے	-13731
▁ٹھہرنا	-13732
▁پڈوکون	-13733
▁پینلٹی	-13734
▁چڑھایا	-13735
▁کریانہ	-13736
omething	-13737
▁امتیازی	-13738
▁اٹلانٹک	-13739
▁اٹھایا۔	-13740
▁برہمنوں	-13741
▁بڑھایا۔	-13742
▁بھارتیہ	-13743
▁ترجیحات	-13744
▁حکومتیں	-13745
▁رکاوٹوں	-13746
▁سولہویں	-13747
▁ناگواری	-13748
▁ٹرانسفر	-13749
▁پیغمبرؐ	-13750
▁کیلکولی	-13751
▁گریجویٹ	-13752
▁ہیڈکوار	-13753
▁اتحادیوں	-13754
▁اینیمیٹڈ	-13755
▁بالواسطہ	-13756
▁دستبردار	-13757
▁موسمیاتی	-13758
▁نظرانداز	-13759
▁کاریگروں	-13760
▁ادائیگیاں	-13761
▁ایمسٹرڈیم	-13762
▁بھرتناٹیم	-13763
24	-13764
47	-13765
64	-13766
82	-13767
AL	-13768
ka	-13769
بخ	-13770
تي	-13771
عن	-13772
يد	-13773
ہه	-13774
alo	-13775
ara	-13776
atm	-13777
ife	-13778
lab	-13779
ons	-13780
sel	-13781
ابا	-13782
الغ	-13783
اہت	-13784
بتھ	-13785
بلی	-13786
بنی	-13787
تھم	-13788
خال	-13789
خضر	-13790
ذول	-13791
سبت	-13792
سوا	-13793
شول	-13794
عزم	-13795
عوں	-13796
فرا	-13797
ماد	-13798
متر	-13799
متع	-13800
ناب	-13801
نما	-13802
پیر	-13803
چاہ	-13804
ڈون	-13805
گلی	-13806
▁71	-13807
▁Ne	-13808
▁Ri	-13809
▁ءء	-13810
▁غی	-13811
▁قل	-13812
▁ہع	-13813
cept	-13814
ence	-13815
ress	-13816
vers	-13817
ابطے	-13818
بارش	-13819
تباہ	-13820
جاتا	-13821
حصیل	-13822
سٹنٹ	-13823
عظیم	-13824
مینے	-13825
ٰعیل	-13826
ٹورپ	-13827
یکسی	-13828
▁125	-13829
▁900	-13830
▁Who	-13831
▁dil	-13832
▁ins	-13833
▁mas	-13834
▁off	-13835
▁آبج	-13836
▁انٹ	-13837
▁انہ	-13838
▁اِل	-13839
▁تفا	-13840
▁حرص	-13841
▁حری	-13842
▁سوگ	-13843
▁سیئ	-13844
▁شده	-13845
▁ضدی	-13846
▁غزہ	-13847
▁فقر	-13848
▁كیا	-13849
▁لون	-13850
▁ملر	-13851
▁نری	-13852
▁ونس	-13853
▁چکو	-13854
▁کاج	-13855
▁کسے	-13856
▁کوم	-13857
▁ہرے	-13858
▁یکے	-13859
atmag	-13860
ordan	-13861
paper	-13862
ابائی	-13863
الٰہی	-13864
عیسیٰ	-13865
فائدہ	-13866
نڈیوں	-13867
▁down	-13868
▁look	-13869
▁آسکر	-13870
▁اختر	-13871
▁اسٹک	-13872
▁ایرک	-13873
▁بنائ	-13874
▁بوبی	-13875
▁تجسس	-13876
▁تنگد	-13877
▁جرات	-13878
▁خلوص	-13879
▁خیمہ	-13880
▁ریان	-13881
▁زچگی	-13882
▁زیست	-13883
▁سائل	-13884
▁سائی	-13885
▁ساکھ	-13886
▁سٹین	-13887
▁سینو	-13888
▁سینگ	-13889
▁شائد	-13890
▁عادل	-13891
▁علوم	-13892
▁فرضی	-13893
▁فلٹر	-13894
▁لنڈا	-13895
▁لنکن	-13896
▁لوگے	-13897
▁مضطر	-13898
▁مفسد	-13899
▁مقرّ	-13900
▁موخر	-13901
▁موشن	-13902
▁مونو	-13903
▁نائج	-13904
▁ناظم	-13905
▁نفوس	-13906
▁نقاد	-13907
▁نندی	-13908
▁وردی	-13909
▁ٹلنے	-13910
▁ٹوٹی	-13911
▁پونڈ	-13912
▁پیلس	-13913
▁ڈائن	-13914
▁ڈراپ	-13915
▁ڈیلا	-13916
▁کالا	-13917
▁ہو۔۔	-13918
▁ہُوا	-13919
▁یاوز	-13920
آخرکار	-13921
ٹوپوزا	-13922
▁2,000	-13923
▁khoon	-13924
▁آئیوا	-13925
▁آجاتی	-13926
▁آڈیشن	-13927
▁اجمیر	-13928
▁ادھار	-13929
▁اوریہ	-13930
▁اگرتم	-13931
▁اینیم	-13932
▁ایکسل	-13933
▁بتادے	-13934
▁بدتمی	-13935
▁برتتے	-13936
▁بہانہ	-13937
▁بہنوں	-13938
▁تراشا	-13939
▁تراشے	-13940
▁جنازے	-13941
▁جھنڈا	-13942
▁خلاصی	-13943
▁درازی	-13944
▁دھارے	-13945
▁رعایا	-13946
▁رناوت	-13947
▁ریکھا	-13948
▁زيادہ	-13949
▁سبھاش	-13950
▁سراپا	-13951
▁سلمان	-13952
▁سکتیں	-13953
▁صالحؑ	-13954
▁ضابطے	-13955
▁طاعون	-13956
▁فرقوں	-13957
▁فوٹیج	-13958
▁قاعدہ	-13959
▁لاشیں	-13960
▁لیجنڈ	-13961
▁مارتی	-13962
▁مافیا	-13963
▁مبذول	-13964
▁مجنون	-13965
▁محراب	-13966
▁مشقیں	-13967
▁مواجہ	-13968
▁مچاتے	-13969
▁میووں	-13970
▁میگنی	-13971
▁نکلوا	-13972
▁پاٹلی	-13973
▁پریاگ	-13974
▁پیسیف	-13975
▁چڑھنا	-13976
▁ڈونلڈ	-13977
▁کاریں	-13978
▁کاغذی	-13979
▁کردے۔	-13980
▁کرشنن	-13981
▁کنیکٹ	-13982
▁گیروں	-13983
▁ہورہے	-13984
کمپرائز	-13985
▁اقلیتی	-13986
▁المناک	-13987
▁اوندھا	-13988
▁بافتوں	-13989
▁برتنوں	-13990
▁بناوٹی	-13991
▁تاثرات	-13992
▁خصوصاً	-13993
▁خواہاں	-13994
▁رائلٹی	-13995
▁رعایتی	-13996
▁سیکڑوں	-13997
▁شکایات	-13998
▁غلطیاں	-13999
▁لکھیں۔	-14000
▁مراعات	-14001
▁ملاحظہ	-14002
▁نابالغ	-14003
▁وارانہ	-14004
▁وارننگ	-14005
▁ٹھہراؤ	-14006
▁پھینکو	-14007
▁کردینا	-14008
▁کھلونا	-14009
▁گزرگاہ	-14010
▁گڑھوال	-14011
▁اسمٰعیل	-14012
▁افسردگی	-14013
▁التحصیل	-14014
▁انفنٹری	-14015
▁بنیادوں	-14016
▁تعمیرات	-14017
▁شریانوں	-14018
▁مانگتا۔	-14019
▁مجسٹریٹ	-14020
▁ناانصاف	-14021
▁ٹراپیکل	-14022
▁پدماوتی	-14023
▁پسماندہ	-14024
▁پسندانہ	-14025
▁پہاڑیاں	-14026
▁کھینچنے	-14027
▁گناہگار	-14028
▁happened	-14029
▁بالادستی	-14030
▁خواہشمند	-14031
▁سپروائزر	-14032
▁مٹھائیاں	-14033
▁امیدواروں	-14034
▁ایمانداری	-14035
▁کولیسٹرول	-14036
▁کیلکولیٹر	-14037
▁آذربائیجان	-14038
▁information	-14039
39	-14040
io	-14041
li	-14042
ئا	-14043
بم	-14044
و۔	-14045
ّو	-14046
orr	-14047
rev	-14048
ترک	-14049
تلج	-14050
دھو	-14051
ذمہ	-14052
روح	-14053
صیح	-14054
وبہ	-14055
ونت	-14056
ّتی	-14057
چور	-14058
چین	-14059
کھو	-14060
کیر	-14061
گاد	-14062
یکم	-14063
▁98	-14064
▁So	-14065
▁،°	-14066
▁ءِ	-14067
▁اك	-14068
▁حط	-14069
▁خش	-14070
▁ظن	-14071
▁مآ	-14072
▁گي	-14073
آواز	-14074
اپلی	-14075
تلون	-14076
دلوں	-14077
دوار	-14078
راکی	-14079
زبرد	-14080
فیلو	-14081
قوما	-14082
نایا	-14083
نفاق	-14084
ودیا	-14085
وعدہ	-14086
ٹراس	-14087
ٹھیک	-14088
▁1-0	-14089
▁165	-14090
▁min	-14091
▁اچی	-14092
▁بٹو	-14093
▁تعل	-14094
▁تنج	-14095
▁جست	-14096
▁جِس	-14097
▁حزب	-14098
▁حفظ	-14099
▁حوض	-14100
▁رفا	-14101
▁سسر	-14102
▁سلب	-14103
▁سلم	-14104
▁سنہ	-14105
▁سوز	-14106
▁سکڑ	-14107
▁سہل	-14108
▁شاک	-14109
▁فشر	-14110
▁مسح	-14111
▁ناس	-14112
▁ناٹ	-14113
▁هعز	-14114
▁واچ	-14115
▁ٹپک	-14116
▁پڈی	-14117
▁ڈیڈ	-14118
▁کبر	-14119
▁کڑی	-14120
▁گنو	-14121
▁گوس	-14122
▁یات	-14123
▁یوٹ	-14124
برابر	-14125
بھیجا	-14126
ونسلے	-14127
یسٹرا	-14128
▁1914	-14129
▁1933	-14130
▁1941	-14131
▁1943	-14132
▁That	-14133
▁cell	-14134
▁take	-14135
▁time	-14136
▁آشرم	-14137
▁آلیا	-14138
▁آٹوم	-14139
▁آپکی	-14140
▁ابّا	-14141
▁اردن	-14142
▁ازبک	-14143
▁البر	-14144
▁الفت	-14145
▁امپی	-14146
▁انسپ	-14147
▁اورا	-14148
▁اولڈ	-14149
▁اِتر	-14150
▁اکشے	-14151
▁ایمی	-14152
▁ایور	-14153
▁بابو	-14154
▁بزدل	-14155
▁بنده	-14156
▁بُرے	-14157
▁تباه	-14158
▁تعدی	-14159
▁جودھ	-14160
▁خستہ	-14161
▁درود	-14162
▁دیما	-14163
▁دیوا	-14164
▁رنگا	-14165
▁ریزی	-14166
▁زیبا	-14167
▁ساعت	-14168
▁ستلج	-14169
▁ستھر	-14170
▁شبیہ	-14171
▁شجاع	-14172
▁صواب	-14173
▁طویٰ	-14174
▁ظہار	-14175
▁فریج	-14176
▁فریز	-14177
▁لوئی	-14178
▁مبہم	-14179
▁متلی	-14180
▁مشیت	-14181
▁مماس	-14182
▁منڈل	-14183
▁مونا	-14184
▁مکڑی	-14185
▁مکھن	-14186
▁میوہ	-14187
▁نیزہ	-14188
▁نیزے	-14189
▁پھون	-14190
▁چھان	-14191
▁ڈریم	-14192
▁کائی	-14193
▁کارا	-14194
▁کاسپ	-14195
▁کفیل	-14196
▁کلاؤ	-14197
▁کماؤ	-14198
▁کچرے	-14199
▁کیلا	-14200
▁گھنا	-14201
▁ہوؤں	-14202
▁ہچکچ	-14203
▁ہیرے	-14204
اَعمال	-14205
▁inter	-14206
▁month	-14207
▁آپکڑے	-14208
▁اخلاص	-14209
▁اسلوب	-14210
▁افیون	-14211
▁اقبال	-14212
▁اندام	-14213
▁انڈیل	-14214
▁اوورز	-14215
▁اکھٹے	-14216
▁ایریز	-14217
▁برسنے	-14218
▁بلڈنگ	-14219
▁تماشہ	-14220
▁تنصیب	-14221
▁توڑنا	-14222
▁تھرمل	-14223
▁تیزاب	-14224
▁جبراً	-14225
▁جلاتا	-14226
▁جنھیں	-14227
▁جھٹکا	-14228
▁خاوند	-14229
▁خواری	-14230
▁خوروں	-14231
▁درانی	-14232
▁دوڑیں	-14233
▁دُنیا	-14234
▁راجرز	-14235
▁رشتوں	-14236
▁رقاصہ	-14237
▁رہبری	-14238
▁سبسکر	-14239
▁غداری	-14240
▁فرشتو	-14241
▁مادوں	-14242
▁مرغوب	-14243
▁مصائب	-14244
▁مصوری	-14245
▁معنوں	-14246
▁مفِدہ	-14247
▁مناتا	-14248
▁منسٹر	-14249
▁نفسوں	-14250
▁نہانی	-14251
▁وامان	-14252
▁ووٹنگ	-14253
▁وکٹیں	-14254
▁ٹیگور	-14255
▁پشاور	-14256
▁پیٹرک	-14257
▁ڈسٹری	-14258
▁کاؤنٹ	-14259
▁کاٹنا	-14260
▁کتبوں	-14261
▁کرلی۔	-14262
▁کفالت	-14263
▁کوئلہ	-14264
▁کھاؤ۔	-14265
▁گودام	-14266
▁ہڑتال	-14267
▁آرٹیکل	-14268
▁اجتماع	-14269
▁اسکائی	-14270
▁الہٰیہ	-14271
▁اٹھاتی	-14272
▁بتادوں	-14273
▁بےنیاز	-14274
▁تھائیر	-14275
▁دامودر	-14276
▁رئیسوں	-14277
▁راہبوں	-14278
▁روزیاں	-14279
▁زمورین	-14280
▁ساتواں	-14281
▁سندربن	-14282
▁سونامی	-14283
▁سکھانے	-14284
▁فضائیہ	-14285
▁قارئین	-14286
▁لیمبور	-14287
▁مانگیں	-14288
▁مشرقوں	-14289
▁وارثوں	-14290
▁ٹانگیں	-14291
▁پتھراؤ	-14292
▁پہنچی۔	-14293
▁کاغذات	-14294
▁کرینگے	-14295
▁کمائے۔	-14296
▁کورئیر	-14297
▁یہودیت	-14298
▁Riordan	-14299
▁اسٹوروں	-14300
▁اوراپنے	-14301
▁بیٹریاں	-14302
▁تراقوما	-14303
▁ترکیبیں	-14304
▁دیوالیہ	-14305
▁لڑائیاں	-14306
▁پروازوں	-14307
▁چکرورتی	-14308
▁ڈھونڈنے	-14309
▁گرینائٹ	-14310
▁گھڑسوار	-14311
▁اورانہیں	-14312
▁سائیکلوں	-14313
▁ٹھیکیدار	-14314
▁کارناموں	-14315
▁something	-14316
▁السّلامکی	-14317
▁باوجودیکہ	-14318
▁راجستھانی	-14319
▁ساتواہنوں	-14320
▁پارشوناتھ	-14321
▁کاروباروں	-14322
▁لیمبورگینی	-14323
42	-14324
81	-14325
AR	-14326
II	-14327
dy	-14328
ty	-14329
بُ	-14330
شع	-14331
مٹ	-14332
پد	-14333
ڈھ	-14334
act	-14335
hae	-14336
ild	-14337
اٹھ	-14338
بیک	-14339
تاي	-14340
جیٹ	-14341
خون	-14342
ذات	-14343
زاء	-14344
سات	-14345
سند	-14346
سنل	-14347
سیٹ	-14348
شرک	-14349
شری	-14350
صور	-14351
طنت	-14352
غرب	-14353
فتھ	-14354
لاء	-14355
لتے	-14356
لقہ	-14357
وسم	-14358
ُول	-14359
کاک	-14360
کول	-14361
گھو	-14362
ھیڑ	-14363
▁1:	-14364
▁Bl	-14365
▁St	-14366
▁̧3	-14367
▁رؤ	-14368
▁شد	-14369
▁لح	-14370
▁وں	-14371
▁که	-14372
▁کۓ	-14373
pton	-14374
ائنے	-14375
اقبت	-14376
انیا	-14377
بہشت	-14378
راجی	-14379
روفی	-14380
زبان	-14381
شروع	-14382
صیحت	-14383
مرتی	-14384
موجب	-14385
ناسب	-14386
وسیس	-14387
ومیل	-14388
وٹین	-14389
ویٹی	-14390
ٹونی	-14391
پیٹل	-14392
کارڈ	-14393
کھلا	-14394
ھائی	-14395
▁115	-14396
▁Tux	-14397
▁per	-14398
▁res	-14399
▁آرچ	-14400
▁انز	-14401
▁باط	-14402
▁بسا	-14403
▁خضر	-14404
▁دیج	-14405
▁رخی	-14406
▁سبا	-14407
▁شای	-14408
▁شکم	-14409
▁متر	-14410
▁مرگ	-14411
▁مقت	-14412
▁مقد	-14413
▁نبھ	-14414
▁ونگ	-14415
▁پاو	-14416
▁پرش	-14417
▁پنی	-14418
▁ہست	-14419
▁یرغ	-14420
ادرات	-14421
الوجی	-14422
رائیل	-14423
مانوں	-14424
ومینی	-14425
ڈبلیو	-14426
▁1858	-14427
▁1918	-14428
▁Tris	-14429
▁dekh	-14430
▁آدمؑ	-14431
▁امیج	-14432
▁اٹھی	-14433
▁اینٹ	-14434
▁ایکو	-14435
▁بروک	-14436
▁بقدر	-14437
▁بوٹس	-14438
▁بچھا	-14439
▁بچیں	-14440
▁بہیں	-14441
▁بیتھ	-14442
▁بےہو	-14443
▁توسی	-14444
▁تھرف	-14445
▁ثالث	-14446
▁جرنل	-14447
▁جعفر	-14448
▁حواس	-14449
▁خائف	-14450
▁خرچہ	-14451
▁خسرو	-14452
▁خمیر	-14453
▁دھبے	-14454
▁ذکرِ	-14455
▁روبو	-14456
▁رکنے	-14457
▁سباق	-14458
▁سیول	-14459
▁شامی	-14460
▁شوان	-14461
▁صحاف	-14462
▁فاقہ	-14463
▁فصیح	-14464
▁قرعہ	-14465
▁قطرہ	-14466
▁مجاز	-14467
▁مرمر	-14468
▁موئے	-14469
▁نافع	-14470
▁وجئے	-14471
▁ٹیلر	-14472
▁پانا	-14473
▁پلیس	-14474
▁پھٹک	-14475
▁چتور	-14476
▁چھیڑ	-14477
▁چیری	-14478
▁ڈھلو	-14479
▁کابل	-14480
▁کانت	-14481
▁کانٹ	-14482
▁کاہے	-14483
▁کرده	-14484
▁کریش	-14485
▁کمبو	-14486
▁کنڈل	-14487
▁کنیت	-14488
▁گڑھی	-14489
▁گڑیا	-14490
▁گھڑا	-14491
▁گیٹس	-14492
▁ہیون	-14493
▁ہیکل	-14494
تبلیغِ	-14495
وسامان	-14496
▁3,000	-14497
▁again	-14498
▁اجاگر	-14499
▁اداسی	-14500
▁انشاء	-14501
▁اوڈیا	-14502
▁بائرن	-14503
▁باپوں	-14504
▁بندھے	-14505
▁بوجھے	-14506
▁بچانا	-14507
▁بڑھے۔	-14508
▁بھاگا	-14509
▁تفريق	-14510
▁توحید	-14511
▁تیرتے	-14512
▁جتاتے	-14513
▁جوڑتے	-14514
▁جھگڑو	-14515
▁رفاقت	-14516
▁زیادت	-14517
▁ساختی	-14518
▁ستھرے	-14519
▁سوکھی	-14520
▁سیٹوں	-14521
▁سیٹھی	-14522
▁شرحیں	-14523
▁عبارت	-14524
▁عدولی	-14525
▁فریڈر	-14526
▁فنکشن	-14527
▁كمانڈ	-14528
▁لاپرو	-14529
▁لایا۔	-14530
▁ماریں	-14531
▁متھرا	-14532
▁مثلاً	-14533
▁مجرمو	-14534
▁مردار	-14535
▁نارمل	-14536
▁نظیری	-14537
▁نوکیا	-14538
▁ٹوکری	-14539
▁پشتوں	-14540
▁پورٹو	-14541
▁پیروم	-14542
▁پیٹرن	-14543
▁چارٹر	-14544
▁چمگاد	-14545
▁چوہان	-14546
▁چکھنا	-14547
▁چیلسی	-14548
▁ڈھاکہ	-14549
▁کامرس	-14550
▁کانجی	-14551
▁کرائم	-14552
▁کھُلی	-14553
▁کیلیے	-14554
▁گورڈن	-14555
▁گٹھیا	-14556
▁گھیرا	-14557
▁گیراج	-14558
▁ہیپاٹ	-14559
▁یونٹس	-14560
▁یکشگن	-14561
جبرائیل	-14562
نشانیوں	-14563
▁15,000	-14564
▁30,000	-14565
▁should	-14566
▁آسودگی	-14567
▁اسپورٹ	-14568
▁الزبتھ	-14569
▁امیدوں	-14570
▁اندرون	-14571
▁اورکچھ	-14572
▁اگرتلہ	-14573
▁ایمبول	-14574
▁بالائے	-14575
▁بولیوں	-14576
▁بیٹھتا	-14577
▁تھکاوٹ	-14578
▁جوابات	-14579
▁جولیان	-14580
▁درستگی	-14581
▁رجسٹرڈ	-14582
▁رینجرز	-14583
▁سوتیلے	-14584
▁فروشوں	-14585
▁لچکدار	-14586
▁متواتر	-14587
▁مذکورہ	-14588
▁ناگوری	-14589
▁نریندر	-14590
▁ٹریکنگ	-14591
▁پارکوں	-14592
▁پانیوں	-14593
▁چوہتاي	-14594
▁کارٹون	-14595
▁کامران	-14596
▁کرسکتی	-14597
▁کھلانا	-14598
▁اسٹوریج	-14599
▁اولمپیا	-14600
▁ایڈیلیڈ	-14601
▁بداعمال	-14602
▁براعظمی	-14603
▁برسایا۔	-14604
▁دوائیوں	-14605
▁دکھادیں	-14606
▁دھماکوں	-14607
▁ظالمانہ	-14608
▁لیورپول	-14609
▁معمولات	-14610
▁مورتیاں	-14611
▁پلمونری	-14612
▁پوٹاشیم	-14613
▁پڑوسیوں	-14614
▁پھینکتے	-14615
▁پہنچاتی	-14616
▁پیغمبری	-14617
▁ڈاکٹریٹ	-14618
▁آسٹریلین	-14619
▁سنبھالا۔	-14620
▁خریداریوں	-14621
▁عہدیداروں	-14622
▁نوآبادیات	-14623
▁الیکٹرانکس	-14624
ok	-14625
sm	-14626
تس	-14627
ٹہ	-14628
▁?	-14629
▁ٰ	-14630
not	-14631
ose	-14632
آگے	-14633
باس	-14634
بہر	-14635
درش	-14636
سلر	-14637
سلز	-14638
سٹس	-14639
شیو	-14640
عدم	-14641
قیت	-14642
لفظ	-14643
مدد	-14644
میش	-14645
نار	-14646
وسن	-14647
ونچ	-14648
يسي	-14649
ٹی۔	-14650
چیر	-14651
یاک	-14652
▁61	-14653
▁Ab	-14654
▁LA	-14655
▁lt	-14656
▁ئل	-14657
▁دِ	-14658
▁رَ	-14659
▁وج	-14660
تانی	-14661
دلال	-14662
ریٹر	-14663
زیرہ	-14664
عورت	-14665
مخلو	-14666
معاش	-14667
میلا	-14668
واڈا	-14669
وبیس	-14670
ومیا	-14671
وڈور	-14672
ٹریس	-14673
گونی	-14674
گیال	-14675
ھواں	-14676
ھونی	-14677
یکرز	-14678
▁kya	-14679
▁may	-14680
▁rec	-14681
▁sab	-14682
▁set	-14683
▁val	-14684
▁آسی	-14685
▁آصف	-14686
▁اپس	-14687
▁بفِ	-14688
▁بوم	-14689
▁جوں	-14690
▁سبت	-14691
▁طاق	-14692
▁لیۓ	-14693
▁محو	-14694
▁نرس	-14695
▁پمپ	-14696
▁چرو	-14697
▁کوے	-14698
▁کٹر	-14699
▁ہرش	-14700
oogle	-14701
استری	-14702
اگوئے	-14703
معجزہ	-14704
▁1907	-14705
▁1921	-14706
▁1⁄4ِ	-14707
▁This	-14708
▁اجین	-14709
▁ارتھ	-14710
▁ایبٹ	-14711
▁ایری	-14712
▁ایڈز	-14713
▁ایگر	-14714
▁تلچھ	-14715
▁تھور	-14716
▁خراش	-14717
▁دورِ	-14718
▁ذرّہ	-14719
▁ذمّہ	-14720
▁راجو	-14721
▁رتنا	-14722
▁رحمی	-14723
▁روتھ	-14724
▁زائل	-14725
▁سالن	-14726
▁سنسر	-14727
▁شعار	-14728
▁عاری	-14729
▁علاء	-14730
▁عناد	-14731
▁فزکس	-14732
▁فوکس	-14733
▁لفاف	-14734
▁لینس	-14735
▁لینی	-14736
▁لیول	-14737
▁مترا	-14738
▁معدے	-14739
▁میٹا	-14740
▁وارن	-14741
▁وزرا	-14742
▁ولاد	-14743
▁ٹاسک	-14744
▁پالش	-14745
▁چاہت	-14746
▁ڈنڈا	-14747
▁کارت	-14748
▁کالز	-14749
▁کرتہ	-14750
▁کریٹ	-14751
▁کسٹم	-14752
▁کنبے	-14753
▁کھوج	-14754
▁گندا	-14755
▁ہتھک	-14756
▁ہیوی	-14757
uation	-14758
واریاں	-14759
▁Parre	-14760
▁house	-14761
▁money	-14762
▁آسکتی	-14763
▁استوا	-14764
▁اسٹاف	-14765
▁انٹری	-14766
▁ایلوم	-14767
▁ایڈوب	-14768
▁بھرتے	-14769
▁جستجو	-14770
▁جسموں	-14771
▁جھکنے	-14772
▁خلافی	-14773
▁داروغ	-14774
▁داڑھی	-14775
▁دھونے	-14776
▁ذائقے	-14777
▁ذاتوں	-14778
▁رسولِ	-14779
▁ریٹرن	-14780
▁سادھو	-14781
▁سرمئی	-14782
▁سلویٰ	-14783
▁سنوڈن	-14784
▁سٹیشن	-14785
▁سہارے	-14786
▁صحارا	-14787
▁طنزیہ	-14788
▁عبوری	-14789
▁عربوں	-14790
▁فلسفہ	-14791
▁ماریو	-14792
▁متولی	-14793
▁مرگئے	-14794
▁مسرور	-14795
▁ملتان	-14796
▁منزلِ	-14797
▁مہادی	-14798
▁نائیج	-14799
▁نوازے	-14800
▁نگاری	-14801
▁نینسی	-14802
▁والے۔	-14803
▁وقفوں	-14804
▁ویریک	-14805
▁پتھری	-14806
▁پرعزم	-14807
▁پرنٹر	-14808
▁پریزی	-14809
▁پھرتی	-14810
▁پھٹنے	-14811
▁پھیرو	-14812
▁پہاڑو	-14813
▁چندیل	-14814
▁کاربو	-14815
▁کارنی	-14816
▁کرشمہ	-14817
▁کلنگا	-14818
▁کمینے	-14819
▁کھولی	-14820
▁کیاہے	-14821
▁کیشنز	-14822
▁گراوٹ	-14823
▁گوبند	-14824
▁گوتھک	-14825
▁گووند	-14826
▁گٹھلی	-14827
▁ہسٹری	-14828
▁ہونگی	-14829
▁ہٹانا	-14830
▁Balhae	-14831
▁اتراتے	-14832
▁ارتکاز	-14833
▁استوار	-14834
▁اسٹارٹ	-14835
▁الائنس	-14836
▁انگارہ	-14837
▁اوربھی	-14838
▁اولیاء	-14839
▁اونٹوں	-14840
▁اٹھالے	-14841
▁ایئربس	-14842
▁بدبختی	-14843
▁براؤزر	-14844
▁برساتے	-14845
▁بنادیں	-14846
▁تخمینے	-14847
▁تھیوری	-14848
▁درجنوں	-14849
▁رومانس	-14850
▁ریٹینل	-14851
▁ساحلوں	-14852
▁سزائیں	-14853
▁شرمندہ	-14854
▁ضابطگی	-14855
▁لکھائی	-14856
▁مہاندی	-14857
▁پرستار	-14858
▁پروٹون	-14859
▁پوچھوں	-14860
▁پڑھایا	-14861
▁پکارنا	-14862
▁چھپایا	-14863
▁ڈیسمنڈ	-14864
▁کانگڑا	-14865
▁کمیونٹ	-14866
▁کھوپڑی	-14867
▁گرافکس	-14868
▁گروسری	-14869
▁گہوارہ	-14870
▁ہارونؑ	-14871
▁3⁄4ّ3⁄4	-14872
▁آرکسٹرا	-14873
▁ازدواجی	-14874
▁اسکوائر	-14875
▁امراوتی	-14876
▁جبرائیل	-14877
▁روزنامہ	-14878
▁سواریوں	-14879
▁فرمایا۔	-14880
▁لونڈیوں	-14881
▁محافظوں	-14882
▁میراتھن	-14883
▁آرکیسٹرا	-14884
▁امتحانات	-14885
▁ایجنسیوں	-14886
▁رضاکاروں	-14887
▁کاشتکاری	-14888
▁سازوسامان	-14889
▁مواٹوپوزا	-14890
▁پیچیدگیاں	-14891
▁ہیڈکوارٹر	-14892
▁ٹیکنالوجیز	-14893
37	-14894
65	-14895
EN	-14896
sk	-14897
we	-14898
ءض	-14899
ؤر	-14900
عف	-14901
لڑ	-14902
-14	-14903
You	-14904
ady	-14905
amp	-14906
den	-14907
eek	-14908
ابھ	-14909
ادا	-14910
باق	-14911
بیٹ	-14912
تعل	-14913
جھا	-14914
درن	-14915
روٹ	-14916
قتا	-14917
نٹن	-14918
ودے	-14919
وٰی	-14920
وٹن	-14921
پٹی	-14922
گھی	-14923
یرس	-14924
▁(9	-14925
▁04	-14926
▁1؟	-14927
▁Go	-14928
▁af	-14929
▁li	-14930
▁sp	-14931
▁صل	-14932
▁طہ	-14933
▁عا	-14934
amma	-14935
ange	-14936
ائلڈ	-14937
ائيں	-14938
ائین	-14939
اراج	-14940
اہرہ	-14941
جملہ	-14942
حدود	-14943
ریدی	-14944
قومی	-14945
لورو	-14946
ناٹک	-14947
وسلا	-14948
وسکی	-14949
گرفت	-14950
گیشن	-14951
ہوئے	-14952
▁101	-14953
▁bec	-14954
▁mus	-14955
▁±×°	-14956
▁آڑی	-14957
▁اتھ	-14958
▁ارن	-14959
▁بسی	-14960
▁بُر	-14961
▁تلی	-14962
▁تمن	-14963
▁جرث	-14964
▁جوت	-14965
▁حسی	-14966
▁خول	-14967
▁دھت	-14968
▁ریگ	-14969
▁زاد	-14970
▁ستو	-14971
▁سرغ	-14972
▁سکل	-14973
▁شبِ	-14974
▁شیف	-14975
▁ضعف	-14976
▁عبر	-14977
▁عضو	-14978
▁لور	-14979
▁لیم	-14980
▁مفل	-14981
▁میخ	-14982
▁نے۔	-14983
▁وشا	-14984
▁وصی	-14985
▁ونی	-14986
▁پلہ	-14987
▁کتب	-14988
▁کنا	-14989
▁کوت	-14990
▁گاد	-14991
▁گلہ	-14992
▁گھم	-14993
ister	-14994
ترجمہ	-14995
جزائر	-14996
دوسرا	-14997
عیسٰی	-14998
فرشتہ	-14999
میڈیا	-15000
ورتھم	-15001
پیمان	-15002
پیچھے	-15003
گزاری	-15004
▁1800	-15005
▁1913	-15006
▁1925	-15007
▁came	-15008
▁chah	-15009
▁cour	-15010
▁hota	-15011
▁just	-15012
▁said	-15013
▁آدرش	-15014
▁آچکے	-15015
▁ایرن	-15016
▁ایرو	-15017
▁ایمپ	-15018
▁بذات	-15019
▁بلوچ	-15020
▁بھگو	-15021
▁بھیس	-15022
▁بہنا	-15023
▁بیاہ	-15024
▁بیلی	-15025
▁تقدی	-15026
▁جيسي	-15027
▁جیری	-15028
▁خاصا	-15029
▁خبیر	-15030
▁دبیز	-15031
▁دُور	-15032
▁رواد	-15033
▁روغن	-15034
▁سترہ	-15035
▁سرفر	-15036
▁سرین	-15037
▁سوتر	-15038
▁شاگر	-15039
▁شہاب	-15040
▁صدمہ	-15041
▁طاعت	-15042
▁غلبے	-15043
▁فاصل	-15044
▁فیکل	-15045
▁قاصد	-15046
▁لاؤ۔	-15047
▁لےکر	-15048
▁ماتا	-15049
▁مارٹ	-15050
▁مژدہ	-15051
▁مکتب	-15052
▁مہان	-15053
▁ناقہ	-15054
▁نعرہ	-15055
▁ننگے	-15056
▁نینو	-15057
▁نیہا	-15058
▁وقار	-15059
▁ولسن	-15060
▁وینا	-15061
▁ٹیکٹ	-15062
▁پیام	-15063
▁پیٹا	-15064
▁چکما	-15065
▁چیزو	-15066
▁ڈیمن	-15067
▁ڑياں	-15068
▁کاٹا	-15069
▁کرین	-15070
▁کوان	-15071
▁گڑگڑ	-15072
▁ہُوں	-15073
▁ہیڈن	-15074
▁یوئی	-15075
rypton	-15076
ائبانہ	-15077
پتھروں	-15078
پیدائش	-15079
▁karna	-15080
▁آرسنل	-15081
▁ابھرا	-15082
▁اسطرح	-15083
▁الحمد	-15084
▁الذمہ	-15085
▁الفری	-15086
▁انفاق	-15087
▁ایڈمز	-15088
▁ایکوا	-15089
▁بتلاؤ	-15090
▁بخشی۔	-15091
▁بعضوں	-15092
▁بچاتے	-15093
▁بھورے	-15094
▁بھوکے	-15095
▁بھڑکا	-15096
▁بیچلر	-15097
▁تسلسل	-15098
▁تلچھٹ	-15099
▁جاوید	-15100
▁جنگیں	-15101
▁جوکچھ	-15102
▁دونگا	-15103
▁رسُول	-15104
▁رقصوں	-15105
▁رنویر	-15106
▁ساڑھی	-15107
▁سنیچر	-15108
▁سونپا	-15109
▁شریان	-15110
▁شریعت	-15111
▁عراقی	-15112
▁عقلیں	-15113
▁فردوس	-15114
▁فقدان	-15115
▁قطعاً	-15116
▁لفظوں	-15117
▁لکشمن	-15118
▁لیگوں	-15119
▁ماتھے	-15120
▁معزول	-15121
▁مناتی	-15122
▁منطقی	-15123
▁موڑتے	-15124
▁موڑنے	-15125
▁میزان	-15126
▁مینار	-15127
▁نااہل	-15128
▁نامئہ	-15129
▁وحکمت	-15130
▁وردھن	-15131
▁ٹرانز	-15132
▁ٹرینر	-15133
▁ٹیڑھا	-15134
▁پتلون	-15135
▁پلٹتے	-15136
▁پکایا	-15137
▁پکڑتا	-15138
▁پھاٹک	-15139
▁پھراس	-15140
▁پیاسا	-15141
▁پیالہ	-15142
▁پیٹرز	-15143
▁چھانٹ	-15144
▁کفارہ	-15145
▁کلاؤڈ	-15146
▁کورین	-15147
▁گارڈز	-15148
▁گرانی	-15149
▁گھنٹی	-15150
▁ہائیٹ	-15151
▁ہورہی	-15152
▁ہولڈر	-15153
▁matlab	-15154
▁آئیڈیا	-15155
▁آریائی	-15156
▁آزماتا	-15157
▁آموجود	-15158
▁آپہنچی	-15159
▁افسانہ	-15160
▁اوراگر	-15161
▁اٹھارہ	-15162
▁ایسٹرن	-15163
▁باعزّت	-15164
▁برونکس	-15165
▁بولیاں	-15166
▁ترجیحی	-15167
▁توسیعی	-15168
▁جِلاتا	-15169
▁حاضرین	-15170
▁خریدا۔	-15171
▁داریوں	-15172
▁دکھاتی	-15173
▁دہرایا	-15174
▁دیویوں	-15175
▁زہریلا	-15176
▁سوجھتا	-15177
▁سیکولر	-15178
▁شادیوں	-15179
▁شیئرنگ	-15180
▁عذابوں	-15181
▁فوقتاً	-15182
▁قائدین	-15183
▁لوٹایا	-15184
▁مالیکی	-15185
▁مشیروں	-15186
▁معاوضے	-15187
▁منسوخی	-15188
▁واسترا	-15189
▁ٹرینیں	-15190
▁ٹوائلٹ	-15191
▁پہچانے	-15192
▁پیسیفک	-15193
▁چراغوں	-15194
▁کھنکھن	-15195
▁کھولنا	-15196
▁کینیڈی	-15197
▁گھومتی	-15198
▁ہاؤسنگ	-15199
▁ہوجانا	-15200
▁ہولیکا	-15201
▁ہیملٹن	-15202
▁یونائٹ	-15203
▁استدلال	-15204
▁امپیریل	-15205
▁اورلینز	-15206
▁اکائیوں	-15207
▁اینٹورپ	-15208
▁تابعدار	-15209
▁تریپوری	-15210
▁تکلیفیں	-15211
▁جمناسٹک	-15212
▁دورانیہ	-15213
▁سدھارتھ	-15214
▁سینیٹرز	-15215
▁فلسطینی	-15216
▁مرجائیں	-15217
▁مہارانی	-15218
▁نوادرات	-15219
▁چھترپتی	-15220
▁کانرائے	-15221
▁الگورتھم	-15222
▁ایریزونا	-15223
▁برادریاں	-15224
▁راجپوتوں	-15225
▁زیادتیاں	-15226
▁یونیورسٹ	-15227
▁آٹوموبائل	-15228
▁ایمبولینس	-15229
▁جاگیرداروں	-15230
▁کوالیفائنگ	-15231
53	-15232
ER	-15233
PP	-15234
RA	-15235
ai	-15236
lt	-15237
mp	-15238
بز	-15239
بِ	-15240
غم	-15241
لي	-15242
وظ	-15243
ٰہ	-15244
ars	-15245
get	-15246
ull	-15247
ئیل	-15248
بلد	-15249
بھر	-15250
تمش	-15251
طوف	-15252
متی	-15253
مرا	-15254
وعہ	-15255
وہن	-15256
پتے	-15257
پکس	-15258
چھو	-15259
گیم	-15260
ہود	-15261
یان	-15262
▁hy	-15263
▁́ش	-15264
▁تڑ	-15265
▁جي	-15266
▁حَ	-15267
▁شش	-15268
▁ہك	-15269
SION	-15270
hani	-15271
pect	-15272
ارٰی	-15273
اسور	-15274
بوری	-15275
جیوں	-15276
خیال	-15277
سیپی	-15278
شامل	-15279
شریک	-15280
غلام	-15281
مایا	-15282
مقام	-15283
منکر	-15284
مکمل	-15285
نجلی	-15286
واڑہ	-15287
ومنگ	-15288
ٹھان	-15289
پیئر	-15290
چارج	-15291
کرتے	-15292
گرین	-15293
ہوگا	-15294
▁(12	-15295
▁hel	-15296
▁sho	-15297
▁why	-15298
▁آبا	-15299
▁بڈی	-15300
▁ترن	-15301
▁تضر	-15302
▁تقص	-15303
▁تہی	-15304
▁جنو	-15305
▁حزن	-15306
▁رسد	-15307
▁رکی	-15308
▁ستی	-15309
▁سپہ	-15310
▁شرو	-15311
▁طنز	-15312
▁فکس	-15313
▁ماج	-15314
▁مخط	-15315
▁مکے	-15316
▁نسی	-15317
▁ویش	-15318
▁پُو	-15319
▁کرب	-15320
▁گرڈ	-15321
▁ھوا	-15322
▁ہاپ	-15323
ption	-15324
ادیات	-15325
اسمجھ	-15326
اسکیں	-15327
انچوں	-15328
اچانک	-15329
قانون	-15330
وفرین	-15331
گریشن	-15332
▁1700	-15333
▁1910	-15334
▁1⁄2؛	-15335
▁care	-15336
▁even	-15337
▁file	-15338
▁sirf	-15339
▁some	-15340
▁stat	-15341
▁such	-15342
▁آتیں	-15343
▁آیتو	-15344
▁اذان	-15345
▁اَجر	-15346
▁اپنش	-15347
▁ایبر	-15348
▁ایڈم	-15349
▁بدلی	-15350
▁بدوش	-15351
▁بشیر	-15352
▁بولٹ	-15353
▁بھدر	-15354
▁بیاس	-15355
▁تکلف	-15356
▁جذبہ	-15357
▁حریص	-15358
▁خونی	-15359
▁دبلی	-15360
▁زیرِ	-15361
▁سائر	-15362
▁سرکل	-15363
▁سوچے	-15364
▁سکی۔	-15365
▁سیلف	-15366
▁صلیب	-15367
▁عظمی	-15368
▁عیاں	-15369
▁فضلے	-15370
▁فلاں	-15371
▁قریش	-15372
▁لڑتا	-15373
▁لیوا	-15374
▁ميرے	-15375
▁میسن	-15376
▁میلو	-15377
▁نگاه	-15378
▁نیبر	-15379
▁نیست	-15380
▁واضع	-15381
▁ورنم	-15382
▁وشبہ	-15383
▁ویکن	-15384
▁ٹیری	-15385
▁پسپا	-15386
▁پیاس	-15387
▁چانگ	-15388
▁ڈرون	-15389
▁ڈریس	-15390
▁ڈیتھ	-15391
▁کارن	-15392
▁کتیا	-15393
▁کلور	-15394
▁کونڈ	-15395
▁کہکش	-15396
▁کیٹی	-15397
▁گینڈ	-15398
▁ہارے	-15399
▁یانگ	-15400
3⁄43⁄4	-15401
سرکوسس	-15402
▁mujhe	-15403
▁آگئے۔	-15404
▁آگاہی	-15405
▁ادراک	-15406
▁ازواج	-15407
▁اسانج	-15408
▁البرٹ	-15409
▁البلد	-15410
▁اُجرت	-15411
▁اٹھتا	-15412
▁ایسپر	-15413
▁اینگل	-15414
▁بفیلو	-15415
▁بیلوں	-15416
▁بیویو	-15417
▁تیراک	-15418
▁جامنی	-15419
▁جرثوم	-15420
▁دولہے	-15421
▁دہندہ	-15422
▁دہکتی	-15423
▁ذیادہ	-15424
▁روکا۔	-15425
▁سرورز	-15426
▁سوروں	-15427
▁سیئٹل	-15428
▁شارٹس	-15429
▁فزیکل	-15430
▁فلائٹ	-15431
▁مشتعل	-15432
▁مشقوں	-15433
▁مقالہ	-15434
▁مقامِ	-15435
▁مونٹی	-15436
▁میٹھی	-15437
▁ندامت	-15438
▁نرتیہ	-15439
▁نسبتا	-15440
▁نظموں	-15441
▁نقشوں	-15442
▁ورنگل	-15443
▁ووٹوں	-15444
▁وکٹر۔	-15445
▁وکٹوں	-15446
▁ویمنز	-15447
▁ویگاس	-15448
▁پارکس	-15449
▁پالیں	-15450
▁پراپر	-15451
▁پسینہ	-15452
▁چوہوں	-15453
▁چٹانی	-15454
▁چھتیں	-15455
▁ڈولفن	-15456
▁کانٹے	-15457
▁کرسچن	-15458
▁کلائم	-15459
▁کھينچ	-15460
▁گڑگڑا	-15461
▁گیلری	-15462
▁گیلنگ	-15463
▁ہاورڈ	-15464
▁یاتری	-15465
▁یحیٰی	-15466
اسماعیل	-15467
انسانوں	-15468
تقریباً	-15469
▁آپریٹر	-15470
▁افسروں	-15471
▁اپنانے	-15472
▁بجھانے	-15473
▁برخلاف	-15474
▁بمباری	-15475
▁جینتیا	-15476
▁حریفوں	-15477
▁دھوئیں	-15478
▁دیرینہ	-15479
▁دیکھوں	-15480
▁رپورٹر	-15481
▁ریونیو	-15482
▁سپیکٹر	-15483
▁عبرانی	-15484
▁عسکریت	-15485
▁عیسیٰؑ	-15486
▁فارموں	-15487
▁لکڑیاں	-15488
▁مؤاخذہ	-15489
▁مؤمنین	-15490
▁مانگوں	-15491
▁مانیٹر	-15492
▁محاسبہ	-15493
▁مستطیل	-15494
▁مفروضہ	-15495
▁مٹھائی	-15496
▁میسوری	-15497
▁نزدیکی	-15498
▁نصارٰی	-15499
▁پرجاتی	-15500
▁ڈیلیور	-15501
▁کارٹنی	-15502
▁کاسٹکو	-15503
▁کروشیا	-15504
▁کندھوں	-15505
▁کنوئیں	-15506
▁کھینچا	-15507
▁کیمرون	-15508
▁کیمروں	-15509
▁brother	-15510
▁ابھیشیک	-15511
▁الجزائر	-15512
▁انتھونی	-15513
▁انجیکشن	-15514
▁انسپکٹر	-15515
▁ایودھیا	-15516
▁ایڈونچر	-15517
▁بندوقیں	-15518
▁بنگلورو	-15519
▁تخلیقات	-15520
▁تصویروں	-15521
▁تکنیکیں	-15522
▁جداگانہ	-15523
▁خرابیوں	-15524
▁دورانیے	-15525
▁سلیکوسس	-15526
▁سمجھدار	-15527
▁سنچریاں	-15528
▁غائبانہ	-15529
▁مارگریٹ	-15530
▁وائرلیس	-15531
▁پرایمان	-15532
▁پوچھیئے	-15533
▁پوچھیں۔	-15534
▁کلینیکل	-15535
▁کینوئنگ	-15536
▁گریگوری	-15537
▁اسٹریٹجک	-15538
▁خودمختار	-15539
▁شماریاتی	-15540
▁پابندیوں	-15541
▁پروٹسٹنٹ	-15542
▁کنواریاں	-15543
▁operation	-15544
▁آرمینیائی	-15545
▁نائیجیریا	-15546
/2	-15547
2)	-15548
31	-15549
34	-15550
61	-15551
MA	-15552
bl	-15553
ov	-15554
wn	-15555
xt	-15556
هر	-15557
ِش	-15558
گٹ	-15559
▁ً	-15560
eon	-15561
nay	-15562
ode	-15563
old	-15564
yth	-15565
اؤٹ	-15566
اوے	-15567
ایڈ	-15568
بعد	-15569
بیس	-15570
جرم	-15571
جسم	-15572
سنو	-15573
شنگ	-15574
شکا	-15575
ظمت	-15576
فرڈ	-15577
لتا	-15578
لوج	-15579
ورل	-15580
ورہ	-15581
وپر	-15582
ِنگ	-15583
ٹھک	-15584
پشن	-15585
چال	-15586
▁(.	-15587
▁05	-15588
▁4:	-15589
▁da	-15590
▁su	-15591
▁ve	-15592
▁ُ́	-15593
▁̧μ	-15594
▁اژ	-15595
▁بي	-15596
▁خُ	-15597
▁دَ	-15598
▁هر	-15599
▁چب	-15600
,400	-15601
self	-15602
ارٹا	-15603
اندر	-15604
انشل	-15605
بیان	-15606
دواج	-15607
ذیری	-15608
عزیز	-15609
لوحِ	-15610
مشرک	-15611
مناف	-15612
مندر	-15613
مینی	-15614
ندھر	-15615
نیچے	-15616
وتھر	-15617
ونڈا	-15618
ونین	-15619
وڈین	-15620
ٹیبل	-15621
پہنچ	-15622
ڈالر	-15623
کیلا	-15624
یالہ	-15625
یکہم	-15626
▁1,0	-15627
▁Mus	-15628
▁SES	-15629
▁bhe	-15630
▁hun	-15631
▁jis	-15632
▁peh	-15633
▁ادر	-15634
▁اعش	-15635
▁بدم	-15636
▁تدو	-15637
▁تصو	-15638
▁تیج	-15639
▁حُھ	-15640
▁داں	-15641
▁دبی	-15642
▁درس	-15643
▁درو	-15644
▁دوش	-15645
▁دِن	-15646
▁رسک	-15647
▁روا	-15648
▁سکر	-15649
▁شاء	-15650
▁شرٹ	-15651
▁ضمن	-15652
▁فوٹ	-15653
▁قزا	-15654
▁قصر	-15655
▁لاب	-15656
▁لتا	-15657
▁لله	-15658
▁لوم	-15659
▁لُو	-15660
▁مزی	-15661
▁مسم	-15662
▁ٹوڈ	-15663
▁پوک	-15664
▁پیل	-15665
▁چپک	-15666
▁ڈاگ	-15667
▁ڈپٹ	-15668
▁ڈھک	-15669
▁کٹک	-15670
اپوری	-15671
اپٹنم	-15672
تکلیف	-15673
دائمی	-15674
روشلم	-15675
سامنے	-15676
شوروپ	-15677
فراغت	-15678
لنگٹن	-15679
واہیں	-15680
وروید	-15681
یکلچر	-15682
▁1902	-15683
▁1922	-15684
▁left	-15685
▁miss	-15686
▁ابلا	-15687
▁ازسر	-15688
▁اسپن	-15689
▁القا	-15690
▁الیس	-15691
▁باڑی	-15692
▁برنگ	-15693
▁بسنت	-15694
▁بعد۔	-15695
▁بناد	-15696
▁بورن	-15697
▁بوری	-15698
▁بھنڈ	-15699
▁ترون	-15700
▁تواس	-15701
▁حمید	-15702
▁خلیہ	-15703
▁رائس	-15704
▁روکی	-15705
▁زانی	-15706
▁سارہ	-15707
▁سيکھ	-15708
▁سٹیل	-15709
▁سچّا	-15710
▁سیٹی	-15711
▁شکوک	-15712
▁ضعیف	-15713
▁طرف۔	-15714
▁فلکس	-15715
▁قازق	-15716
▁لانس	-15717
▁لونگ	-15718
▁مائک	-15719
▁مدعا	-15720
▁مشیل	-15721
▁مکعب	-15722
▁مکّہ	-15723
▁مہاس	-15724
▁میم۔	-15725
▁نمٹا	-15726
▁نچلا	-15727
▁نکلی	-15728
▁هعلم	-15729
▁واکر	-15730
▁وباء	-15731
▁وقتِ	-15732
▁ویاس	-15733
▁ویمن	-15734
▁وینڈ	-15735
▁ٹروپ	-15736
▁ٹیلے	-15737
▁پردا	-15738
▁پرود	-15739
▁پروم	-15740
▁پنجر	-15741
▁پوڈی	-15742
▁پیرش	-15743
▁پیکٹ	-15744
▁چڑھی	-15745
▁ڈھکے	-15746
▁کاٹو	-15747
▁کرما	-15748
▁کوزی	-15749
▁کھپت	-15750
▁کینہ	-15751
▁گلین	-15752
▁ھمیں	-15753
▁ہارس	-15754
▁ہاوی	-15755
تمہارا	-15756
نعمتوں	-15757
وپیتھی	-15758
ٹاگانگ	-15759
▁wrong	-15760
▁آئٹمز	-15761
▁اسمگل	-15762
▁اسٹری	-15763
▁الیون	-15764
▁الیکٹ	-15765
▁اٹھاؤ	-15766
▁برہان	-15767
▁بھریں	-15768
▁بھومی	-15769
▁بیٹنگ	-15770
▁تالیف	-15771
▁تقاضا	-15772
▁تولنے	-15773
▁تیوری	-15774
▁جنیوا	-15775
▁حالاں	-15776
▁حفظان	-15777
▁دواؤں	-15778
▁رزمیہ	-15779
▁روئنگ	-15780
▁ریمسی	-15781
▁سالار	-15782
▁ستریا	-15783
▁سماوی	-15784
▁سنتوں	-15785
▁سیبرز	-15786
▁سیفٹی	-15787
▁عاقبت	-15788
▁غالبا	-15789
▁فورسز	-15790
▁فٹبال	-15791
▁لائٹس	-15792
▁مانتا	-15793
▁متحمل	-15794
▁مسافت	-15795
▁مسکرا	-15796
▁معجزه	-15797
▁مقبرے	-15798
▁موریا	-15799
▁نقاشی	-15800
▁هحکمت	-15801
▁وائلن	-15802
▁واسطہ	-15803
▁وبالا	-15804
▁وقتاً	-15805
▁وکلاء	-15806
▁ٹالنے	-15807
▁ٹرینی	-15808
▁ٹیڑھے	-15809
▁پیوند	-15810
▁چراتے	-15811
▁چوروں	-15812
▁چینئی	-15813
▁ڈراوے	-15814
▁ڈکوٹا	-15815
▁ڈیولز	-15816
▁کارگر	-15817
▁کامنز	-15818
▁کیوبک	-15819
▁گراہم	-15820
▁گیتوں	-15821
▁ہائپو	-15822
▁ہنسیں	-15823
▁ہیومن	-15824
▁ہیکنگ	-15825
حالانکہ	-15826
وفرینیا	-15827
▁Google	-15828
▁ابھرنے	-15829
▁اتاریں	-15830
▁اراولی	-15831
▁المقدس	-15832
▁امیلیہ	-15833
▁انجکشن	-15834
▁اندازه	-15835
▁اُڑاتے	-15836
▁اکادشی	-15837
▁باریکی	-15838
▁بتائیے	-15839
▁بتلائے	-15840
▁بدحالی	-15841
▁بوٹیاں	-15842
▁بچھائی	-15843
▁بھیدوں	-15844
▁تراشتے	-15845
▁تشخیصی	-15846
▁تنہائی	-15847
▁جاسکے۔	-15848
▁خریدتا	-15849
▁دانشور	-15850
▁ریٹنول	-15851
▁سنیاسی	-15852
▁شاستری	-15853
▁شرمناک	-15854
▁فرمادی	-15855
▁	-15856
ا	-15857
ی	-15858
و	-15859
ک	-15860
ر	-15861
ہ	-15862
ے	-15863
ن	-15864
م	-15865
ت	-15866
ل	-15867
س	-15868
ں	-15869
ب	-15870
د	-15871
پ	-15872
ھ	-15873
ج	-15874
گ	-15875
ئ	-15876
ع	-15877
۔	-15878
ش	-15879
ف	-15880
ق	-15881
،	-15882
ٹ	-15883
ز	-15884
چ	-15885
ح	-15886
خ	-15887
آ	-15888
ط	-15889
ص	-15890
ڈ	-15891
)	-15892
(	-15893
ڑ	-15894
1	-15895
0	-15896
غ	-15897
ض	-15898
.	-15899
ذ	-15900
2	-15901
ظ	-15902
ؤ	-15903
a	-15904
ه	-15905
e	-15906
ث	-15907
9	-15908
"	-15909
؟	-15910
ُ	-15911
o	-15912
ِ	-15913
i	-15914
-	-15915
t	-15916
n	-15917
!	-15918
3	-15919
ٰ	-15920
4	-15921
r	-15922
5	-15923
s	-15924
h	-15925
8	-15926
7	-15927
6	-15928
l	-15929
:	-15930
ي	-15931
u	-15932
ً	-15933
y	-15934
m	-15935
ّ	-15936
d	-15937
,	-15938
'	-15939
k	-15940
c	-15941
g	-15942
p	-15943
ء	-15944
b	-15945
f	-15946
⁄	-15947
w	-15948
َ	-15949
°	-15950
ژ	-15951
ؑ	-15952
v	-15953
̧	-15954
؛	-15955
S	-15956
?	-15957
I	-15958
A	-15959
T	-15960
ك	-15961
%	-15962
/	-15963
́	-15964
μ	-15965
D	-15966
z	-15967
ؐ	-15968
±	-15969
C	-15970
M	-15971
j	-15972
B	-15973
x	-15974
ۓ	-15975
W	-15976
E	-15977
P	-15978
O	-15979
ۂ	-15980
Y	-15981
N	-15982
G	-15983
L	-15984
R	-15985
·	-15986
H	-15987
*	-15988
إ	-15989
]	-15990
î	-15991
[	-15992
ى	-15993
¶	-15994
×	-15995
